56574230
001a5ddc
00000000
00000000
f7f6efea
0ff90816
0703fe07
091d3011
fd17101c
e8f60afd
00d9ddf5
01000000
00000000
000000ff
00000000
00ff0000
00ffff00
07270000
d7e212f2
fdd6dd1b
13f9ff0e
fd01fd06
f3ff0be1
22f22b35
0bfa0622
120a3500
e3f1150d
d315e7e7
01dfdeea
5e180913
011e0511
10000d12
070ef3d1
00eefcfc
00efabec
03fc08f6
08d4f809
00140b06
00000100
00000000
00000000
00000000
00000001
00000000
7f070100
5c5a2320
dae314e6
8bd5e1d8
f4e9f3f9
17d9f904
261fe8cf
23231211
03fcd106
1e1efdd9
f6bf0617
110be210
e006071d
f8db02f9
37020317
ea0addde
e7e818f5
21d1de4f
eb0ceff9
e0eb35e3
f5fd061b
0c02fbff
1b1b041c
e3ebeaeb
e1e9e0ca
08211be8
1bfd0f24
e0faf70e
e5c002e0
f2010912
d8f8fafb
fafef6fc
14263911
10fd2e1b
0bf70a0b
08ecd6f8
ddf0f92a
eeeefcf6
f1116028
e7eaf8e3
0f3304f9
f70efaf8
f3ed120b
10f8f009
f8160af4
f3fa13fe
fcfcfcff
fa02f900
22e41e3c
fbd5eccc
fa1950fe
f504e255
d1c1ed10
18d30dfc
f6ff1f11
0af6ff0e
f90600fb
eff906ee
02fcf902
ff04f200
00ff01f3
08fe0c02
071737f1
0613fac4
fe38f8f0
f1eabc02
3df5eff0
06ff0603
5337003f
5159007f
52493753
3f2f4f20
593e0019
2f6e00ff
4f2b2653
4ff47f19
fc1a0afc
1109230f
0000001d
00ff0000
2a07ff00
1d350a15
e20714f3
1be7f5f5
030df014
010e10f5
09f40b17
00000000
01000000
e3f70000
f1ec02e8
0703fd0b
e305efeb
04e6f701
02ffee03
edff09ec
f0f2fcf7
fcf4f1fb
06faf9f9
1714040b
e01a1aff
fbf7ff05
e1ebf5f7
04eeebfa
ee05f0f1
160606ee
f51f1cfe
fff4fd09
0902fa05
f70600fa
16f602f4
0907f60f
181d1610
211f211f
0000001e
00000000
0b1000ff
fcfd0004
04f5f1f4
ecf90104
dbd7efea
f403f905
0b00fef6
01000113
00000000
ebf20101
f7e7f500
eafefb07
04f4f8ef
18110805
000bfbfe
040300f7
f4ebec05
edeae7ea
0612e9e8
f7ff07f8
0ef9fd01
f8021106
0904f9ff
01030103
03080500
0802fb05
0f03f7f7
02041508
03010202
f6060302
fcfe05fb
fbee0605
08eb030f
f815edff
000000f5
00000000
fef900ff
0120fbff
c1fa09ea
3a950bf4
1014de29
26f7fa11
df04f6b1
00000004
00000001
11010000
1dc8fa38
2524ead0
ab08f1ce
09e70c0b
ed04e1ff
e7f018cb
07ece2ff
ed0adbdf
efd710fb
07f5f703
de241bed
fd180029
050609e7
18fdf51f
ed1cf9fc
eaf90fe5
14e120e5
0c0fde13
f3f61404
00e9ed19
37c60ddc
05f0ef23
00000000
0000ff00
00000000
00000000
00000000
01000000
00000000
00000000
00000000
00000101
00000100
01ff0000
00000000
00000000
0000ff00
0000ff00
00000100
0000ff01
00000100
01000100
01000000
00000000
00000100
ff0000ff
00000000
00000000
0001ff00
01010000
01000000
01000001
00000000
00ff0101
00010000
01000000
00010000
00000000
f00904fc
0bfe0503
00010007
0000ff00
0611ff00
f1ebf706
12f3edeb
15f7080e
e403faec
faf6edde
13100ee9
00000011
00000000
cece0101
f0ea01d0
ef1c310a
e7fc0bee
0c00fb0b
f71300f3
f21614e3
fbfaf717
09070b0d
1510000d
01fb0706
e4dfdbf0
dbe3dcea
fcf7fddd
00fcf302
ff03fbf5
1b002208
d3def7e6
f7f0f803
06f7fdf9
130d0208
05f10ef1
f205fae8
d32605e6
e5d316ed
00010108
ff000000
e7f9ff00
d3e6fcd4
02d5e6f8
0922ddf7
06162ff7
f300f1f9
ddf4ede4
000000ee
010001ff
08160000
fef3dff7
06ffe4e2
06f9f5fd
0e090407
eff9f9fd
fcf3eefc
ecf4f8fb
2cf7080f
e2f1021c
dcfe21d7
00e61537
f901fdf6
0dfaf9fd
010b0f01
0f010d0d
1e2e1c0b
d2220ef2
fcfb2cf3
f6f7f5fc
11f5f6f2
070ef314
f7fb08ff
de05e7df
05f80fe9
0000011e
00000000
de060000
d1d90bcb
dcf1d9ec
0e0c04fa
24070514
f9f4f1fe
030cfffb
ff0000fc
00000000
18f1ff00
43c9862e
0a31ecbb
0701f801
fafc02fe
f5ecf70e
ecffedf4
f7ecd6f5
100608f0
f1fefa0e
f02133de
1aef212f
f011d7f6
040011f3
f30902f2
07f40706
01242e0a
c601f0f2
f7fc11b4
fcf5f1f7
f4f8faf5
fcf4041f
18f6f4ec
1b0c1303
251b1e2c
00010015
01010001
0b14ff00
080b1409
000301fe
1513000a
fa020203
f2e4d7ec
ebf8f4e8
000001f7
00000000
0010ff00
272123fa
eb252d29
f2f2efdb
16fb0405
ef11e9d0
f5e921fc
fbf4e815
f0faf2e9
0107f9f5
f8f2f703
05edebe7
0300f505
f0f6e8f7
04eaf203
e901eff2
f60804ed
07fb1404
f1f9f611
f7f7fff2
e4faf802
1309f5f1
0a04fe13
1af40625
ec0fedfd
000000da
01000000
ef080000
f5e809f4
db11f3ff
dcf70cd7
1d0cf61e
d9fdf8ef
f7ebff11
0000ff04
00000000
eafa0000
27d49f42
0e68fbfe
feefeb16
fb010fda
0df80820
e80cf701
ffd1c2f8
f00de3c2
070520f4
171cfa1b
35160301
ff13fd0a
fcfa19e3
f9f609fe
fef9f7fe
e21832ef
24e7d540
fefac8ef
fe06eef5
e30000ee
ee240513
fc0c0021
15012435
cee4daf8
000100b8
0000ff01
f5f100ff
11f9ef0e
ef20150e
e5e6f9ee
26221cf0
0be5e0f6
24220701
00000018
000000ff
d3d80100
f10407f8
05203930
0506f900
eaedf6fb
0f100a06
f90eeffd
e7deeae8
16fbeff7
d1d82414
e7cbc6dd
0a0aeee7
faf90606
f900f2f4
fdfa020a
f5f6f4f7
0d1e10f6
f7f51a1c
fbfed700
fd0209f8
f005060d
f2f207f3
050b0900
05edf40d
f3fcecf2
00000002
00000000
1aceff01
1728ee40
f00313fc
22d900dd
11dfde05
f3f130f4
0f0800d4
ff0000e6
00000100
2d1aff00
a4f57fc0
10b12d17
d60812f8
0a0e12f7
06ffeefd
ef0b09dd
f70c20f3
f0feed07
1bd8f9fe
31eab41b
d61508da
e4f1211d
0415fa0f
08f9e007
e800ff02
0dd7f0f5
39e617f7
0bfa070d
00f50305
e5f4f30a
270715aa
12e5e7ee
f5fce6f2
e7fff2df
000000f2
00000000
1ceb0000
1f19e71c
f8160af1
f5f91d09
16e9f72d
1afe111c
2a0ce621
000000fa
00000000
fb050100
d8fa1aff
fce5071e
0506edfa
f50c10ea
f7f0eeed
f215d4e1
f6fa11d2
05f2031a
0cfaecfc
181afa05
ed0505e9
e9fc10e5
feff12fb
f50606fb
0af70c07
0be8ec11
0d03c7eb
0a0a08d8
01120708
f80716fe
f6ef0c0f
00f2fd08
120a0d09
0e100612
000100fe
01000000
fbec0000
01feeffd
e8fefdf6
d3efdfec
f1e2f2e1
2d171501
1d063255
000100ff
01000000
03fc0000
ef2f06ef
fbfe130c
2e1df905
f9fdfe15
1d01fc0a
1c21f90e
eef6fd00
00f90409
e1ecf8f9
f2f0f0eb
02ebedf0
1414fde6
ff00f41c
f40501ff
06f806fe
f20bf00e
0f17030c
05001207
1215070b
090e1800
f3000820
180716f8
00f4f9fe
0002f6fd
00ff00f9
0000ff00
07080000
07070808
16010a0b
1e140819
0113070d
1800fa0b
071b1006
01000013
ff000000
240f0101
1635230a
0c062014
fc060c04
0dfc050a
ff0d0cff
02ff0a08
04101206
0c0f1619
11190e0e
0c151d07
ee071117
03fef7fb
eefafefd
03f6fd00
ff02f600
f008f3f6
dcedfbe2
fc0de1f1
f7fd0df7
05fb000f
0e060607
0b0afe0a
feefeff5
0406fefa
00010009
00ff0101
fe020000
fafbfdfc
09f5eff2
09001011
f4e2f306
01ede5f8
2519fdf2
00010108
00000000
f9f00000
e3deeffe
09f3f6f5
0a0d04f8
f00c0e04
0209f3f6
fd1e06ec
05fffef5
07040007
f9f80509
060308f2
fa000c01
deeffeff
fcf5faef
03fa0305
0405fc03
0408f604
f8f0ffde
fbfff3eb
f9f803f9
fa020004
0bf100f2
f7e1f1f4
e902fdf6
f1eefbf0
000000fd
00000000
06070000
e2fbfcea
11e1ece8
24080d21
f704f509
fceef2fd
0c17e7ec
000000f8
00000000
f2f20100
e1d1def8
fbece7fa
fa0b08f6
1007160c
fa0d0204
e7fdffed
f9f5fbf8
10000006
feff0008
ff1721ee
ecfc171c
e7e0f4f8
f1f1ecf4
08040a0e
080bfe05
18180502
daf6f8e0
00fef7ea
f7fa01fb
0ffbfd07
09f8030a
04fcf2f6
00524868
6a37433e
49454d41
53465d7f
005ff8b3
e146ea28
337f2661
e3f6aed1
fe000104
000408f9
0703ff08
f70100fe
edf8fdfd
00e4ff00
00eeea0a
0000ff00
010000ff
f6fafcf9
f4f402f5
030707ff
f50507fd
f9f20302
fefffcfc
070300f4
ff030a04
ff020201
01edf5f7
00f8e1fd
0d0b14e4
07090308
0903fcfd
0af2080a
f2f8fbff
03f60000
00fbf101
fd0e120f
fbfbfcff
fefbfefa
fe00fd01
fefdfcf9
05fffffc
f906ff00
f9fcf5f6
fdf9fdfc
f907f7fd
f6f722fc
ede2e616
dcf1dde2
dcf3fee1
5a02ea0c
ff1a2c13
ff010000
00000001
1108041a
dff7fbe7
040003e7
0c140106
0ff101f4
08100bf2
e4130813
efe21cf4
1ffaf820
f0f10b01
130fd40a
eef1f4f5
04040411
0bf200fb
25ece60b
fbf42007
25000e1e
08060e15
11f1050e
e0fcd5f1
ecec0aea
06e9e8fc
f905f7f4
f7e905f2
06f5f0fc
e2f8ebe9
03f300eb
11bcebe4
16fde52c
f8f10fe2
08e8daf6
130806ff
f62d12e5
ffd6f701
ff0000ff
00010001
f7d7c9c7
341305fb
0e15ef2f
e84232f3
f0e63816
513bf3fa
09502adb
dad21517
beb4b8ee
17fdf50d
00210001
1f1d5df3
ecdfd71c
0bedc0bb
b6f034fd
e9b0fe43
1b35c7ec
e94c3ccb
0f371847
c2f0edd6
e6f7f9cc
f6e3f705
edfcd8eb
040b0df3
e5213017
2ff7ecf9
3c490714
28f5f5f8
0207e61d
f0e1fde9
1cf6e7ff
1832120c
a1303fd2
00c4fd19
01000000
00000000
e4160306
02ee0a14
0800eb08
d8edece2
0c06e8e6
f90b02f4
11c8f5f9
4b2b0a3a
102c0e29
30d70226
e818e4e9
131227ce
e7e3f6fd
e4f8cdd9
023000f8
0f13f606
01190a04
fd08100d
05080206
1f1c07fa
ddeaee13
ebe9f3f2
f80af2fe
f5fff303
ebf0f5f6
f0e5fbef
f101f2e8
08fafe01
06040405
f2f605fb
ffe9e8fa
e213f1f0
15c3e6eb
00110cff
010000ff
ff000000
220ffa0b
f61300ec
ecf7f9e4
08080209
f5e72205
1a0ff315
1013f9e6
09170d0e
fefe0f11
fdf9fd0f
1d20dc1b
ef0216f2
f0ebed09
0aeedad8
e8c7fe0a
f2f40c0a
19e31716
1900ef21
23f10ffd
f0f41a31
eff302f7
f9dfeafb
1e08d4e4
09fa031e
0ff4eaf8
f0041a0f
faf507f9
00000000
00000000
00000100
0000ff00
ffff0000
ff000101
ff0101ff
00ff0000
01000000
010000ff
00000000
00000000
ff000000
00000000
ff000000
00ffff01
00000000
000000ff
010100ff
00000000
00000000
00000000
00ff0100
00000001
00000000
00010001
00000000
01ff0100
00000000
0000ff00
00000100
00000000
00000000
00000000
01000100
0000ff00
da1f1702
fbf41df3
22fcf810
1b08ebf7
eb2908fc
e9bc31b2
00e3082e
01010001
01000001
0e0244f5
d7eb08f7
221214e3
e00f0dfc
01311cf7
97f342db
d0f62508
f8e5d3d0
e0dfc4dd
19de055b
e51792e0
193e28c5
eafbf600
03b3c9b0
7fe7bb0d
ee2630d8
2edb3515
271ff63d
e13b22f9
f4e7131d
f6f2db09
c8ecedce
0ff4e2da
06ef00ea
0dfd0008
0516000e
0bfe160f
fd02110d
f8fb08fa
0e101004
13071214
2d200b0b
1bea0712
0014100a
00000000
01010000
1dfe090c
f70d0d01
ff080aff
0a0c0b08
08f8fc05
fb160805
17eafbea
f2060d09
fff303f5
ee090004
11ecf0ff
0506f50a
f506fcfd
23fcfbf5
f6ccf723
051a241b
08f90009
ebf5fff2
0cfe00f3
09051624
09010d10
050b0610
1b0602fa
0f040315
0ffef6fe
06031a12
fefd0a16
15f0f302
0018f0e8
e8f6ff07
05e9f803
e403e9fb
fdc00efd
00fee814
00000000
0101ff00
0008f5f3
f300f1e4
f3fcfef2
f7f7f5f4
f9edfbf7
080deef9
0a0a02e8
fd02edf9
f4f9f9ef
0cfef00a
0d06f214
1c130501
0900000c
01f0f0f4
e1ed2500
d7ed0809
ffca090a
04f8df03
fb1c230a
08f91a1c
ffebf013
02f8e6f4
fbe7f9ef
05f0ee00
f302f3f5
e9fcfbed
020110fd
1e072027
060c031e
2404fbf6
1b331a06
081d392a
daff35d1
00df0a37
00000000
ff000001
ff0406de
11fa1615
2a0ef7fd
f6211a00
10f01406
041b211f
00e00114
0ffe0e0b
1713fd0c
2c041133
f22cdd11
261709ca
f01a05fe
091ef1e5
0ad904dd
050ff6ea
0100f3fa
02f2fd0b
e701ded9
220723fb
eff1e048
ef1411f1
f3f22119
01f901ec
f302040c
1012e9fa
0f212903
16161715
1005f720
fbf9f50a
ede0eff2
f4efdbea
e126e319
000ef9f2
00ffff00
ff010001
e7f9fb11
fc10e00a
f6fe1400
08e4001b
fa23f1fe
e8e512f8
f1f7ff21
0b03df07
e9fdf9f6
090b2de5
28f43dfd
faeccf2c
fa0401df
e6050c0c
0e38ccf8
0915d3fe
e00d2400
f4f60b0a
1a1e2010
01da3524
172118e4
fc0e0d08
e906fd05
f20af806
15fdf800
251e0911
0f140b06
f2f6ddd8
1614fff6
fe060af8
0ffcfa04
11060405
05f6ea07
000b330a
00ff0100
000000ff
0309f6f8
ffec07f5
0c030cea
050f0804
fdfe0c05
15060308
010ffff8
fbfbf9fe
070608ee
00fa030f
081bf809
fffd0920
fdf9f704
1efbf0fd
e4e0fb10
f60f451a
fcf10e0a
11fe060e
180a1c17
e0f60909
020004ed
17080b13
11090c12
00f6ff0a
01f401f9
f1f8fffe
f902fef3
fe110e03
0c01070a
1108f80c
f70f08fa
faf700ff
0505010f
ff0cf9fa
00000001
00000000
f803fbfd
edfcf9f7
f8f703f8
0beffa09
020af000
f8faff00
f30a0803
0d030d03
fd06000b
e10201e1
f6d506f1
09fffb03
001a09fe
ef072610
040c0bfd
0707e405
e909eef9
e0ec07e4
1d030910
060f0410
f4efecf3
ebf1e9ea
f902ece9
f4f7f802
f3ff0308
eefbf5eb
fcff04ee
1de11418
f30ad00a
140b10ed
daf80002
2cefe6ef
ca38e6f5
00fcffec
ff010100
00000100
dbf1fcf4
faf6fd25
f3f2070f
10f6f409
e4050404
251512ff
f01f1df6
14f20622
e7ffe212
0f0104e7
21f732d9
0e03e61f
f5121e00
fee1fe00
d60bc70d
0ff8f4ec
ec2d24ea
f40e260d
0922f61b
02e713fc
143f22da
07183c17
f504083a
01221807
1ff5fa0d
29160820
000c1804
090c0b05
0402110d
faf5f612
f5f8f1fb
dae7ecea
1de7e92e
ff10fd05
00000000
00000000
0910ed05
f5020af5
09060cfc
10020710
12100715
f10e02f7
07ef010d
1005090d
140c0413
0df5fc04
f609f700
01ece4fe
e712f3e7
ebf709f1
04f70914
fdfaebfe
20fe082c
f40a0304
09f1070e
fe02ff03
08ebe503
f403e9ec
07fd02ee
0c060212
ea00f800
f1fd06f5
02f9ff04
f7f80d19
e1e1d2f6
10030bed
00f9faff
0b030106
e32f1707
01fbf201
ff010100
000100ff
f3fc07fb
0e160e13
1c0dee28
f5fff0f9
fa000cfc
1004e3f1
fd0a1d00
f2fef2f5
efe8e107
09e50a02
08f802ef
232a22e1
140f221c
fb1afbfe
1d3e0812
f5f3d310
f606fdee
f50a00f8
e9eecff5
09feded0
080d08f2
f8fcf7fd
f0fbf6fb
122709f4
05231a1c
21151416
0d04020a
277f47f0
0f620029
11c94111
1c462825
192a36c3
487f00b4
4d6b6c46
59967beb
00fefe04
08fd0b06
0302fc09
08fbfd01
fffbfffe
0c131602
06f7100b
1218f3ef
06231412
f8f4efe8
fdf9f7fe
000000f4
00000000
16130000
f7050a03
f004ea09
f0f0f1ec
03f8f2f7
f9fa1105
fcfcfc03
f6f6f70e
f5faf7f3
fdf7fff9
f9fcf6fb
0b060108
0efc1913
0a1206fa
fc0804fe
fdfa0500
02140cfd
090fff11
fdfd181d
fdfffdfe
f8fffefd
0608f8f8
eaf6f811
15051213
17150a15
07fefd0b
fb050ef7
eedff402
fbdfd4fb
faedd4d4
cdf6e2e3
e1d4d8e2
dff4fbf5
e4e2f1fb
000000df
ff00ff01
0202ff00
282ff525
e422162d
03f8eff3
05ff12f9
0d081810
0906041e
0a03fb02
0a0807fc
e9ee1206
efffe8e5
0af5f2ef
fbf0f9f6
e5ecf0f8
fc0401fb
fdf2fefa
eaf3f301
fffbe81f
fff7f4ec
f9f2ed04
fbf1f0ea
e810f70d
111b0bf7
f1030dff
e2e3eef4
050c0fdc
0a060d0e
fe09080e
eff206ef
feff0616
e5e4f406
f2ebecea
0dfbe6f2
0e0d1109
00ff0117
ff010000
e7e10000
e1ecdbd6
0f09ffec
24220807
030c100d
fa1f00f6
0711fcf9
f0f4f7f4
00f7f7f7
e7fef8fb
eef0faef
eef8f807
e9ebf7e9
f5f6eff3
0e021c17
13070114
0731f10a
0b0c2c14
ff0cfa12
f8050bf4
1b060c0c
07020e2c
09fd080b
00000000
00000000
00ff00ff
ff000000
01000001
01000000
00000000
ff0000ff
010001ff
ff000000
00ff0001
ff000101
ff00ff00
00000000
0100ff00
ff000000
00010100
ff000000
00ff00ff
00ff0001
0000ffff
ff000000
ff000000
00000100
ffff0000
00010001
01010000
00000000
000000ff
ff000000
00ff0001
00000000
00ff0000
01010001
ffff0001
ff000000
01080c08
ffec0206
edf9f304
f5ee08f1
d2e8e80d
f5f105e9
0b1a0f1a
edf60e06
fc0df304
4cec4624
31121a7f
0000000c
01000000
e5ff0000
f901ffe1
f10dd9fd
3d18fe2f
e9e7dc0d
1ef0ff02
14ebf810
ebe4eb0b
fcfbff01
faedfefa
ee0a02f3
eeebedf8
10f7e2ea
e5faecee
fd111b04
15031011
24e0170a
f739dd38
2ffd08e0
013afaf5
16e92af7
d8f2070b
06020aff
0e232609
06011d29
05fd01fe
020603f6
1afe0702
0a11feec
15110ced
4629284d
15190c2d
18212921
1a09132a
01000000
01010001
cfd20000
e8e0e0e9
f8f90813
f8f406fa
fd04f302
f804e9f5
ebecfce1
fbf8ead8
fcfffef5
f3f902f5
fbfef8ed
cef5f802
d7dadbeb
e6efede2
1902010a
0209fc04
f40df100
f6042907
0c05f71e
0e09080c
ed0a0600
1602e206
0d0eddf8
05e4e3ec
070af6fc
0c0c0100
0e030a06
2b27030d
14252c18
200d1516
32301614
1c1d1f27
1b0c0f10
090e130e
ff00010a
00000000
21160000
13243628
f2f6131c
e2def1f5
040a07ee
f8ff0407
06ed0a04
171d1b11
070e1b22
301cfd05
19221517
f2162012
0702e2f3
0d0b040f
faf8f6f1
060cff00
f0f7fc04
f8ebd2df
030ce9e7
02010806
ddfafb03
120efbe4
01f8f204
130d131b
ff11fc09
02fefbf1
f20000f9
e7f9ff01
f7eb02ec
e2ffecf2
e9de07e7
12f7f305
1d050103
f0eb191d
000000ea
00ff0000
d9dcffff
09cdc7ec
0514f2d3
1407f50a
04080503
05f40103
f7fff400
ecedf7f8
03f6f600
f0f3effa
eef2f6e7
f3effbf2
0c16faf5
10110e05
fc030506
fc01fdfa
1b1228fe
0f031026
0103f4f5
02010402
0e03ffff
07fe2514
0fff0218
f8fefbfe
f4f6f9f9
fbfafaf4
00fb01fd
0f18f7fc
071b21f9
230e1819
1b1c161e
fd09000e
0b0a0405
11110a07
00010019
00000000
1b2200ff
0d1523ff
04fe0118
0a08f9fd
2a1f1515
f6080b06
04f20d07
0f16140c
14181916
0d081f1e
fd0901fe
edfc06ff
f1eeeaf1
e3f4f7e9
0302fafb
fd0502fe
f6000901
0b0a0404
fffdff01
0301ff06
fb0702fe
161605ff
0607fd13
dff1efe7
e9def1f1
0f050ae9
0a06ff0e
fb0e1509
ecebf2f6
0e08fb0a
e4d9f600
e7e6f3d8
0df40211
f100fff2
ff01fffe
00000000
0a160100
f3d3fe15
20eae4de
f8072213
f3eef601
f3fdfd0b
fe1904f7
efe7e900
ddddd4dd
f2faded9
d8c5e0f2
efe7e6ed
f0f1000f
0400feef
08f8fe08
fd09f905
dfddd0f3
1bfe15f2
0a160c37
fdfe1309
f3f8f816
07f2f5df
04f7fa01
08060d0c
ffff040b
0a080afe
0109fe03
faf405fd
f1faf7f4
13fe0606
2f152020
ebfdfa03
eefbfef1
1e190bf1
00ff0023
00ff01ff
06030000
0af9fe20
ffe105fe
fc0b06fc
09151b14
0417080a
ff152c03
06fef512
0b010709
010d000d
06fa04ff
f1feff05
c5d2dffc
fcf1f2db
fef6f6fb
f9fbfbfa
03fcfe04
fe041be8
f6f0e90a
01f4f3f6
ee1000fa
1e1b04e3
f3f6f8ef
d310eedb
fae31cf4
e6eef616
e8feedf5
f9fd0bf3
ff0109fa
dbf5f4f8
f1d50ae6
0adf001b
2aecf101
3529e203
01ff00f9
00000000
fdf30001
fced1cfe
051118f0
fe08cbf5
e30ffbd5
cfe2dbda
e0ecb5b7
fbfaefad
00f9f804
1bf0f707
ff0201fc
f7fb10f6
c9fe390d
f3f908ea
0af8081a
060d0313
14f70303
f921f8eb
fa072bda
f3060ef5
0904120b
25dd03ec
0ad8fd12
000e07ff
fdfb0902
fbff0702
08000401
13080202
010b01f6
fb0402fa
fcfc090b
07fff404
02fcfe07
fd0401fb
0001ff02
00010000
faf60000
f4f1eaff
08f6ea06
f90004ff
f1eff9fd
fef6fb07
faf7f9fc
f9fbf9fe
f8fafaf6
0006fdf9
fb0903f6
fdfdfdfd
f9f5faf7
0801fbff
08020403
0705fe01
1111f300
fb140f00
fa070cfe
00fe0800
01ffff04
fe000c12
0503ff05
07100b03
100e170f
01fcfc13
0500ff01
02050103
feffffff
edfff9f5
fff2f0f9
f5f0f9f4
04faff02
fcfd05fe
00ff01fa
00000000
03fa0000
0b00000d
ed0002f1
f1edf2e8
fbfff4f6
ef04fcf0
01f109fd
ff02f603
faff00fb
0506fe00
01030bfd
07050a06
ff0c050e
0a090800
04020206
ff040102
f9fffdff
06020efc
030003fb
00000101
fffdfd02
13fffcfe
fef6fc00
1a07121b
060dfa13
fb06f9f4
fdf605fd
0508f601
f7f8faf7
161002ff
e1f3fa05
fb0515db
1c3318f7
e7dd3c26
000001f6
00000001
ebed0000
edf2fbe7
f9051b08
0af2110d
11fde30d
0724351c
2a071526
0d0c040f
f3fdfefd
0505f1f7
f4f6f6f8
ece2ebed
2511fafe
fb16122b
f80609f9
1506050b
d1edfa0f
16fc2111
0e07f926
000d0a06
eaf701fd
0805f0ec
1907f4fe
12f4030f
fc0df802
0f0cfff6
090a0a06
f9fd0809
ff0302f6
0cfcffff
fdf4080d
02f1f30d
f202f9f9
f7faf0eb
ffff00f4
00010000
13fe0100
1304f72b
fefededa
f604f5f1
000d05eb
241e1225
10171a12
fef0f010
eaf6ecec
f703fdeb
f9fc0afd
f90a0b09
fe0202fe
0b00fcff
f2fbfdfb
fdfefaf9
f105f1f8
18021206
ffff0f1d
f4fb00f8
fcf3fb02
11feeff7
02ff0513
004d4b3a
505c787f
31244b48
255c1920
00e5dbdd
cbdc81a3
351fd8cb
f69507f9
14f1fdfb
fb031406
000bf303
0215f804
e5f2f7f4
f9eaffe9
010a01f4
01000000
00010201
17ca11ed
0afbff2f
d1b3dee9
06f4fdf0
171fff34
f9f3f412
c8d9c8d1
d4dcc5cf
fae7cfd4
f604fd0a
09f00806
0304e303
10394603
def1281f
e206e4d3
fbe7edf3
221c01ff
f1101ffa
e2f8efee
0c05ede7
00f7fa0f
08110cff
ecce0b07
0d2012e2
f0141809
0605e7ed
1b1c000a
ef0b03e6
fd0aedfe
f0f00deb
ddc1f80c
ce0dcce1
cbd415d1
00d6d5ee
ff0100ff
01feff00
0e35d7f1
ce1aefd8
e6fde709
c50aedd6
ec0d03e1
dbd6dede
190f05ee
e7fae512
e7fb10c1
e7f5f30b
eee5f3e2
e9d60810
171bfc13
03290e21
06caeff8
04f7ded3
4121040d
1e211671
0bf0eefe
eff600fb
eff6fafb
0708f5fb
e6091007
c4c6fefa
e8111031
eddfefe8
e4e1e9ee
fa030b0a
d5d9fcf9
2d111be0
ed28fc03
091716f5
070e2404
00081020
0200fffe
0001ff01
d202e305
dce0c3b4
f00305da
fc142109
16130f14
0514100b
1cf0fd00
fb0af708
ebfd0fe9
ff0710f4
1a160913
fc020910
fc020313
f4f5f4f0
0b09faed
fa26200d
0017fde9
0d1c2901
07fbfe05
0c0a0308
00fafa10
f304fdf3
1d17fbf7
e4f3010c
1bdeeefd
170b1222
fdfbf20b
142e202b
cdca12f9
f01bf2e9
63171e30
f43a135a
c2b215f0
00d5a5f1
00010100
ff01ff00
12f61c0d
d506d8d9
cb95ecc3
34f11e23
c9c7f244
f2e6fceb
44e2dcf2
d229d800
b5d030b3
b7bdafbe
fde4d9cc
c5c3f309
eebdcef7
c2bed5c8
0217ded2
39190102
093715f9
deee16ed
f9f0f717
fc08efec
19171df7
0d06140b
cafc0c11
d1c4eed9
eed6d9ef
f501eeda
1807e5f9
090a0e0c
0a0c1d20
c6c5effc
cac9d3ea
f218dcc5
010c2fec
00dadf0d
00ff00ff
ffff0000
2a24c900
06f47259
143c0c18
333b302a
24286a35
ebf3fe07
13e2f5ec
181eef04
dbf417eb
06dfe90d
eaf6d4e6
c1dce9e5
f9c4e0eb
0c22f2ff
f6e82016
d911fdff
05d60f06
fdf8dc3c
08fa0af8
fffaf90d
ecf9f7fc
fef2ebfb
f6fffef8
04f71306
15f80117
060fe812
02031b04
01ff0000
01010100
00000001
ff00ff00
ffff0001
01ff0100
000100ff
ff010200
000100ff
01010000
00ff0001
ffff0201
00000000
00010000
000000ff
00ff0000
010001ff
0001ff01
0000ff00
0001ff01
ffff01ff
0101ff00
0101ff01
00010101
01000100
ffffffff
0200ff00
0001ff01
01000000
ffff0001
00010200
00020001
00010101
000001ff
00fffeff
ff000100
070000fc
f300f6e7
220106fe
fc3df7e1
e8da231e
f20415f4
fff81e12
ff020001
ff010000
12f73dda
39270937
d6b41d1b
efeee516
1230e0fe
1f365601
ba3a4244
13dcd7e5
231ce019
29f70825
273a0c19
0816fd22
f5081bf8
e2180212
0803fef0
fe1d030b
1512f6f1
160f14e5
01f4f0f6
0aff0701
1d04040d
f90f0800
bcfc0dfe
ccd927a6
0ddcf010
030d2225
06f9fa09
ff041315
35220f17
26f9161e
faee0401
0e1ef7ef
2b2f14f7
0113190f
00ff0001
00ff0000
22122b34
4d143664
184a0631
fa001e15
3528f6bf
09141916
25121d09
171df70c
ff1a22fb
170dfbf0
f306f507
072007de
05fb00ef
31161e25
ffe9072a
1a0f15f8
f6e10042
e21a0ee0
030805e2
fdf9120d
081c0f01
0df9ff05
28ff090a
27410af8
14011612
07f71121
0b051611
f2fa0f11
04f0f306
ecd50dfa
eaf9ef05
0dfb08d9
07efdf00
010205f9
01ffff00
01000001
820b00dc
f7ba510d
0413063e
74defc5a
fffcf51c
dfff0be7
21041610
0a13dc02
f80515ea
021bfaf7
edfde2f8
f5fcf2cd
e9dbedf9
e7f205fe
18fa1ffa
8f1a05ed
d799f507
ec06cbfe
0002f6fa
f908f2eb
f5fdfa05
f4f6f300
c1c0f9f7
e1c9bad0
e2ffe9db
f900f9f0
060211fd
f705fbfe
090903fe
04faea0d
fc060af3
140c1313
0b13110d
ff292420
00ffff01
000100ff
11fdef0d
fa1208f4
26311615
0a282a14
06022623
141c0d00
0211180a
070f1608
0c061305
00f2f9f9
13fc120d
f3f40a1d
14f9f40e
fbea0d04
141205fa
f8091400
f80400f4
f1e9fd09
070a1609
1006050d
fd01ff03
080102ff
f3f10508
0504f4ef
0c140df5
0209f0fc
0a090cf9
2212120d
fffd0cfc
e339110a
12231221
d7eafc3f
f2ff0fdc
0102fffe
00000100
ff0101ff
51f33006
04140810
0ff539e9
19034022
323b1b56
402d254e
020ffcfe
ff14f7fc
ff00e514
000b1315
09fb191f
0a01feed
f3faf1ec
0103f7ec
081df903
22f5de0b
fb012ee8
00e307d5
0dff0d1d
1a120012
fff4050c
01f80806
0816fbf8
1c21280a
feed08ee
190b10fd
0f16e91d
10ff120f
ee010109
e7e7e7f9
04e20b09
180ef3f7
1a252019
fff6ec00
0101fe00
ff000100
0f147f2c
f8fe3c71
f3d4e302
1d0dc822
02000d11
251410ff
db323022
fcf8eae6
140f01f7
12fd06f9
140f0109
1507ff0a
18fd11f7
f9122242
e4ec0e0c
fdee0d00
e2e01c2a
fd0a0209
0f0af0fb
1109fd02
ff0802ff
fc03f1f7
10190609
eee7fc16
23180b14
ff0d071e
0b1529fa
09030d09
fbf5f80b
f4fef3ed
fb0c0801
eef9f608
f8fbfd02
ff01fdfe
ff000100
ff00ff00
0ff9f9eb
fb11d6fa
310e18d5
003a1a0c
e2ea241e
daeaeedc
dbe5dddf
f3d80fec
1bfdd117
f3fbf5fa
f2f1f7f0
070202f7
f6250905
01f20bfe
f0f3ecff
08f1eff1
05131701
0cf8120b
fa00f9f9
0304fffd
04060205
0a050d0c
fae80506
f8f9fb03
ebeff2fc
faf200fb
faf9eafe
f6fd04f4
fffbf707
05fa00f8
07fa0a02
05060c0f
0912f81b
fff503f7
00000101
0000ff01
110b2f12
090e0e32
f3fef20a
fcf6e0f4
e8eb12fc
f4f2e6df
fdf6f7e6
00fbfdfb
00fbf4fb
04f5f905
ecf7ece8
03f102eb
020afe08
ff02fe0f
05f608fe
f6f301fc
09f20a14
070b0703
04060500
fe0808fe
f9feff09
09fbf900
fef502fe
0b100afa
ff0a0e08
f6fcf700
01f6fdf8
d7edfee8
03d9f602
09020400
f13a0e02
e2de1ef7
ead9bdfb
00e7e7cf
00ff0001
01000001
e3ca56ef
09f6f93b
deff00ce
1802072e
d9d60100
f2dcd803
20fde2d8
d521ccd2
f1fb31cd
d911f4da
f9f9eeec
e7d9d9f0
f2edf909
11170beb
d0fa3f04
a9cac203
e0af26ee
dad0dc00
fa14e6ed
f80819ea
e5f7050e
09f2fb17
efd8fdf5
e6e1d1ee
121511fb
fd27ef06
021023eb
faf4e8f5
f8e900ee
f52e1af7
e6fce506
ff14d0e0
0705170b
fff40b0e
0001fe00
010000ff
0221c71d
2e0308da
e5fc1c28
f4d817e8
d9dceafe
e0e1d7f6
29d7d1df
f9071013
cfeefcfd
eaf90902
f104edf8
f117f4e5
f2fd0d0a
0dfbe4ec
0a18fbf7
f305fb11
280215e2
0a0b0709
eefd0f0f
f2fdf7fd
02effafe
f1ff09fd
fc0ef8f5
e0f9fffe
f0ef0b0c
090702fc
edeae9fa
5e296260
37d2005d
36a61b3b
327ff03e
08424e81
5934fff5
67715778
400768cb
00000000
01000000
000000ff
00000000
00000000
00000000
00000000
ff000000
00000000
ff000000
00000000
00000000
00000000
00000000
0000ff00
ff000000
010000ff
00000000
00000000
0000ff00
00010000
00010000
00000000
00000000
01000000
000000ff
01000000
00000000
00000000
00000000
00000000
00000000
00000001
00000000
00000000
00000000
fa000301
01f9ff00
02fc05fd
1cfd030c
fdfffe0f
ecef0402
05f1f808
0b0df102
f4fffcf1
ffff02fb
f2fdf8fb
000000ed
01000000
e90c0000
f4fa03e3
060b0e04
ebf8f6f3
f2f10bed
ff1c090f
fbf21e0d
10060611
f80a07fc
fc010603
00f3f708
06f7f302
f1ef0413
09fbe6f7
06f2f2fc
f906f3f8
ddfa02f0
24e5fc01
f4eff81d
fcfafdfb
ebf6f7fd
0a28eae7
030814f2
0f0a1614
000bfa0f
090102e7
f60c08fa
f8f20c05
12e4dc08
f901e1dd
f301f8ea
f20211f1
eae2fdfe
06fddceb
0000ffef
000000ff
d7d60000
e80614ff
f5034551
edeafc00
0becf203
fa15fbf5
040f17fb
edf5fc12
00e7f601
0916f3f9
00f0f2ff
03ffe0e7
eae21319
edede1e3
02eff1fd
f2fdf5f6
14effaf5
06feebeb
08f9e728
fa00fdff
e4fffd01
fb030de2
01fe0119
041207fe
0f071611
05f4fb08
f7fcf5f7
0108fef6
fefb00fe
13f6f7f8
0217f801
f1031900
0afc0601
01fe010e
000100fb
00000000
04140000
f90d1411
f2030c1a
f7eef900
0d0dfaf6
ff001009
06f3fe05
05050011
120e1415
0c08100f
010b0702
0405fafb
09080f01
ff01f800
fd0d03ff
03040c02
0704fd04
ec09e0e0
01fb18fd
0307fc01
f0fe04ff
f0efeef3
f6f90100
ecfb0003
f50408f0
fcf5fe11
012512eb
1205041b
eff90106
eefdf3f3
55ff07e8
01e3fff5
e9ed23fd
f5f60bd5
000000f2
ff000000
42f70000
2db8060a
1ae82bd9
a5e60f00
02201607
fae6fffd
03fd39fa
0a0eeafa
0608f906
1ffeed14
09df1ddc
f6ed1e04
c7f7e759
fe0c09da
fffbe607
dff3f511
fccb45f1
27ef33cc
fef1022e
fa00100a
cf0ef015
73231681
00ded0d0
fef8f9f9
fefefcff
080601fb
fd090500
01fd0b03
00fcf707
fafcfefa
f3f1f7f6
f4f3f7f4
04050004
06000b05
00000007
00000000
15080000
10130c0b
ee040801
f9f4f2f2
f5f8f1f8
ff0103fe
12050909
03080109
effefaf8
faf7f4f2
f9f7f8f8
06fe03fc
0106ff04
06030bff
04070602
06050708
ece5ee09
06fdfcf2
10130806
050e1002
f70a0a0a
04fdfbf4
050501ff
e90dfae8
07fc0b01
f7f60102
0205f905
0216fefe
f7060df5
0ef902f6
2b000019
f60d1410
0a0d06fe
01fbfd03
0000fffb
000000ff
f8010000
01192005
080d2202
d2fdfde9
06f2f9f8
eaf2e2ec
e9eef9ce
fbfffafe
02fc090f
1a1cfe02
01ff1c18
ecf4f402
e70a1c02
fcfb11fa
0801060d
0d0f0e14
f5050305
d2f9f4c8
fdfc200f
010b1007
07f7080e
19f5e9e0
05f4fb11
f804f9f9
fdf605fd
04fafffc
0006feff
fdfd05fb
f3d5e403
f6f5e3e6
f40706ee
221c2607
fe070711
ebf0f2f6
0001fff4
00ff00ff
bcc10000
0608f4d9
093d502f
f3dcf411
e4e7e1e7
11f2ff09
0211e6fa
f2e9de05
f5f2fcf9
201cf3f2
ecf6f70a
0bdecfe1
f7f602f5
0e16faf7
f8f1eff1
090104fd
0c020705
00ebc9ee
f8fd2007
08070303
ed030b06
e7fa00f5
f6f102fd
ff0100f8
10030d0b
fc01050d
fcffff04
fcfdfc07
00050b03
f8f80109
11071203
fe07080d
1a011718
0c110b1d
000000f9
01000000
fe030000
0af0ff0e
fbfdebe5
09f8090e
0c07f80a
f7eff3f6
fff9f9fe
02f9fc02
fafef5f9
0901f5f2
f70405f4
fef60c07
0205f2fe
fdfaf5ff
f60909f3
0cfa090c
1bebfe09
03210105
23ff1d04
f91bfdf9
02f71700
fafe02f1
faf405ff
03f3f5fd
fa0002ff
f2f9f401
06f4f800
0afefffb
11070604
0a07fafd
12160510
0e07fdfc
fa0f0301
f2032c18
000000fd
00000000
fefd0000
06041b03
eafb2a2a
fcfe06eb
e4f30310
04191202
f2ff1d14
f8f6f2ff
fb040604
090fff03
19040506
02fff6fb
ebe5ebf4
feeee811
03f8f4f8
ff00f8fa
020afa05
00e80e0b
f5fdcdde
0cf8fefd
f907fd00
ff191701
ff0712e8
0b000905
060c020b
f1edf0fb
f3f2f2f4
1108f4f0
0701f71e
110606f9
130c0312
060d0709
40020703
fffe403b
00000008
00ff0000
0c010000
1a3f3bff
09012f37
242cf3fc
fe070620
effdf2f7
fcf101f4
09121002
fa001215
0506eaf8
030705f9
f6f1f2eb
261c0202
01030521
fff3fb00
0109f2f9
f000f6fb
f8101402
fbfbf3fd
f4f9f7f2
0400ff03
fbf10101
0b0900f8
fbfcfcfb
f3f4f7f5
000705f4
00000302
03fffdff
0d0c0b08
f0121213
f60003f1
09fd0701
00020807
03fd0204
00000003
00000000
160b0000
180b0412
070a0204
06fe0207
0102fa06
02f9f800
0200ff02
fafb0100
07fcf900
fdfffe00
fe0505f4
05ff0907
0407f7fd
f2fb0102
00030300
fbfaff01
0e04fefc
f5170c06
030405f0
00020101
05020201
05050d0c
12080208
01000000
00000000
00000000
00000000
00000000
00000000
00010000
00000000
00000000
00000001
0000ff00
00ff0000
010000ff
00000000
00000000
0000ff00
000000ff
ff000000
00000000
00000000
00010000
ff000000
00010000
00000000
00000000
0000ff00
00000000
00000000
000100ff
00000100
ff000000
01000000
ff000000
00000000
ff0000ff
00000000
090702ff
100c040c
fb02f208
ff08fbfb
f6030d03
f6f8fef2
11f6fdfe
fdf800fe
02f9fcf8
1fedfb0a
fafcecfc
000100f2
00000000
000c0000
05fa20ff
0a010e04
f40a00fb
e5eef0fc
fa01f7f9
f4f7fce8
f7fb07f8
fff6f207
0d0df9fd
05f50b06
e4fdfdf9
faf602f8
0602f403
000402fd
0a110409
11f1fb09
f30f03dc
0bfffdf6
fa121102
0cf9030e
f2da0df1
05f0fdf6
0e12110d
09070e13
fafa0005
01fafd01
1c0efafd
1c23120d
f9161509
ecfaeef3
e5e7f2ea
150b0714
000e0a06
00000006
00ff0000
f3fc0000
f3f000f0
fcf4ee04
0502f4fa
0b0d0d04
fb0108fd
0afd010b
02f9fbfa
f802f8fa
0f0cfdf6
08110c09
0b0a0a0c
fefb0a0b
02fcf9fd
07000602
0905010a
fb02f001
01130cfe
f80f0913
fcfa0cf8
e4fbf80b
f9f8efee
eef6fcfc
f8f2e8f8
0702faf8
f8f40d03
eeebf101
fd12efee
10f30ef5
0409eaff
d21a0fec
0eef1812
f60fe614
f803e9fb
000000f3
00000000
01fe0000
1406e903
e41a120f
31e4d820
f61804db
00d61b07
02fcc524
ecf0e9ee
15f30005
0b0bfd00
fa1c0bf1
2300f90a
fb0104d9
0100fcfb
e70000e4
fbe901fb
16f316f9
0721942f
e9ef16a2
0cfbdcf5
fa0a03e2
d015fb0e
ffe91f08
333d3000
4a484464
cd7f394d
575a3500
f61e1500
1815e47f
f69e06ee
4acbf900
00000000
0000ff00
06f70300
ff0e1605
eee2f607
0b0cf1e4
f90c0300
070100fc
fff2eaff
e7d5b50b
ca042c79
06fef5dd
090e07f5
f9f71107
fe121a0f
f6f8fa0a
07f10b0a
150ff80b
f7f8f8e4
f9f7f60c
f40620de
fffbfefc
0002f30b
000909f5
ef0b1814
0a060501
fcfdf909
00000000
00000001
150b07ff
10f50aff
f4f6f807
03f6eefc
0cf5eef2
e803fd1c
f6e50009
00000100
00000001
fef40401
f202ddf2
e4f806f9
fee1f0fe
f9ff03fe
0706f6f3
ff020efb
d7ec03ff
340a32cb
f3f2f5fa
07f9f7ff
03fcfd04
391df801
f91f0f05
200e1212
f9060206
fd1ce803
e2fc0ce9
fd0b16ff
ebe2e614
f2fe04e9
d9ccdbef
ff07f6fc
00fd03f7
11fffb0e
00ffff00
000000ff
0f000c00
11231210
f60b060d
f1f101f4
05fdfc08
1922fd19
eefc0ce4
00000000
00000000
0d01fd00
fd0b05fd
f20ffcff
f9f516fc
0c080715
fe051207
06fdfc09
fff909f9
f1e71d21
080605fb
fc01fcff
fdfbfbf6
000804f8
f7fd0301
e8fc05e9
fcfa01fb
07fbf306
ee00f9f0
020300f9
02fe0101
140e0209
0c0b0b14
00080908
020900fd
03080c01
00ffff00
ff00ff00
f9fcfdff
07f1f4fd
f3ecffff
f0f7f0f2
07f4faf3
f51105e1
1d0b1519
01010100
00ff0000
01020300
fbfdfffd
0604fefe
0300fc09
01fdfbfb
01ffffff
01ff0001
0f07f9fc
efeb15fe
fcfd00f3
fdfcfc01
07fefdfb
0805fd04
060401fe
00fd0609
ff0101fc
f6f610f9
14fbf50e
00fb02f9
fefdf5fb
fafc04fb
f5f6fdfa
040b080c
01010001
00000100
00ff0100
00000000
0007ff00
000007fe
fefd0308
0afffe07
0305fbf9
0bfdf613
f203f6f1
01000000
00000000
fbe40200
0cfde306
e417fcf5
05ea0e0a
ff06f505
0a00fdf8
f90af900
0d0df719
14202dbd
e8f30101
01eff801
02d2fd01
500bce20
f73e0aea
10f5f8ff
ef0ef8e3
f8ffe5fd
07fa07f9
f4fb0508
1ee2f826
0813f9f8
fffc0b04
0101f611
f801f2ec
080304ff
00000000
00000000
01fe0600
fa1efbfb
ecff13ff
e4ecf9e8
f5f2fb01
5de4e72a
c231e6c6
00010100
00000000
00f6e100
fb06f2df
f5221611
d0cc17e3
13d4d71a
020e06fe
02fb010f
ddf4fbea
fbf609e6
0a0e1b06
09ff0916
05ebfb03
210be802
0f1d07ed
c8ebf1e0
08f8fdf5
fb1602fa
27001612
0a02f21f
0df60606
090cfe09
000813fe
010d0c13
0808effa
1c1e1b04
00010000
00000000
00fd0400
fb0c0203
f60b17ff
edf60df1
faf80217
f0f603d6
fb01e113
ff000000
ff000000
0e251700
c21f06f9
20e207e7
1ef6ee44
f1afa9c9
f7eef800
cbe9f1ef
21d40d0c
05f1f1dc
fcfff80d
07171414
25f71816
1c10fdfc
1feccfe8
18ff1243
94909204
0a0af417
fced05f3
2f26deff
01f6f8fa
ded6d4e5
b6c6addf
0ad4cfc6
08f80c09
0bf4ee0f
00010100
00000001
fdf6f100
ea25efe8
080e06e5
08f1ef15
fa13f802
20f911f4
de05e1d6
0000ff00
01000000
1f211900
02dff605
1c011217
e7eaeb17
15fd19fb
fdf1fb01
fe0eff0d
07247feb
4702b081
1610052a
ef000001
221ff7f2
09f2e6fb
f9ff1f1c
f4ea1101
061510fa
0bf22e18
1b0ee318
03f5eaf9
fafd0b1d
fafb0f00
f20e08e1
1cede8ed
0d040e17
0c0c0b0d
0000ff00
00000000
f005f800
0116fb07
08000c03
03f6f915
0911fff4
14fa08f7
05fef3f2
00000000
00000000
f2f9f300
0df7ff05
f9020302
eef600f9
00f5f6f4
04f8f101
0408f7ff
23f8e1ee
0be8f7e3
fe05080f
ff010304
f2ff0400
06daf908
fe0afe0a
0df807fe
0303f00d
f3fb15f6
0ceffc0f
fdfa0afc
0bff0c1d
0502090e
edf3f300
fdf90308
03fffd02
0b020406
00000100
ff010000
fe02f800
f803f0f3
ebf4fbf5
f0ecf7f2
eaf2f0fa
25e3ef01
f918edf3
ff010000
ff000000
050d0500
fcf70505
fceaedf3
3009dc1e
d4200ef3
10e5faf3
1618f114
0bf207df
1e32fb04
e5e3e0e1
0500fef1
04e11b1a
291df214
ff111bfe
28001419
02111028
000e1507
140b0c0c
0e150816
06151600
fa030b19
111608ea
00232811
07fefcfe
05020807
00000000
0000ff00
04f3e900
f219fbf1
311a2307
1c2c1a19
f5141f0f
240a1716
e3000b08
00010000
00010001
11fef900
15f5f801
e517071d
f7fa0f16
e8f507fe
03e6ece7
0d1c040f
34ea4eca
62be0694
fcf5f3d1
ecf0e4f0
01faf0ed
28e9eaf2
f7f80200
15fb13fd
f80d02fb
db0cecf9
e3d304de
fceaef15
08e9f11b
03fd09f6
c1c1cd0d
1512f50a
18040710
03140f11
010000ff
00000101
ddfe0501
f61be40d
e8e5f802
dfede5d6
f1f4f7e2
45e9fbf1
f501f7e5
00000000
ff010001
f2fff4ff
17ff0efe
02151631
e3fa02fb
0b041210
1006010b
0e090411
0424100a
6901ced1
00030613
03020903
04040c10
05e1f80c
fdf51322
0c0eecff
16080a0c
f8fe06f4
08fe070d
0f0303ff
f301131d
0e01f608
f3f0ed15
f7f1f5f3
07f6fd05
0c190b02
00000000
ff0000ff
0401fe00
ef0efef1
e8faeb00
eeeffce6
fd01090e
08faf206
13f216fc
000100ff
00ff0000
0bf6fb00
fa03fa02
0e00f8f9
1e17100f
f614120b
f4f5f0f4
f2f1f4ee
da140200
f7f8fcf1
f8f9fb08
08fffbfd
eefd0608
eae904f3
0deee3fc
16141414
1f15041a
f5fef7ec
f6edfaf7
e7ecf2f3
f8ececf5
fcfdf4ef
faf6fbff
1005fcfa
050d1e11
fffd0409
00000000
00000000
09000a01
0708060b
ff00fd02
f5fbfbfa
faefebf5
ef00f8e6
15f9ee00
000000ff
0000ff00
1511f700
fb0d06ef
18daf2f3
0bf1f50f
1200e600
e5010ffd
0bee0b02
d2ddf0fa
deedc666
0e11071a
fa000bff
080cf3ef
e309faf4
fef7f700
dbfc1cf3
f4f90b1c
f10ae1ec
e0f00cd8
09f50e19
12fffbe2
0d08ff05
16240402
fdf50bee
f3fd0a0a
e9effef7
ff0000ff
00000000
0a0bf500
0fd902f6
090005f3
f2fb0b09
2cfae509
9c3a10c1
10eb174f
00ff0000
01000000
f00e11ff
16f32329
0120001a
f6fe21fd
effbecf4
06ebf0fb
0b06e310
4bf4f513
f804c9f0
f7f9f810
effff7f2
d2f907f9
09b60a07
0105ea12
17ea0c06
03efd51b
06f41d0c
150aec0e
f6f3faf8
fcf22322
efe7ddfe
ebe4e50b
f60c060a
0afff700
090d0409
00000000
0100ff01
fdfde601
ec07f5e8
f7e5f4fa
19fded14
e51b05f8
49c71816
0614d829
0000ff01
00010000
1800ff01
e6fef1f5
251be1e3
feff1a10
05d8cce1
f50804fd
150702fb
00101f1d
b6f4f83a
fcfe02ed
fffaff08
fffcecf1
010705fc
1813f2df
f1eefa03
03ffdff9
00040a13
f8effcfc
0000f4fb
220effea
0a0ffb18
f5020911
ffd8e9ef
0203f700
0d0d02fd
0101ff00
00ff0001
f9090c00
0ff40d0d
fdfc230b
eae8ee02
00ebe2ec
fdf7e5ff
f924f60c
001a465f
767fab4e
2f62480d
39705539
06693f7f
1b2d5874
2f4c4528
ee515cb0
01f10fff
1010f1ee
02090ef8
11050704
0bfd1102
fafbf3ff
0c1f0608
f7040732
01fa07ec
f809d6f9
110609fc
fefffc03
fdfdf902
e1f7f601
f712fd04
faf00517
240509d5
dae1f3f3
0c30e3e2
231a0cfd
fcf7ff04
fff60303
fc01f3f0
fc0ff728
e016fff3
e005c0ba
0305f107
04f71303
0700ff01
f636d30a
10f22efa
e50ffce9
f6ef10f3
ef031408
f2dfec24
05ee07e2
ff0108ff
f7f3fe06
f9f5f7f7
f4fafcf5
f9fbf7fb
f40006f4
11f6020d
24150a1c
fdfbfa0d
11f4fc08
fef9fc04
0001f5f1
f904fef8
0b0e0200
000701fb
feecfae8
fbf4f4fb
f7fbf9f6
f405fff7
f4ec1cff
f4000cff
fff1fc04
eaf3f2fd
f6ebedfa
f8f5f5f1
f9f8fd15
e4ebeaf8
02f9fefa
fdffff01
fdf8fefd
05fb2205
f9f0fb10
01fef2f7
eff9fdef
0d04f0ee
100cfef9
f3eef900
2d06eff1
f4dfffe6
e6fbf9f5
0d17fed9
12f4ff1f
0c121931
b8f30904
0a281c08
0fdef0e1
ecf4ca45
ff00f6fb
03f60801
f107f716
f44407de
ea2dea12
5e1cf1d9
da96b6d3
25d3f507
0aeda00b
f1fa1508
00eb08fe
e10ff1de
da30f119
b708c5ea
3b12d681
002800f8
fa0b18f8
1b051b0b
040f120e
da30a03f
ffff18db
052505e7
fd1507e1
a0bbe342
f3d4e916
12f8f6fd
01fd080a
02fcf402
f0fef5e9
0605e9eb
fd0a0efe
02f60007
ff050401
01fdf802
f31b131a
1f1ef9fa
ffff0022
fffd01fd
f4010708
fbf7f6fa
0af5f0ec
0e060806
161c2d00
05020104
e6e5fbff
fdf8fbe6
f30701f8
fefafdfd
01080703
1aeaf0e7
01f90d0f
f0f4ef07
fcfcfdf7
fffcfcfc
05fff600
04ebeaf6
f9f70501
f8fb01fa
fbe0e5e6
19250703
fbff1117
e5e6ede9
fffaefe4
ebf8f3f9
0ef9fefc
10080608
f6f8f408
1800f6f8
fcf91329
f902f5e9
ec06f3fa
eff207fc
f80002f5
03f6fffd
100bfe03
ee04020d
11fb1920
150915fe
f3dbe513
062c0108
00f91f04
f7020812
00f70002
1814f0f8
13120f12
de00f8ec
0901d2d2
02ebda13
09f8ff04
0a07f7ff
1f320506
09cf09fb
ecffee03
0eef0204
fc0efef9
d5e0fe0a
dafb13d3
f4e4f80a
e2e2f0ee
f7f4f4f2
0102fcf3
e8d203f9
2e19ec0e
fb1f2608
fdf20a03
0303fb04
fefc03f8
0bfd0a0f
fe0610fd
f8f8f702
1e2d00f5
f21b4219
e9f3fb12
f8fbffee
f7f2e3f2
0c161804
0d050f16
e0e2fcfa
d6f0e1de
ede904f4
14fbf519
0f19100a
060a1318
f600120f
04fc030d
ecf4f6f6
120bfef3
01f41411
07f9e1e9
01fcfafd
0afcf9f2
1413110b
0f100311
00fefdfd
ff0701fc
04160df7
06ff050c
0df7050b
0d03eb0d
01fdebe5
07ff0907
f8fbfa04
14fbfe0f
13f60e18
02fb04f8
0bfffd05
f6ef0101
e5e4eb02
21e1f418
1e091b21
2019ff16
f7faeef5
fdf8f9f5
01f7f4fc
0bf6f902
fb02f8fa
ff0ef8f6
ff1207fa
0615fafa
fb0106f9
fd0505fd
05000706
1700f00a
e70eebed
f1f0f8dd
ee02f3e5
faff17f9
0bfa110c
fef9f01c
edf5faf4
dad1fbf8
fff800e5
f4fdf1fd
f0e203f9
271c0f0b
d6142212
10ef06e1
28290c2a
0504280b
06f8fe1e
090810ef
fc010105
291b0a00
06162318
eb04f712
c2bdcbdb
e0ebdab8
fde30104
fa01ecfb
ff020a06
f101f4fb
fbed06f8
fffff1ee
111d2618
231f221b
fa15130a
1b131e1e
030c0d1a
08fd18f9
1f16fe14
1afe180f
040efa0f
d705fd04
0e01e5e1
08000618
fff8fdfe
f2f5fff4
f8ee03e9
0af8ff07
f1f6fefa
ea0713cc
0efe0308
f826d0f7
ff0314f5
fb0bf702
e802e0ee
060303ed
0e050007
0729000a
0e00ea0e
e825e3f4
fef8ddd1
fcedf5dd
28292810
0f111234
fae0e2fb
0303fae7
ddfbfefc
fb1814f5
111a0910
080d03f4
fcf6e515
02051102
05040405
f02804fa
e2fceb11
fbf6f1ce
f1ed02f4
09e4f406
0a14ef1f
f6f71518
000b0506
09050505
07070609
03050106
00070508
f9fe07fc
0cf7fcff
08080a10
01fc0203
fe010606
0907fb05
03fffdf7
fcfffcfb
fe00fbfb
06fef705
f3fbfdf8
02f603ff
fb0e0402
fa000701
05fa0104
00fff3ff
06ff0302
16060004
0b111403
fd011612
f0faf5f8
01fdfafa
f90101fa
fffb03fd
05000705
0709fe00
0b0414f8
fe0c01fc
fffb0cfb
0601feff
02fb01fa
01000000
00000000
00000000
00010000
01010000
00000000
ff010000
00000000
01000000
0100ff00
ff000100
0100ff00
0000ffff
000000ff
00ffff00
00000000
01ffff00
00000000
00000000
00000000
00000001
ff010000
000000ff
00000000
ff0001ff
000000ff
00ff00ff
ff000100
ff000001
00ff0000
010000ff
ffff0100
00000000
00ff0000
01000000
00ff00ff
eb1104e7
e5eb0025
dfe5f100
f1e6eb01
f1f7f613
ed0d0602
faef1304
38f8ecf8
e1f1eefa
16e3ece3
1b0013fd
f4f7f50b
fd05f9f5
2b1504f3
0cf53302
02eb11ee
a8ddf6fe
ee0be1ed
d103f4ee
f4d94bed
fc07fb21
0301f406
18ff060c
17d011e0
fcf137f9
e8e60b5f
b1b1bfda
fbfcf201
f601fb05
0bd10afd
f8fa3cc0
f0ebfb40
1cf1ed03
f10bfd09
4502f4bb
0c0f06e9
12191215
020a1d19
fcfc0205
fbfefd05
04fdf2f9
fefbf503
150301f7
11011e22
f8f3e911
07ff1100
17fd0217
faf7faf6
0000fffc
ded60100
04f9fbed
fa181e20
01f5090d
ff09faf9
e8f406e9
0cf0fa01
120d0400
f60e0e0c
1708fdfc
fa0a1104
efeb0407
e9ebf1f6
dee9ebeb
0bfafaff
08130205
fbf8f003
25fefbfe
fafb2424
08090600
02050500
ebeafd06
02f4f3e5
f41804ed
fbf41a00
edff080d
14faff1c
f7300706
db0830d4
f3ea1119
0bfa0201
f305fb07
03fceff1
daf203fd
03fff0ef
fb0b03f9
20120602
3517defc
0e3bf7cf
1316f7f8
1c07f813
f4040119
eee7f0f5
fe09edf2
fdfe0ced
e10af006
d5ea15d6
08e4fd15
f7020702
05fdfef6
e8fef8e2
00f701f7
0106fe0c
f21308f7
fd041a09
f6fcea07
24effeee
1106f718
01071c07
ea0dfee7
16ff09f3
04fc0e18
020c0bfd
1c1bfd0e
eeeb060f
f6dad6fa
f1fc0a0d
130af607
fb0902f2
04fb1130
09f5f5dd
020401f8
fa040f15
ecf7e1f6
08eedbf5
0cfb07fe
e0e4fbfb
0003f9fc
dbe5fafe
fdf806f8
13061711
e7fa0406
0633fbff
fdf6f30b
2827f6dc
2e210827
01fffefa
130e02fc
ff12ef0a
d9f2cf01
f0f9e7ca
1108fd07
f4fc01f0
d1ecee10
c0d5fad2
00000000
01000000
0000ff00
0000ff00
00000000
00ff0000
01000000
01ff0000
0000ff00
00ff0100
00ff0000
000000ff
ff000101
00000000
01000000
00010100
00000000
00000000
000001ff
00000100
00ffff01
ffffff00
00010000
00000100
00000000
000100ff
00010100
00010100
00ff0000
ff0100ff
0000ff00
01000101
00000001
0100ff01
01ff0101
ff000000
607f4447
65565640
6c001b4d
007a5b4b
8a7fae40
08d3c92c
34ff0eeb
00d3b985
db1d2823
200bc3ab
0f080d11
0c040bf2
4ced0614
af9ce74e
22134406
eed9261f
0e010af4
1016302c
0e09e0e1
1418160c
010b0d19
e7e71e15
141b1be7
16fa210d
f8ed0d07
1b18011c
1e182a04
110ee5eb
fcf5f50a
fefcfdfc
ff01f7f3
00000000
feff0100
55f800ec
f2c7e32b
07150303
0d040b0a
2b03fc20
0607f110
2e08ece9
17121b14
0105eadf
00000000
010100ff
1beef2f9
c8d5e2e4
0e02fb24
ea1eedf1
e1e405ef
df602a2c
0affe40c
eceef4f6
f8f4fcf7
0910f503
e1e5f7de
fa0cf11f
160a2425
e9081628
f1caf504
d9fbd7e6
15f20deb
16343c19
fffae90a
e8fae7f7
f500f50f
fdf5fcf9
00fffefd
0101ff00
11feff00
dbb21dd3
0924ff4b
f411fef2
fe0f04f7
030cfdfa
f6f101ff
12e1eadd
e71e0315
ffffe50b
02000100
0001ff00
fcf6ddfb
0510e8e3
0e15011b
f9111301
09eef8f9
d6dadb10
02d8f7f3
faf30708
e9f1f6ef
02fbe5ed
0714ecf6
1b3e3707
15cb0431
fafbbde3
fc1e08f2
330820fe
1a0d1d4c
9bb0a800
fd1b2408
f6df2b24
ff00fafe
ff110af5
00001b14
000000ff
2c000001
1d172a3d
07e9f52b
15281511
20142621
ee201d1b
f61c22f3
1112271e
f9050bf9
0000210c
0001ff01
000100ff
fbefde16
0f05f8ee
ededf606
05020803
15e20905
e6e8f0f3
ef1802eb
f6f7f2ef
07060bf3
f201f0fa
0af710f8
1608e70d
e1fbf6e5
eaf4eded
f1dfe7fb
2ae7e5e6
0d12162c
bfd5d6fa
f20df3e8
eedc0ef6
f7f8f501
fe00fff9
0000040a
ff000001
db0000ff
12f7fb01
04f7e617
09fd0402
fdf4060d
0bf8ecfe
f6f6eaf1
fefce8ea
e0d7f7e6
00d5dde3
000000ff
00010000
fe00f307
2efd030f
f2fcfad9
fdea07f1
fd0ef10a
15c210f4
00fcdc1c
02ff1607
01fcf20a
f0fc1305
20f40924
0ffeeef3
0509f6f5
04010a01
ecfafff4
08ee00fe
f407fd0a
18ff07f8
fb19fdf1
140917fd
fdec0620
fcfaed01
0100f9f3
00010001
f9ffff00
4400fd2a
fc200dd4
0706000d
f0fdfefd
f1e5fcf9
f9e8cbf5
1524e2ce
1deb021a
000ef7fc
ffff0101
00010001
0509f00c
e4f9edee
190a0cf8
07160803
ef141204
f8f2f110
0ffce0ef
1416020a
0c0b0913
01f6fdeb
010af607
050cf800
09fb0c06
14f7e4f7
1f17fe22
fe2326f7
2c232620
0a252d1e
ed0f03f1
03f1140e
03fdfb04
ed0e03f4
ffff0901
0000ff00
e4ff0100
e4f3f2ed
ebdbf6f7
03fc01fe
1109140c
1b090213
df3521f3
03ef4113
251f010f
ff2320fd
00ff0101
00000000
04fdfef6
fdfe010c
060702f6
00030300
e9f10000
12170cf1
0dfc04fc
f4f40e0f
050607f6
01fbfcf9
ff05fdff
06fffdf3
00070601
fbff0305
ff0305fb
0a020202
f901fd00
03fffffc
fd00fefe
04030004
fdfe0205
00fbfeff
00ffff00
0001fe00
0a0000ff
0504010f
01fe03fd
00fbfbfd
ff04fffe
02020000
fd0d0c07
fcf90503
01fffb02
01ff0304
ff000001
0100fe00
02e1e8c7
fc161e33
2c34ff29
0608001c
981deada
3154dfcd
ca04fafd
f3eadded
ced2c6eb
0bbcb0cd
12260c1f
2205ef11
0c1818fc
0a001718
e708f5fe
15d9ebe2
080e0611
132f250c
f9e61115
05f22227
ff0a0801
0efc06fe
0000f5fa
00000000
14000100
c0ff1470
0903e7df
27132f1d
0a152a2c
e9f3160f
e9f2eafb
304607e6
f8270f19
00e3ede6
ff0100ff
0000ff00
030620fb
e8f103fd
faf604f5
14e5f714
122dfc06
252ee907
08dec901
0f160e0c
fe0b1202
0feeeee5
fa001611
10181713
0b030720
1201fd00
14f9fc0f
12fced0f
1006020c
ff0efffe
05efecf5
fc120400
fa020114
05010003
01000505
01000000
ff01ff00
e116f5e6
060e05e8
edfdedfa
04f8ffe9
e5fcf80a
e4f3e5d3
f80cf7d5
244724e5
0024261f
00ff0000
ff000101
040108fe
0303fb05
01fd05f9
12ff0608
08f60104
fae0ea0f
f6e1ecfb
e2e4f8f6
f3f2f1df
04fafd02
fd010200
f9f0f0f8
0beffd01
e900d6ea
f7ee02f6
eef3effa
100015fc
08fcf829
f4f3e9e8
09fa06fd
010307f9
f8f9fbff
0100fdf8
ff010001
fa010100
10080b03
08020c12
22fbfa05
f706070b
f0fc1af2
e9f2e1fd
0c14e9eb
e9e1e802
00f8e6df
00ffff00
000000ff
f4e1ecf8
d10fe5ff
f4f5ee0f
0700ea14
b309f80d
be7f9906
eb2bba1c
0806e9ed
e6f4f012
0df7ecf3
c8fbf3f0
dbe3ffee
f8f4ec01
0e0905eb
01f2f013
000ae5f4
03f5fb03
f20ce801
f207150e
ec310433
e9f9ebfd
f3f7f0e6
000001f7
ff00ff00
fc00ff01
ca0e0201
fc34ee31
fe0e1611
fe030eee
0f11fbfb
e91415d7
eaea110b
d22ffaf2
0115152d
ff0000ff
010000ff
ebfc0816
16f8def8
ff000002
f5fdfcef
db0001e9
cb9c1a21
fe032df2
1211f9f8
21181613
e5150a09
fc03efd8
00fc26f8
0c0b04ff
e4030c0b
eff211f4
02ee0204
fc0105f7
f9070bfe
0607f50e
f2dcdade
01f90200
fe041004
0101ff06
00000000
ff00ffff
0df9deff
fad0e70f
f4f9f4fb
f1ecf9fd
fbfffcfb
fbd7ef0d
1103f303
fef50e15
01d4fb02
01ffffff
0000ff00
03f1f500
f0f7f3f4
02f7f6f8
04fff9fa
e4d50101
f8fdfbf5
0419fdf0
01020800
01fefc06
f5f1f5f9
faf9edef
f1f606fe
fee4e4fb
ece7e9e9
fbf5fafc
07effe01
e4e9e9f8
e4dde0e3
fff4edf7
0005eeed
fcfd0603
fffbff03
00fffafb
00ff0001
fe00ffff
faf00202
fef5f608
0cf8fcfe
f7fcfb01
f1ecfff7
f0e4e9f4
f505dce7
f1eaf9f6
00f3f7f5
00000001
00000101
0102e114
1ce9db01
f80bffc1
fcee15e7
2f1eeff7
3e954207
fd090218
fa0b0700
f8f8f6fc
ca1609fd
12f8e1f2
0b01ffeb
fbfdfee2
effb02ec
f4f90008
06f309ee
fd1df7e7
17e9f722
2d02f615
25111901
0cf212fc
effbf5f9
0000fef8
00010000
f5000100
50eafc31
10e3f7da
0af6f902
faf41310
0cf7f40d
03f4e5f8
182506fa
f6de0022
00f010ee
ff010100
01000001
ef01e715
0ae51af9
0e03f223
e61802e3
0a3ffef3
d4ed75f9
fbddea11
0ffa04ff
0408fb14
df16e3f7
fcf518dd
11f0da29
ee12fde2
e2061406
edf80de7
1200f700
04320b01
f0f93e00
e3fbd6ed
eae8e5c8
fdf810f3
01030406
00000b04
00ff0100
dcffff00
1ec72417
e61bfa27
fe07130b
f6ff0207
0be8f2fa
e1faeff4
0f1905f4
f9ed3712
00f70c1e
01ff0000
00010001
010fff03
19150f20
0f0902fb
0e080ff9
fd01faf5
1500f0ec
fe3e58d7
d6c6030e
10120bca
03181206
34260d12
f5e50023
2c1114f7
fa03ff1b
0b04fc10
fcf0dbdf
0209fb01
fff3f5fe
df03fdf8
fcdb0902
0300ff05
fc0304f4
0000fbfb
ff00ff00
0b000000
1d032c1b
f0b7e0f0
08f3030f
03faf50e
05f2d90d
e70bd9e9
0e2e09f8
4f69590d
0129561a
00000100
ff0001ff
2141447f
72f8baea
da48e022
63ba2a27
217f5176
f51f3d35
232d3450
e23c33d7
eb07f2fa
f90408fd
050808ee
10131922
dde902f9
140bf9e6
e60806f5
10f21004
00f7f829
2b181a17
0f11051c
fbf8f50d
fc09fcf4
f0f20c00
fee8f404
f6ffe807
f71009ef
13ecdffd
d9e4dce1
d6e7d1c4
fbf2f7d9
1901fb13
e8fd0efe
0ff80c08
db14f91c
d3f8f0d4
e1df01db
0d0b0cfe
110d1811
fa01f014
e407f9de
e9dc0cf4
eddad2ed
1fe8e6c5
130c1512
01081333
e9edfae2
04d8e3f0
f5fe13e5
1a090af9
2109001e
060e041f
0df6f9f0
0d0b141b
1819ff0c
0b090ff9
441a3d50
16f70628
e610f1f7
0b131efd
0df80515
d005f716
23dcd9f5
e6fad506
0a12010b
03f90a11
04030329
fc0c08f1
f90e0a10
223016f8
df100508
00e3cdde
0702e9e5
f2f7f0f2
eff1f2ef
332cfaed
f6fd0301
26f6f7ea
0b31f00b
e70c30d7
eff0fa08
e3e7faf5
e132f607
e4ff23f6
c8e9fcf8
deedff08
e5d503e1
22fdcef6
de01f6dd
02dc2af9
fef3f747
13daeff8
ed05e70b
f4f0f2f6
f7f7ece5
16fa0bf9
dbf92609
fee9eb2c
cc0df1f0
0aebe2e6
09e2cd0d
c914b8a4
e0e5f2cb
fee7e703
0c0b0cf8
14062f0e
e52d0424
d6ff4aee
d0daf0dc
f41305e6
0f002414
2cf6f01a
dd66dbd1
f52047f9
d2e418d1
25e5fe11
f7ed00f6
1a000947
0b01f8f7
dbd8dc08
03f3eff4
e9fbd5e4
0bfefb00
e00a00f2
0ad6fef1
202dee0a
f20213e7
f801f4f4
faf50bfb
0cf304f1
00080403
fce8faf3
3703ed12
f10401f0
d8d3e2ec
d7fe130c
12e10113
13101321
1408e80d
eb11fdf3
1108fbf6
11edfdef
27db1d0a
ecf6d90e
f60004f7
09130e08
fd031207
dcfdeb09
00fb25f6
f80126fc
f405f3eb
f3fbed09
182000f4
fcfbebe8
eb09fa08
0d09e9f7
0a00f9f7
0a060304
f7f90f03
dcf3fbfb
18e2fcfc
01ff0008
fd1708ee
1ce5eded
132c0907
06fb022f
f8fff0ec
1b2b0aff
f5df0105
e701e3f6
0329eeff
dfd3cf14
0701fcfe
060703fc
f4eee317
fb00f1e1
10fe0e0a
1c10280a
cf1c1110
03f6cddb
ff0a09e6
fc0d0604
f8f5fefd
2f2a2cf5
e116350f
0f0be90a
21070a0b
fd211416
dee5e9e4
eaf3f1e0
05eed9d2
2217f428
fb02d715
1b051608
fb04f70a
05020804
fb1d1704
0bf7fdec
1233fc03
2c103810
bffa2835
02edf7f6
090909fb
11fd1214
f7defff4
1600e90d
d9f5d120
c9c3bdcb
0ae10416
f1eb02fe
05fff635
13061112
12f00304
f1f904cd
d211d7f0
3ef4d0ed
24461c04
f1faf0f0
0b06fbf6
f9d60ef7
dffdccde
2a0af015
25261010
edfae3fa
abbbcee0
e3d1d7c3
f7f2e9fb
e6f4e7ec
1505fbde
040d0406
f8e51608
ff15e7df
080b08e6
0e091103
e8f5f30e
fcf205f7
0d1af5f4
ede9f105
fdfff9ff
0b0afcfb
efc9f32f
16e0c2f1
f301181e
0c09080c
f30a1809
04041511
dac4b8fd
e6ebdcce
0e111206
22310b07
08413c3e
f2eb0319
d4e5f1dc
0a070104
05100701
0ff70402
ef00f402
0d0ad0f0
151201fc
041b281f
110a1002
ff03f00c
0000ff01
00000100
00ff01ff
00ff0001
ffff0000
00ffff00
ff000000
ffffff01
0000fe00
ff00ff00
ffffff00
00000000
00ffff00
0000ff00
01010000
02000101
00ff0000
ff000101
01000100
00ff00ff
01ffff00
ff0100ff
000000ff
ff0000ff
0100ffff
00010000
01000000
00010001
01ff0100
0000ffff
00000100
00000002
00000000
00000000
00000001
0100ff00
dde6d3cf
fc0fe1e2
2304faf9
fa09fff1
10ff1517
20fae3fd
290fdee8
151b1727
dfed010c
f5f3eada
f2fdf9f6
fc0c0405
13fc0b07
d8f1f80d
b8d0fd07
f0d60c2d
d2cd07f3
0ceaf2f0
e826fff5
f60806e8
faf4fffa
21ed0a1e
1d22ee0f
0e09fb43
ef0be901
d2ddfdfd
d0dce3de
f6f3f1f5
00fff2f0
0b190602
06e7ddf6
f0f2cdf1
06f7f400
dc240914
dfdafce7
2801f8fe
ee1b13f9
e4fefe16
de13e40b
f0deec28
e5f01ced
fb050508
faf7080a
1af7dbcf
fd14fcf8
12f81bfc
f605f4d7
f2f5ed02
f9faf8eb
e616fae4
f8bc21d9
061f1ddb
c511f913
e80ceef7
29051a0f
d41f0de7
e1d3c7de
06feeae8
1cc3162a
1ba62ab6
d0ed19d3
fce90e2a
02f8050d
fe150d07
07011017
17bc2b0e
aded28c3
2ef4c5f7
28070e2d
2eeafa17
2b05f1c2
0ef805fa
fde3f7f9
ebf401f5
fffbed08
e7fff2e7
ede60ffe
1fffde09
132319f5
131d090f
22181a13
1b08f6f9
351a492d
ee001132
f9e8ee05
222af0e8
f72c3304
e1db0221
200ee2d9
f3010c11
050401fd
150b1115
e0f11304
e5e4e702
ebf4f0e5
04e6e912
0bf0fbf4
0e0e1a11
1b15101e
fbf8f901
fdfff3f1
0502f3fe
1012240b
f8f7faec
f4e9e2f5
f2f1ebdf
030303f5
160d0bfd
33f909d9
0cf1d2f8
090e0717
e1ff00de
0d120a04
06f51a0c
2c0bf718
c250fefb
f2c820ed
bc1a0a08
1edfd826
fef101dc
f5f7fb07
1616f2fc
f81ed1d7
13312008
42adcafc
d2121af3
33f20015
3e1cd865
03e906f4
f103ebe9
f035ffde
fa1fe7da
2c0412fe
f609d7b2
040fdb0e
ed0504eb
f8f315fa
03f2d20c
553ba839
e4d52389
f008e6fc
d9f5f8cd
f1040f34
fafa22f1
08f9dafc
11ffffe2
0bf00010
f30b13ef
fdf4f2fa
09f4e8e6
f0fae3e4
ecf82104
01f8f425
f1ecf9ec
0b16d61e
f6f5e8f6
e7f3f6e4
1906f9fe
f803e412
1c03eb24
0006f819
06c71cdb
0cc7d3f8
ee28a0e4
06f6e3c9
1ff4fcf2
eff8f0ff
f230f6f9
e8f3d835
e7efdfbb
ddf614c9
fd070704
00001301
0e1b030a
bd2fbb03
deff1cd7
dff1f2f5
f5fad900
d201ee1d
1c21ef0d
e6deebda
fada04fb
121d1b0f
221a150f
d1d5010b
c9d6fbda
16de0c29
0421e1f4
102725e2
e6d6c0c3
fa0cf4e2
0e1710fa
e308fbf9
f60f05eb
0f1724df
ff290bf7
e1cf1c11
d6ef06cb
2a1e1d1b
03211a22
f9f70c06
050e0406
e7f20503
edd2d6f2
1bcdd1f2
20fe1825
0f03f627
f3060b04
f2e3fdff
0e081df5
faee1915
09f6132c
1119160e
e50a0a0c
f70cf0ea
071505dc
0513fcff
e8ccde02
07f70003
1b09eb05
0214fb21
f5111200
04dd0006
3c15de06
f816eee5
fc01e1e7
f7141fd1
fdeff10c
0008f9f5
0f1515fd
0dd3f719
04071a11
e8e30aeb
eb032e37
d51ae9e2
dce26aee
080af327
0306f4f1
040bfa11
48e60902
10ee071d
0ff3ea3b
e4e51a18
09fdf3fa
030500ff
dcfe0d09
d0b75ef3
cbd7b816
fbe0c2ea
f4feece5
0f3003dd
fa0bf4cf
ec0bf7e9
03ec0104
061612fc
35f81d17
1cf8061a
e32308dc
0bea0b06
17130b08
0f1aff11
431a2523
3e373755
fbecf62d
e9f0e9ea
01ddf5f2
efe4ecfa
e8d5dafe
f9dc01fb
eef9dffe
13dcf411
fd05f604
e7d4ba00
f005ebc8
3e232215
3d7f3f18
e2364e3e
f7ecd3e1
10001ee7
eae4e2e4
e5e6dbe4
fce2e7e0
cb04cbe9
0e1ee6b7
2e24150c
ec1a2306
0508fbf4
fb250c07
4e6a694f
00487b47
7c695760
7f5f715c
1745d0cd
ff061e46
7fd60f21
156ad01d
180c00f4
0bf5fa0a
04180d0b
25fee2fc
e7d3ef10
03301de5
0aec01fd
1efdc1e2
e9f80e27
ba1e160b
0a0db8c1
060ef106
df121bfb
ebf5dce3
303429ef
fff9efe5
0000ff00
00ff0000
38060a06
e8f0342a
f7f2fff4
0e1613e2
2924ef00
0e040015
1e081e0d
cde3f827
b2032d30
070323fb
05fb0d0f
171527f0
f0312c20
0d2cd503
252dfbe0
1eefee19
ecf60b25
e7f01301
0ff40004
0cfa1832
fdf215fc
eaeeda17
f3dbfeae
50560208
0e2a3515
cf09f603
1c01e8f8
ed0aeeea
edf706fa
5616fde4
22232e0f
f6f8e325
f6f5ef07
00ecf2fd
010001fe
00000101
f2f2dd07
dfe1e4e2
351dfaf4
22410ad0
0e04e52e
fdf525ed
131a0e00
da26ef2f
f0dcfb81
260d0d0a
f8180b44
f3f3f2ec
eedbc4f9
f4f9e8e6
39aad701
eb3e03d6
fc001cfa
ddc6f801
22d7f50c
370f1438
0c0ff823
14fe1a05
131bf817
1c3636f1
0e142711
09ec2419
0cf5de23
f91d0de7
fd181809
ff07ea1b
dce5e4d9
1620e2e0
fc4149da
011b4234
01ffffff
01000101
128b9aec
5630cbf5
fc1aec2f
2a262e19
170f0efe
d8def11a
eec1bed3
0bdaf2ff
0a0ae603
1fdbebf7
492a2133
502fef42
ce20f9d2
eef6c4c3
05f91408
e60bfc01
2c32b5e9
357170f6
14edebf7
101af60d
f900fafd
e9fdf7d9
f6fbf7f9
08190b0a
ea1524ff
0cee02ef
00fff61e
0015060c
f10710f0
e901fb11
fdd1f3e9
ebf2f1dd
fbfaf8f8
00f4e0df
02000000
010100ff
f0eedbe3
12ff11fd
f5e50228
ee00f4fb
f7fae1dd
f6eae3fc
dcecebf0
06bff215
0510d11b
f4e4f9e4
0107e5f3
0cfc04f9
efede3ec
ff26e4df
1d0f1e07
13f8f41c
fefceb10
ede0def5
da0cffce
f7cc301b
efdaf410
0fe7e5fe
1bddf7d7
5e5dd53b
0b2e40ed
ef100e08
f5f527e2
0c06fb1c
f5f80ee9
0caf0606
e6d9e0e2
f80dc3f4
170a0c0b
0001f706
00000001
ff000000
08250f27
e2ff2209
04e7f90b
d63bdfe7
18151504
effc1506
d8f6ef01
4cbcc018
e824f8a9
e70007f0
1ded1749
2a1e2aec
ec17100a
c00ededb
41a01d30
d11bc717
20f323fa
1a04e52e
08e7e300
e71adde1
e70b1cdb
15fafa04
3109ff06
4331fb24
013419ee
1e12f802
061f280e
17010013
180df500
e700fef8
10c2fc05
1419c7ec
0cf0012d
000df40c
00000001
00010000
f9140ff9
f9e31b05
1d215012
321a254c
d4fc2d47
e5cfe8d9
2200f7f0
1a1cd920
29313cfe
10192107
1b071413
ddef0625
0fd5f314
0b2ce4f1
1405191c
1b151021
cb12c7e0
f9da0ed5
1c303e18
1d082a32
1309ecff
031413f5
f3df1120
11e1d417
02fafbf2
1218ff02
fbfff6e6
fcd0cbe4
190e05ed
f8c7ef2a
0bf6dbff
def1fb0b
f8e8fbfd
ff062021
00010000
010000ff
f72d2911
f71303fa
13effce0
e409dbf5
e1dc18ec
dbdbdee5
cde7f3f4
37e5f70d
0a31e0f0
11f6f811
1e13fe14
1f1f17e4
db0f10f8
f3f709ec
e7df03ed
e409e511
f9effde5
151c0502
eaf1121c
fbee161b
f6fffbd8
08033738
3c651830
ef04fae2
d9e72804
070f342c
fdf301e6
04d3cee1
1212080f
15223318
0d15060e
14000905
f6ebda04
00030cf2
0001ff00
01010101
eb172630
f4f6f1ea
112415d7
da1fef1a
1004f1e7
e00c0817
d8f2e0de
40572cd7
2525fce9
e8f0d509
250d080d
1f18f6fb
ecc9e9e2
28cad1e9
d9fc2226
f301f30c
eb0eece0
1d0716ec
dd2ffff7
ed0101d7
05120ef9
f6181a07
edeaf9ff
c6bdc6f8
fbc5d5d4
040b0704
2504f319
f20d07f3
fae51412
edf023ee
0d22310f
f5ef2a40
ecf8fd0a
00021719
0001ff01
01ff0000
ebf1e9d1
f911e2dc
040e10f4
1d180a20
1b1c0b34
141d1e06
080807fd
0d19e2eb
ffe400fe
cf1dfdf5
dac0ef03
d7d0c3ec
e7d1cbd1
e3f3dcc7
e00328f5
28080bed
432f2c1c
27271943
22fd0026
ff1efd0e
ffe5e802
150bfbfb
fb051e1a
011112ee
090e181a
edfdf6fb
f6e5f1fa
05fcf0ea
291a1a15
12ff1222
fafc01f9
f1d3ff00
170add05
ff1606e3
00fd0000
00ff00ff
fdefeef9
04f1f3fd
eae7f50e
100000e4
eeedfd0c
d2e8faf1
0accdaff
e604fdee
fbeaf217
0bf7fe0b
ff1504fe
e4f604fd
0b041210
03f6f108
1912f802
b714000b
cab6e3c4
11f9d7ec
f3fdecf6
f2082613
d6e3d918
09e7dff8
d6dbdee9
1234c3f3
ea0c04e7
fd0ffc0e
2140e8ff
17040bf8
f3e4f4d1
3b1ff9bf
1b111109
d8041437
bcd0efe8
00d9d7e5
ff000200
0001ff00
f0efe908
e206fcef
4336f3ce
3519e247
d9f20022
e6cde8dc
dd21eae9
6a820711
f7d7fda1
da23e918
1bd7fd59
1536232d
3d124f34
b904252f
2bb3323e
b216f5e7
9be7c595
cbaef1bd
e7240bf7
e4f2440c
061c1aff
cf1d3f13
1e06f4e4
321eec14
f5f31223
ebf21bfd
1a17f1d7
0f15140c
fcdf312f
de0624ed
010d4e1e
1b173b49
ea0af914
01111e0c
00ffff00
010001ff
05e9ead0
5223f517
25f81430
fef5001a
07f1e139
df01fbef
feefe7d7
45fdba26
54f45915
04281804
fdf92a5d
f9f0ea24
0de81af6
d0d1080b
cd0e2d38
f8093ce5
3013f5ed
13f2f62f
fdf0eefc
e7f5f8fc
f2f7fdf2
05e2ebfd
0107f6f9
150b15fe
fc12050b
f8fbfffe
09fe0504
04f4f2f3
110ff3fb
ebf2f907
f7e1e3ee
fff2e3ef
0cfff203
fff9ff01
00010000
00fe0001
0102fc03
02fa02fb
f1fc03fc
16eafc00
f3fde8ef
dae3efed
05edecff
eb05e6e5
f8e4f0ea
f600e7f0
09fffbee
f1eff61f
f1dff0e4
f4e0f5f8
e9e7d8f1
08ebf9f4
ec04effb
e30412e2
0ddfeff4
26f6ea15
fdd2eb1b
e002d0ef
d6fcf5ec
efcd1ede
2bfae8cf
17c7f5e6
0700fe08
1ac7f6d4
e918e00c
f533ef10
29f2effe
fbd22ef4
04f60cd0
ff081419
000000ff
ff0000ff
010efab8
2a23fbf0
fb04f1eb
16f761e6
ef0156c2
e906e203
62eefbf5
942a46c6
abf1fb60
43d912fb
23e122b8
00ff12e8
ea32180b
030fdbdd
0768c2d4
df09ce1b
21ffd110
0823eff1
0b020010
0c0ffffa
f3f1de00
e605f7eb
cbd5e7f3
01c3bb01
1c19f8dd
131d0c0e
ff05071d
06f8e9f2
07000eff
e1ddf503
dc15f1b5
f7fc0407
02fb0215
ff03fb10
ff000000
00010100
010013de
1116f610
d8ee12f2
eafdf610
0d11fb00
f20801f4
e50b070f
40e52425
06f0ec3d
c119eaf0
f4e11dff
15100b1a
0012260a
0a390b27
c51653bc
ddcb0313
ffe525f4
00e6dc27
fbe1faee
efd8e5e2
16eedcf2
342525fc
4011174b
efec130b
fbd5f704
09eefafd
b7bac811
03fef9e0
2b2c2b1a
d1ffe837
f53afe08
1308737a
11100803
00e2e9ec
0100fffe
00010000
f70814fe
eadc110c
fc1bf7e7
0aebe825
fef30ef9
fe281bfd
fcd80c12
1a080bf9
e7fc0b2c
e0fd2427
280723e9
09f700f4
2ff9f7f6
df17ef35
3d1d0910
ebd90a1e
0df7ccd2
1f362c09
0b473e3f
21165260
467fdb4a
3e3c491a
187f4362
0b352029
fe1e314d
c2122ac1
2df7d6e6
2bdbdaec
020a0819
3204f1ce
f8dde404
01ee0304
f907050c
f117dbe2
142012e0
e8040a09
f60b0b00
02eefffd
f3fdfc00
f0eb19fe
04eef7fd
12e8f120
fac7eb1c
c1c40f24
04e9f91e
e7fb0815
eefb0416
21090707
ff0c1118
1e04badb
29e4c931
0bb9e8fe
0aef0607
fe1807ff
05000700
13f0e105
d4efec2a
fa0afafe
121f1104
c21cf6f5
eb1c08f6
f51101ef
d6ebe8e7
f2eeacb6
190800d0
191629fa
10f8ff10
fef4f217
fefdf4f1
e9f61aff
1d16010c
cef80bfa
f9e4e913
f5edf300
eee9e7eb
03ebeaed
110bf2fb
e006e7f4
3307fc03
cdc0dcff
20ccef0a
2717dd20
04061617
0605feff
f4f700f9
f71eedf8
e7f2fbe7
0dfac1c8
f3fef8e2
07fe02fd
ff08fb03
fefd08fa
0905d721
f2fc0feb
f80f03e2
fd0b09f9
e9e6f81a
00fbf5fc
f3f3f5ed
01f101e7
f4eaebf9
fdff04ea
101c170c
f2d0ef2e
17d1c4ce
0a1c191c
fc020207
0e1b1100
1c222c2b
010cff1d
00f7fc01
c4c2f5fb
0711e5d5
dd192f17
10e9fbe2
f3e6e9f6
05e8fc05
00fee803
feffe602
fa021d0d
fa09ecf2
fc17030b
f6ded405
f3e5f0e0
1df9e1f4
06ff040c
0b0e02fe
fb080d0d
fdd8d916
040afe01
0b091707
ee0cfeff
ecf5f5fe
f9f5ecf9
0eeefdec
c9d0df0e
221113d6
11f0f310
eaefe305
efeee6fd
f8ec0001
200ceaf1
0a201afa
100400f7
f1fbf7ef
fbf8e6fa
fc03faf1
f3eef605
feeefd15
fde9faec
e2c5edd5
e4fc05f9
f0dcfd05
0a0913fa
fa05001b
f6f6f8fe
0010f4f8
00e4e717
f5d207f7
e7dcea29
ebed0af8
100100fd
0a0c0e11
deebf200
0fe716f2
160d1a19
08f5e6f9
da04f006
f300dcc9
f3f3dae7
ee0d04ef
1125d7e9
1f1604f4
0f140702
07e81d12
f7d4c62a
ffd1d4ea
f1fb04fa
f70516ef
d31701e2
d9e1f9df
f30108e3
1cf91217
d4e2f811
ddef09e2
2d101e15
0c07f7f7
eeebed1f
090f0efa
05fe0801
fffcf40f
f4eef5f1
fd00ecf1
e6f9f2e9
ef05fd00
070b0400
01f8f603
04eceef9
0106edf8
e6d7eaf2
20dedee8
0ffce610
f9fc03fa
14f20601
f1f3140d
10142204
ecdcdfe3
1519eaf8
f9fe090e
00fdfa01
1d12150f
f7edef10
09d4c8de
13130105
14110b11
e7dad7e5
191dd0de
f904050d
16f30505
08fd051c
d8c5da24
f0d8f011
f5e8f1ea
fafaf1fb
011c0d04
e3f213fa
f2e4eafd
0df7f6fb
f5f7fd0e
0f180800
140c00f0
1b1b1611
04f8df1f
f9f9fefd
0a07ecf3
1e180903
f602d7ee
fbf1cdc4
fef9f805
ef14121c
f1e60a00
e5eceaf8
e906eed8
1006fbeb
dee5f826
efe7daf5
4263f7fe
d6f63908
c1c3a6cd
12eb0df4
f8160d00
f62d0c16
03071703
130201fa
1b162106
9cd1012e
5df3a1cb
f7677d0e
f0d9c9d6
f5fbed14
10f0192e
e4efeaf5
22f58103
29143ef6
2af7c60a
f92d1e27
13def311
f514fcfb
2704effc
06f90716
0b11fff6
e724571a
d7ebd71e
111109c7
1bfcfc23
03ffe7f6
f3ede1f8
dbe8f7e0
0207f8f9
03fc130a
07191409
0cfd0b12
03080010
081615ec
ff0e0b05
ff03fffe
02fafa08
23d9f5f9
34fc103f
03f6f500
f0fcf2f2
10fafaef
f2ffeafc
eaf0faf7
321cef08
0308ec17
f6f1effc
fc04eded
fbfefbfb
faf4fcfa
1008f1f6
ed01e7fb
1aff0ffc
f0f9f801
f5fa05ec
f303fef5
fefe00f4
0a01ea07
f11c0b0e
f801fbf1
f9f8eeff
09fc01f4
00fa0717
fefdfb04
090c0517
f7f0ef0d
071219ea
f721f9fe
15f12310
f7fff602
13eff3fc
0417f602
fdfa0ff6
f2fb03f4
faf11801
07071415
0501090a
f9f20b0f
05eefaf5
01f7f909
0cfa0721
f50b0f10
fcf90701
07f2f90c
f3f20004
05fff403
27ed06ff
25ffe4f9
1f1000ea
00f3f011
1c13f8f9
fe0d04fa
fcfc0700
2f0706fb
23fefe1c
f402ddf2
081d0807
f0f81b0f
15f60707
d7ebfc05
02f1e601
02fbe3d3
ddd2d4ee
f90cd2dd
080407ec
ecf303fd
18fcf4f1
0318f80d
fa1008e9
efe5e5fd
ef1831f5
efff092c
02e8f9fa
e7e0ecf0
290b110a
f00ae40c
f4f6f2f8
dfc2d406
0bfc04f8
0702212e
050eff21
05111503
070c0f06
110904f1
d31dd40d
fedfb5af
f7e9e7f3
0c050f15
08050308
01f61007
cbd91015
f6e3bd19
080606ec
f60bf7f8
d8f9f3f6
e603fdea
d9eff3e5
eefbfffc
f600f1ec
06070412
e0f5fcfd
e50802e2
26264320
04f83535
e4e9ee0a
182e2c20
f6ed1413
fe0301ed
02f4ebf4
1e21f9f8
234a21f1
ec11f6d9
eee60bfe
2123eff3
f5fbfaf0
1808f904
0a1f0f0e
d1f4fbf9
fcfee8d4
d2d6fefb
eaec0508
00fafbf9
e9fe07f9
f3fbfaf7
04fe01fe
e5f7fd05
f50d20e9
0d093c2f
0102f214
fdfef9fb
00e0ebf1
09fbe4f3
fa03fbfa
fd0803f1
ff0409f3
060b0609
04fd0102
0601fe06
02f9fa00
00fe0a07
fefdf909
0300030d
fcfc0102
fefefffe
fafbfcfe
0d08fcfc
11150603
0808fbfa
0f04060b
08fdfc05
0501f803
0301f8fb
070b0f02
fb060406
fb05fffa
0406fdf2
0105fffb
030af9f3
080800f5
00fcfe00
0001fffe
0802ef00
0cf9f1fc
f1fdfe03
f6fc01fd
fbfb00fc
00fb0005
00ffff03
06ff0e07
13f2f7ea
ec0e0820
fbed0a06
fbedf10b
f510f6f7
f8020ff1
f1f7fbfe
0a0ffc00
f602f103
1110e902
f0f0f201
f1ebeaf1
0e13ecf3
f20cee0c
ed01e505
19fb07d8
f1e01d09
e80704fd
eef00204
0df2fafb
040ef8ee
ccec180b
e717c30d
06d1f901
15031102
e816fd22
0c0a110e
0e110709
da01e806
f20bf132
000119db
0a05ea05
f60cf5ef
0a20fc18
fdf8fd03
0ae7dbdc
f803f12f
17fcdbe9
f5c7e00c
e705e3ed
fe09fbfb
e8f00bf4
4509e0d9
0e371511
34fd050f
d5fe12eb
e3ecedff
05f8f0f6
08f4e8fc
fdd00706
0e03f80e
9fa8e5f2
04e8e6cb
f3de081f
e8d82bf9
f6f9eb20
020f0c0e
15ff0506
f6dc14fa
f905e0e6
1b060250
e7d8e6f3
1210060b
1116070d
11fd2402
d5ee0ac1
e616c93b
16d1e5fd
dc1aeddc
dad2d6ac
fa07f5f9
15000b03
1b081c1e
effe0220
f9f6fd01
04e9f9fc
f311fcf4
e3f209f9
faebf5ef
0b06f7fe
15162812
1e200513
faf905fb
fbf9f405
d3ebfdf2
efdde8e3
e707f2ef
2c16f205
ff21110e
fa0d0eff
fc06fe03
2f1e0aee
f41c1500
e3eb0105
ebdbeef2
1308fc0e
190f1b27
0f10151a
09040608
04060505
13f9f70a
01150a09
1cf20b05
f00fe702
02ec11f4
1315fefb
eef9f103
fe0d1201
ef070af5
1bef1bfc
05f42602
f300f325
eb00fee5
f9fef6f0
e807def2
feff23f1
e9fcdfff
0901e4f6
f2f0eee4
fafff1f7
f6fcee02
de05ed0b
05f700f8
09f50ff0
fb09efe1
0f05f0f4
0f06e7f6
f0e5fede
12f4f60a
b0011307
c4fcfd34
f4dc27d1
d203fabf
e302f3f7
011c1b0f
01f9180f
b349f20b
2023f9f6
fbe948b3
03ff120a
00fa0e08
1812ee1a
03eb0e04
5458586a
4b7f6049
db5b514c
65796b43
efcbfde3
a498b6e0
d19ff4a6
cb8124eb
3ee7021e
2905ed02
3f3020e9
32efe2f0
05e63937
1002260c
f10f1bfb
440c81cc
ed050241
17f90a1a
4b11e9f3
1e433857
fe001f25
e2df0203
24160226
04021705
02f9241e
0906fef3
25c6ebff
eafafb16
132d08d8
1ab1bee4
1c320808
131c1e19
faf5eaeb
ed000b05
e7031009
be1d36fd
101506c9
0a0ffbe9
c23f4cf0
f8edbfcb
d9c3c802
ddeaeaef
cbf2e8f7
05dafec8
1619331e
06f5f5f4
0bfff421
ffd81629
feeee1ef
e307150d
f0e7ee05
e3e7fcdf
293a1b2c
eeeeeaec
fff3d3f0
03e0d2f6
e106f9e7
2b09ead7
31233826
0d425235
c8f3ebe4
00cee8ec
f8fb18fa
0bd9f50d
26053616
dbdddf1c
f016f3c7
f1eddbfe
00f8ecec
f2fbf9f4
08fdf8fd
131e0908
00fdf111
38bfce0c
167115b7
e3f62026
fad0e829
1004e91c
051efa1d
ebf416e6
0000f8f3
e605fbf8
09f811de
ff1f0503
12150304
0d16fa06
f004eef4
01fceffc
0a0ffbee
07303f1f
00f53c27
0ae9d911
e4f6e4eb
122fd6d9
f30327ff
f81cfc17
040ff4f4
08010c0c
08f60909
040302fa
00fa06f6
ec0801fa
d7ebf6f9
dedefaf2
fcedf7fb
fdfdfafd
04fb03ff
fc08e9e7
021212ff
eee4ee06
25d2eaf5
120f2432
262e1706
03353c26
e7eff2f0
e4e6e6da
fcf91318
ff070610
fd0c0002
f500fef9
0703f100
fbfb0505
fcfd0608
0405f4fc
f3fc0205
fc0e0cfe
02fdfb00
0006fffe
04ff03f9
f4ed0304
fb0707f9
0c040706
dee4140f
0b0507e9
fb03fd04
f6fefbff
110c0cfb
0302fdfb
07ff01ff
ff030007
fd140d0f
0102fefe
fe00fb01
f8fe1309
1204efed
ff090a08
ed08150e
ff06eaea
f7e6ea0f
04feeeee
ff0a01fa
f504f8f9
defdcdd6
ee04f7e5
e107f8d7
fbd02200
03e7df3d
d909f3f3
13e20608
cc08fdf0
f6fe10f9
16eae70c
0b16e3f7
07050aef
ee0b0a08
fc0eeceb
dcfb32ba
12050305
04030d12
02fcfaf8
05fefcf5
20010609
28cb2916
28e5c01b
fd1af0ce
f80af9fc
050811f1
ff01fafc
01fffd02
ebf103f9
f8fffd29
28ba31ef
ef3bbd0c
f70704c3
03f00513
cbecddfe
36f51634
fc250108
3deae423
052eea0b
0614ee1a
18fd1105
03f90e0d
f90106fe
2207f8ef
1f050617
fc04f112
fff0ebf4
e6f8f8ed
f8060feb
fff4ec0f
041efce9
cbf221e6
09faed14
e703e7f3
e9e609df
2afd1031
1c1d0a15
04ed03fd
15291e07
e4eb1d1d
d0e0e5f2
03d3e1e9
02060705
04000a02
13041c17
050c0bfd
0bfd2611
07080918
131de010
f3050bf6
28fdf6fe
423c1826
493c663e
f907170f
11eb1e19
e8fe2636
00f51628
3c311021
060df232
26eedde2
f401fc14
f5e8f8f2
f12422f9
dad64418
210ef8fb
0417e7eb
e2f8f2e0
c2d2e1e7
1acbbcd2
fef41818
fd04e4fa
da0506f8
e4f80ff1
ec191901
f8f1061c
ff04fb0e
e604f6e7
fc0c0ffb
faf611fb
09faee05
f4e4dc03
07e3da00
d8e5f70b
02f7c8ef
150cd5d1
2bf9e04d
df2b04ea
0be71e00
fc0cfa10
d0364eea
ce080b14
ea94e704
1d2305f2
2827112e
3d2c172d
e4f40e15
f3180e08
1a0e0de6
f5f303f0
e8e80500
263b36e0
e102fef5
3504d9c9
312c2a30
192bfd00
d0eaf40d
eaeff3cd
fe0b0bf7
0cf81208
eab1cd17
411e02ff
3523f922
f62617e5
1de11920
11061512
00fdec06
e8ebfa07
e5e70723
d07925d8
caeab522
18f9f006
f82104ee
3c1023fb
2821ffd1
bef7fc32
1a14f4ec
f20df71c
f7f90f08
cc101cec
ee01e5cf
2911fb0c
060aeef2
f61404f4
240d00f2
1ee5ea0c
fd0ff9fd
e1e7f1f6
00f404ff
ff1c0704
171b11eb
210c0509
08072520
fafb1a10
09f9e408
eaf7f9e6
00dd05f3
f6232728
0cf500e9
eef2f9fa
03f9f105
f6fdfc02
f1f0f5f5
05060c0c
02191220
e2d10422
05fbf52f
f0321830
e1f726e0
fcebef1d
eae9150a
fcefe9f9
0122230c
f3e90c09
f6fa0e0b
f4dbf708
07f2e2e6
3f32110b
082b1712
fc040303
ed0c05dc
effff7f3
edfef6f7
10e4de08
351f2721
37e90707
5c5e2e25
1e59634a
0c0b222c
0dfbfb09
0007110b
effef3fc
f90104f3
f30600ff
09fb0116
1f22f80a
0b3b3210
ff070e11
fcfe0207
fee9fff5
1c0013ff
f702f117
ffd3dc04
fffb0d13
010a08f3
08e9e4d5
fce40910
00d2eef0
303e3a40
35435132
def0eb3e
dced36ec
fb1cfd1c
d305eb00
ffe9e3ff
ef0504ed
273f02fc
341d0aee
0926101e
130f1e1d
07fb09fb
de08f60d
05f712f8
ed07ecd2
f8eeffe8
f6070ddc
00202d02
0a033916
0ec912d6
f5edfe3d
1513f8de
f712f017
0a03ffeb
120708fe
1614fc05
e7e91845
24f30022
23ec2127
2a33bd27
d6ef0b0d
e6cadc02
17f6d8fc
370a2e49
2229f21e
2ef51c31
4c06fa56
fe1bf351
dc483f10
fc2e3bfa
ea1621e7
cff5e616
f41a0ef4
2d3f0bbc
1cd5e5e5
1c30e720
04322f0c
10f5291d
d006ff33
00e8dde4
15e0fedc
37f4252b
00f1251b
122df6e6
43340e2a
0de516d3
95f82e15
601cf9e3
45121e25
08122e28
1e07f4f9
1a0cfe10
cee31ed2
d002eafa
f8f02dfc
fff2294a
f1fa0151
c0c6d7f1
f4d3cce6
210b1e1f
0f1c2146
d5cedee7
cceaa7b8
13ed02c3
06190cf1
061f300c
f3f80f19
f908fff7
ea001307
f8eb0600
f81af7eb
eff617fb
f8041314
2a1e2b19
e9fd1c24
ccc6fcf1
0208effc
f702ebf1
f3fcf8e1
eee8e5e9
eaf0d9e3
0afdedcf
00f6e7f5
fa03160d
01e0ef02
fc01f602
02020b09
f701fd00
f4f2f103
e0fde0e8
03edeae8
efd2d7e1
f9f8eff9
e9e8e4f8
07ede3db
ebe4e4ce
e8c2ccec
1709f802
54374af2
18072017
0c1abf15
06f6111a
1df31be0
09ed17f3
3adc0509
eae70a1a
eb2519f5
0608f7e5
08f91000
daf10125
10e6ebed
f3f6ecee
d8ddd201
130300ef
1001e118
1dd00625
e306ddfd
e544fd2a
1a48fffd
f6fd111d
1fe9f902
05eff5fb
0100140b
f70b1707
2f22f61f
2de036ff
e936cbed
10da4c07
ecf4fea8
fcf303de
4fc5cbde
1c2a374a
193d291f
f7fe04de
fbebf011
0afd06e4
dc18fdd1
f2f205f3
090d00fe
04070505
080ff2f2
03fde2f2
0bfc0411
110cfa05
e6e7ecff
e7f6f9f0
ff13fdf4
110d06e7
fe08fbf6
fcf4160c
eefd02fc
ff0b0807
08f61203
e70f0e04
ffec3921
f7e6de1d
f1dfe8fc
00fff30a
fffbfc01
fbfafaff
e60bf8eb
f20208ff
e4d809fa
e9dfec1f
0316fc03
00f80402
eafef802
ebf1f8f6
f2eefce9
e40cf7ed
3e2116eb
dee61bef
1614f2ed
1c1d2a2b
160a0d13
1a33390e
14f0f213
e8dce90a
fa05efe8
01fcf6fe
f802f609
fd36492d
071d281c
11311ffa
e9285243
06e024f6
f5eacf19
14da01ff
2ef1201a
fc1afc11
3202ef22
3f01f229
002f3414
ffed071a
000304fc
ff0b09f5
dfe6f2f2
06010211
ff440ce3
cfeeede6
030c0ccd
f7dce519
fde2cdcc
d6e31413
e6fb2418
fce6437f
5e223f3a
79514519
530c4a40
1d5a4a7f
dc4f05dc
31583553
8b08307b
91dc0323
14f5b5ab
ddd9cee5
0b0121fa
fb06ebf7
d9e5ea05
0ffc1301
e7ed0001
232e0c04
160a16ed
f538f109
fbf5fc0e
dbe8e3d8
130cece6
f41718f6
aff2cef9
1d3ecbc5
cdc0b4e7
04e9fc00
eff8e80d
fd0b0803
0cfb1209
e4edff0b
d915e7f8
d4e2c2e8
4003f8e7
0410fc1a
0a221813
10040f11
fa031b11
e11ee815
3032000b
ff191a0d
fafdee06
bdd7e110
cfd9cbd4
ddf1f6ee
0c0fc0cd
fc0a0b05
03f7f509
160f0f04
0507f10c
fffeecd9
05fd0e0f
0c0f07fd
eefcfefb
0f10f2f0
f5f4f510
07edfdfb
1e0af90d
f7d1c941
eae9e0fa
0e06e8e1
f1f3f716
f402fc02
00fd08f6
e8e3e208
06eae8ef
0711f1f6
09150205
f70efaf4
12050100
f9eee411
0c01010d
0a16f9fe
110e0301
070b02f8
f906e9ef
fbeff602
f30a0614
f3e905fb
030610f5
d1e20017
b8bef3f0
dde3ffcd
1b18f80d
100d1e2c
271f0ffc
092b01e8
06fa1326
f5dadf13
4a1cedf9
365a08fe
1e1b16f3
10221a10
f303f909
071b1cfc
e91f20fc
e83706e1
145a3dc0
c50ee0ca
e923c79b
03f1eec5
0de9e7fc
f2d0f9fc
0cff161c
98ff2a09
98a5e5c0
cfef1bba
100c171d
04021418
fc1e0b09
e0ea1bda
efcf0def
0cccd920
06f4e0fb
353dc5e9
1cfcf8f6
3f0402e1
14fb02e8
d2c4961e
c7d9d1a3
f7090e04
f4f724f9
f10ff81b
ed22eff5
edeef6eb
c213fb05
0d120118
e9e7cf03
ecd9e4dd
08f9dde6
170dc90d
f804f0ef
fec612e5
ccd22afd
18f6f221
e2ec0a37
1d0913f6
0c120704
abee0af0
e72aa1d7
0c20e2d0
efc0e4be
06d7a3f4
fd24211b
101a1705
b401c415
fef6d030
ddd8ded7
1c2614e5
c40009fd
e60c0407
e7f815f3
00010001
00000000
ffff0000
000000ff
00000100
00ff0001
00000000
00000000
01fe0000
ff000200
0000ff00
00010000
0101ff00
ff000000
01000000
00010001
00ff01ff
00ff0000
01000100
fffffe00
00000001
00000000
01000100
ff00ff00
ffff0101
00000101
01ffffff
00ff0001
0000ff01
ff000000
00000000
0000ff00
0000feff
000000ff
01000000
00000000
0df7fe20
d905191b
e5c9def4
dbefe402
fa0e2907
0cff01f4
0515f4fc
0303f207
fef101f6
13e4b904
0fe6fef0
e5e7e4f8
f7e1e0e9
e8f7d2e3
0efcfe12
0bf514fd
eaf3f9fb
e216ebe9
f62c0803
12fc2d03
0405000d
fe040a11
e5210808
00d229f5
f7fb0ef0
cd0efe06
08e5f302
0e0afe0f
090cfd03
ee10de04
fce237c3
02e902df
1e01cc1f
fffe13df
0fe4f8ec
f2f20eee
c70c04fe
cceef915
e40dc1bc
f0da0c22
e5f7e9e5
0b0a0aee
feec0efe
25ef0d07
0c04f433
37e9fd0c
f9ddf30f
e0e5f7f0
d9e8e6e7
d9e4e8e3
f8eb24fa
eef7f9e8
defae101
ff05dbec
f4fdf6fc
e1fcfdd3
0c08eae4
0507050b
01e7020e
e8c803e6
c7d6efc3
b9e106f3
d1d4e1e3
29fef815
1b251021
f0e3f514
09fe08eb
f209f5e1
f9c2f6f4
eeebe1f4
0fe5c7cf
05f3050f
ba2729a2
1416009d
fe0e22ad
f91915e1
f5eafce6
0cf3ecfb
0bf5f914
f326f7ff
fe1a31ef
f7010316
0cf3e011
12fde9ec
e4edf5e8
e802f605
0023f0ac
470a0af9
4adcadf5
29a1a512
26f8cffe
1018ca0d
dffb1922
10f004ec
d52c0df8
ff58bed1
f63fc3ec
13fa1eb7
1fcaf7c3
f911160d
0a06140c
1811db06
010ad605
e1facf0a
e4e31319
0803091c
dfd0073a
d8ff2f14
0ae5ff25
27181ffb
f3d3e30a
1128f4e8
def70e07
11fc14e6
1a0afb05
080bcdf7
1314fdfc
effed7e9
e20406c6
d70307f0
06eef30e
defdf9f2
ed062ef3
d7dd0716
0f1736f5
e7eefdcc
0b402111
deec1702
fe0302e2
e70402ec
b5f20c0b
0fda17e7
eff3e7fc
f6e20301
f2e6dffd
03070304
ff01fa00
2323f5fd
e4be22f8
f5e0c215
02fcf413
0ad6edd4
08200400
ebff0eec
0000ff00
ff010001
00ff0100
01000001
000000ff
ff000001
ffff0000
ff000000
ffffff01
0001ff00
0000ffff
02000000
000100ff
0100ff00
00000000
fffffeff
0001ff00
ff000100
ff00ff01
fe010000
ff000101
00000000
ffff0000
000000ff
0000ffff
00ff0100
00ff0101
00ff0000
00010001
0100ff01
0000ff00
010100ff
ff00ff00
ff010000
ff000000
01ff0101
e4fe05ee
00eee2ea
e8f30507
1cfefc04
09030607
e9ecee14
0d0f1114
fafc0212
eeeee9ec
fbf72a05
0ff8eb10
08f6e4d6
eafee8e2
d40004f7
36484ef9
00f8232a
00d30d14
ea15f0d3
0af1f603
07020503
0d453b19
f1e72627
f7fcc9e7
e7f5e507
00dbdbe1
faf4e40b
180f1eef
f901f4fc
03fe02fa
0be6f007
06f6e9f1
31f01c14
0024f4fd
06e70ada
e5f3f7fb
f7edf9e0
0ad9c6ee
291ae5ff
1c182210
effdfdfa
33451ee9
3b28060e
0cf6c7ba
fdf91501
e3d4de03
ff231105
1f0e2820
fcf10e18
31fc0112
22e70b23
dda2b551
e0dcf826
dcfbd3e6
193450f4
e01e2704
cef015f0
f4f7f2e4
19eef103
f7e2e2fe
03fb00d9
0def06f4
00fa0415
d7cae317
01eeedf1
191af2f6
e4ed0709
e8f9f0ec
0705e6dc
0cfef50b
dd0bf9fb
0614d0d3
123310f9
2b11fcf1
0613e315
e80d05f6
edf1dfea
05fffcdf
e7ef0503
f4e9f302
060ef9ee
021312f0
12eaefec
0c051509
edf2e71e
f7f803f0
e7fef9fb
faecf5e6
f100f7f0
dcdddcda
ec04e815
f7dff1ef
07fb1308
0111131b
16fa1b1b
09e4f60e
c9ccc7c6
10ffdfdb
0607dd0b
e4df04dc
fb020cfc
fdfe0c04
23dbeffa
d5230f12
e7f5c412
f7ede4ef
f21003f6
fdf604ea
011cfc0b
bce6f7cd
e904cdac
fbe2efa9
10fb1df8
0e0edbfd
08ffe907
060afce0
f9ef141e
fa00f802
1afff213
1e1d0c26
15110e18
faf6fbf7
0cffe801
1727f8ff
fcf3e2e0
2404ebe2
eddedada
0403e2d6
2c13ef0b
05090a27
f8080901
e1f70cf5
ea30f5ee
98f2e2f1
e6f2bd87
f703f3c2
100f1617
0b110d12
f117fd08
edf5df00
fbfefdef
06040b20
091c160d
f1dff123
eadecffd
eac8ad9f
8db80e19
332f0c81
e1ff0501
f1f50ff4
190c0df4
17ecebf9
1914fd02
00040c10
ffd8e7d2
e0ec0e07
ebe8f5ea
fa070c05
f905fafd
e9f31beb
ce010308
d5e3e3f5
29290ae4
fe1d1809
f8fffdf6
0d161500
14f50e1e
2bf7fb0a
deddf3fb
2d14f9ef
f1e93a3d
1603f1e0
06f700ff
120d0c0d
16fe0d10
f91d180f
0815e605
f5f30017
e1f7ff28
0df6cdcf
fffe0115
d9cdd0d2
f8ffece7
010d05e4
fe10191f
c4c600f2
1e1b09ca
f42e3b39
fef3eeeb
171a0e0b
0e041007
0efe0614
edfc050a
eaecf1f5
3b40fbf0
f1152d21
06d7d1ca
f1f8fd10
01fff4e5
0802f9ee
02ff1a19
dff6fb00
fbedefe2
08060c19
f5fbf309
f70905f7
121d0506
f4f40913
03050d09
f6f40503
070710f9
1b101925
000cfdfc
f9f306fb
ecfcfe0a
1204e6e8
fe0f0617
6b7f346a
79623f00
6b670041
57565d46
d3b7de02
b9deff00
ab81ff08
c1ebf3cf
de3842ea
2d2eb0aa
08181e20
1ee9eef9
d1d72315
3c1ff8dc
05f2dbde
cff80523
c8f51c19
0000ff01
ff000000
14f4fb00
ce19090e
f8fdebe8
f8312a1d
39ebe502
062ee70c
521f0724
ff1cf3d5
0be6da06
0000ffee
01000000
23150000
f606ff13
28002107
28f72e30
06040820
e3f70b1d
d8e0f9fd
19200ae1
1afce0f4
081f2a1d
3944301c
01270c0f
32141013
090ae02a
2240eee1
051c0c18
f2fb00f4
f4f2f2f7
f90f05f8
c7e3ef04
21efe5f4
162d263a
05d30fcd
01000000
01ff0000
f3101000
f6f7ef1a
f81502eb
3b14d6f9
020518fe
dbf6f811
1eefddff
1e1004f6
d7040111
000000e6
00000101
f4030000
fae1050d
f0fadcf0
d6eee2e1
fbf3eeed
faf5e911
0d030be2
161b190a
06fcfe27
0414e4d5
0a03f1f5
04fc00fe
05060a00
f71125ef
f21e1d11
d5dce8e6
f9040aec
0c0f180f
01f8100b
0802fffe
05182510
faf2f403
f8020708
ff0100ff
000001ff
05050fff
f8090f03
f9fb100f
17100cfc
e60d0b01
f8f0fef9
f5fe0b03
21f8fa12
f1fafc07
ff000001
ff000000
03f70100
13070207
f70e0b12
eeecd5e9
171504e3
fb0905fd
f3fe07fc
f6f2ecf5
03fd0001
04020107
fdfb0301
1a03fe04
070a1020
dcdee704
14f7f4e8
eff60b17
fefef8fc
0c07ff06
000c0d12
060204ee
eedfd8f0
04fefbf7
fd090114
00000101
fe000000
000e0500
f6000601
f0fa06f4
01070df5
ebfb07fa
0307fde1
13ff13e9
0601fcfa
eafcfefb
00010008
00000000
01f9ff00
fbfef901
02fefef8
c9d2eeed
e6e100e2
fdf7f5f1
080001f9
f1effb01
fb030b0f
02110606
08fafb04
f7f5eff6
f600fef9
e5e7e9fb
fe100413
0810f303
080602f3
f810060e
f8e20aff
f6f8e2f4
f001fdf9
1ff1f300
e502f7c7
ff010000
ff00ff00
fbfd10ff
2610e931
fff011da
1e07d3f9
0a0701e8
fff4ec01
1603e8f6
190e0014
bf180ede
00000005
ff000000
f80b00ff
01f4020d
fe18fd0b
dcfcdff5
e5e5faec
0ef8f40c
17f9f3f8
f6fff0f7
01e202f0
0807e7f3
ff03f806
f9fe05f6
04fef2e9
dce3e3f5
f9ec0bf7
1d01040d
12110817
f90d05fb
f8fe03f5
def8f2eb
e6010909
09e7fe0b
1109161a
0100ffff
00000000
1c050601
1516fd0d
01fc1b05
f512fefb
090103fd
1a1801fa
052020f9
fafaedf0
09eef6e7
0100001a
00000101
03070200
f3fa01f2
dde3ebf7
f1e3f9ef
f0eae9fa
120d070d
16050a18
040aff01
fd05fa00
1818fc08
0a220c0f
ec11291a
04faf3e0
0503fa03
14dccdf8
1e16e402
ebe4ec16
1afefc1f
4a1af300
4f3d2e4f
f0243311
130e13fc
fb0709f4
00000000
00ff0000
0803fa00
12f602fd
3821f702
1f0de71d
1cfbe5ea
0e042728
0b0efb42
d5140cec
d8db2bf5
0000fff4
00000000
c8dc0000
e0cfd0dc
f611e5d4
fa0520fa
e7f90202
f3060600
ebe7dcdf
110c06e4
280c1f18
fe062a36
e5f6f8ed
1ae10308
faf8fb07
05fdecf3
cff8cb0a
180800f9
00f5f515
09def6f7
f403e6fa
0e420d06
d5e2e8ea
2e3bfede
e4feef13
00010000
0000ff00
01f7f200
f7ee1404
1f0807fd
0ef406fa
e511efda
e4f90de9
d31b0307
ecd1dff9
102b0e13
000001f8
0000ffff
17070100
132e22ff
01f91414
f30d0210
dee8eb0c
0d19250c
f9ffea01
f9d7dff4
141a11fa
10f3283d
fd062fec
21ebeeeb
040c0c38
1a1f0c06
fefff30e
fbff1116
f6f4fbf5
fbfaf9fe
08f7f6fb
e8f1f902
08f8faee
241af0fe
0d0308fc
000000ff
00ffff01
f2ecff00
ffeee901
fafdeef9
edccfa01
0df60211
10fd030e
f4e6df09
15f6eefb
fb0ceafd
00fe01f6
00000000
f90600ff
ececf6f8
fafcfaf4
ebfc1206
f0eae0fa
03eaff00
fff5fa04
fcf5f7fc
021408fe
fff7f6ed
f4f5fa09
fefd0802
03040706
f7f7010b
07fd021a
0b060504
fdff0d05
08fc010f
fbf9fc00
e2eaeff2
e9d9e5ff
fcfef0f0
17170af0
00ff0200
010000ff
07f1fc00
f502eff4
0f0200ff
f7f8fb07
1ff00805
09221517
f3e70704
f807fd00
fdf90afc
ff000003
00000000
1310ff02
17231304
fb0e261d
141909fa
15252823
f0fdf5eb
0efe0b02
f8f80816
f0effa03
0501eae4
f8f1f701
10e7f405
f8fd010c
1602f8f9
0408f209
0e0a0627
0401fb10
f7e7edf4
fde1edf8
0206dcf7
1d1615f7
200028fe
fa171fd0
00ff0100
ffff00ff
01fa0800
2c1beb13
1a010ee7
23f1e3e7
03e20500
1416241b
0d461c16
1b18e320
013723f5
00ff0207
ff0001ff
f7f6ff00
eaedf2f6
ffe6e3e8
eefd1714
ebf0e617
0d0e0b09
2006e809
09f3f420
f4ed0f05
2c1ff7e3
211c13ef
fced3b13
fffef2f9
07ff0300
fbfa0b1c
e800db00
061f07f8
fafa06f6
4ff40410
7945f72b
13636b06
2efeeefa
2c00d615
00000001
ffffff00
e4eef1ff
321bfe19
fbea200d
16e4ee1f
0ed9222b
511b1d1c
417f2832
1d13e409
0d0ce60c
000000ef
00ffff00
e8db0100
03f6f7f8
28040907
332a2d36
e4eece1c
0deefafe
15fae5fe
fa040c19
082126ff
e80511e2
ccf6f2e1
f9d50ff2
fef0d8fb
ecfa0304
04f5fbfb
0b00f901
f600fffb
07020300
02f90b0d
05fdf900
0ef9fefc
04f9f909
f90805ec
0100ff01
00010001
0805f7ff
f9f6f0fa
06fcfbf3
0ef7f613
e10704fb
f4eaf6fe
eafae7f5
f607f2f1
fbf9faed
ff0100f8
00ff0000
150f01ff
05120510
f0ff0902
eff4eaef
110d0d00
f602f100
f8f7feee
0c0f0309
f40307fa
0102fafc
f5eef304
0a0405f7
04090412
02fe0401
f533e50d
d7050450
0908fad0
0b12f6f5
17fe0909
d9ff0b01
d100fde1
1cfde8fb
11cafc8a
01000101
ff000100
e5020e01
10f5c01a
0906eee7
34d4d9ff
e7dc0df9
02da22ed
dabee4d7
281afbf8
f704f5f6
ff0000f3
ff000001
0a070000
0e1a1e11
09f80403
060df0f2
0508ddff
00f2db0c
13dce6fc
0decffef
fafa0b01
3329fcc3
3c1dee18
05fa1607
1dfa1601
0ff80d25
f1fff40a
131312f5
fa040315
05f9fe09
01fb0008
09f7f7f3
02fff700
1f120101
070c120f
000100ff
00ff0000
ed0810ff
16f3fd1d
0002edf9
fbe20905
0705f810
1cf605fa
14fef312
1befff03
0d12e102
00ff00ef
000001ff
fbf70100
fdfaf200
e80302f2
fe0008fd
0bfb0a09
07e1f806
03fef010
f5f6f9fc
f8fbf7ef
06fdfdf2
fd02050e
fd0807f9
faf60707
09fdfd08
fafff811
f20fceec
060c12ea
f902f3f6
18070601
ec08efef
f0090e0d
f8f00b05
21f9f8f6
00ff0001
00000000
f7fc0501
04fcf3fd
efff030e
06f0fcf5
0dff2522
f40ef71d
f7fd0902
11191e02
f3e21221
00000004
ff000000
f100ff00
f5eff6f0
0102f7fc
fe12f3ff
040302f8
04020911
13030a03
0c0d0817
f0e8f8f9
fd17e8e2
0aeef002
f80400fd
e6ef01f0
e5dadcfb
110b377f
39492e19
732c1d12
ea0ec40f
2b276698
814d2c05
232a2941
b8082d30
fef4f8e1
e8d7d109
cecf03e8
f4b5d7fc
d4dde4d7
ef1612c5
e4effff1
3d15ed05
ee03e614
1ae8c2dc
d0f6e3dd
09e7dfd0
eb15fdf4
ebecfb08
13f207f0
cc07ecf5
cabebbbd
eef30add
d31bfce4
e8db46fd
150af60f
04feedee
fa10f1f8
ebe0e019
f7fbe10b
c2cddb10
aacaf6c1
130801fc
060b0806
d7000bfc
e51c3011
d4c0f807
f7dab5d3
cae0e4d6
fafdb8bb
070ae7db
f6f1d2d1
e108eef9
251c04ff
bf24f6db
2505fffb
2b0fee1b
fa00d9be
06f22c20
05dfe723
010ce81b
2eea020a
04eff9f3
ee0003f3
eef0fff6
e7fc09e1
ddf21312
f6e9bee6
074215f9
01e1f8f1
1d19bfea
fef4facc
20f50a24
19e5fb0d
f6da0cf6
feee10f3
b4eaf8e0
b1ddf0b8
16fe091b
02020c0e
e9000706
1307190b
f81400d5
d4fb1ff8
dbed1636
2700d2e4
280307ff
bef0efb2
01d8d1cd
fc232706
2b11fef9
11f01527
0fe7e833
ffe7c7e1
03091c0a
12060004
0f072d1a
053518f8
11f3ec15
f10dfaee
002208f9
01e4f3ee
ebdcf811
06c6fae0
e8e3e230
13f1e60b
041cf4fc
010a0b1d
13080c04
f4f201ff
12ea06fa
d3e6e026
ffd9ccdd
ffd8c7e3
0c050410
040c0d05
43260f0b
e71a08f6
f7fe020d
f0f4fdff
e613fefc
f4f326fe
ddd3e3fa
f504f62a
23253a00
0cf0ebe1
eff920fb
1509d4e7
02eff012
dffdef06
d5e30dea
0c06f520
abd1ebc1
b8e6b0ed
ccd6c3e2
c1bae0be
0a09bff1
f12002f3
ee31ed12
061bf106
0bd003dd
22ebf921
0611bb0d
04ee11ec
00f2fc0a
d9c4e4ea
8748c2c8
0ebeb7ee
29241aff
e43bfed3
fc211e17
fcf81907
c1e3ee15
ba379f07
f31804d9
e10f0cdf
0e13fd1e
e313c816
eee4ec07
2000071b
fb26ec16
0cf8edf1
e3e5e0ee
e1ceead8
1beedc10
ff11f9ed
04fc05fb
03091102
2505ffe2
25f9412f
eef7e711
fefdfff5
e2100306
d7dbffe1
ebec0514
2f23ccea
eb2e1003
00fd1406
0def090e
f9f90af8
eff2f3ff
f709dce9
fecae81c
efeee0de
101cfc01
e0e60011
fcecfdfe
0006e9f8
efde12f0
f3e909fd
120dd7da
f0f6dbf1
240315e7
030916fa
151907fe
eaadcad5
c8c4c404
06101bdf
dad5c9f8
dad7d8d9
09130a00
ed03210f
240bf1ec
ea1906ee
16ec00e3
f61310e9
e9f8c814
eefaf8e2
fc00e9ea
1e04fef7
f31909f0
c6ccf8c4
fbf1fae9
f0e00802
fdfd140a
05090109
f70502f7
07d90104
fdcfe101
d1f3eb04
f1d4f62d
dbbcdef8
0c171b0b
ff050b06
e4c6f9ff
f2da3605
090ef335
0f07e8e6
d325fb05
e2e1dfb3
1115e5e9
1bf40011
fbeee1fb
f7f8f5fe
12e1f8e4
090b020a
f9150df8
f70b00ea
fdff00f4
05020402
10ebfff7
1317f017
0e04fe06
0b030500
1d05fc06
fbf8f413
f20b0a14
020eddd5
f40124e7
e5f702fa
ea04f5f2
07fbf5ed
16060301
12020706
e428ff09
17ed0434
0efc2e32
e8053306
fbf7f7f6
fa00fdf5
07eb0bf9
e61dfb1a
05f918fe
1003e305
fe0806f0
001ceaf9
e8f8e9e5
2cf2f417
e928f937
fee6d20f
d8d0d235
e70f20ee
ebec030a
11edf1ee
2c09ee0b
0f00f106
16deabe2
eaeee9b4
c6d7d8d6
f6dccfe1
df01d7e0
f9d4ef0e
24f90cdf
ee0903db
dd0c01f7
f538261e
fe0d5bf4
f7ff020e
ff08fb0f
be130602
1c8128ee
e1e1d50e
cdeeda1b
ecda1604
15190a1e
11100504
bcdcea0a
c1bb6dbe
d3d1e6f8
2cdea3f4
26f4f5ce
1bfffdd7
13ebf304
a5cafae1
4a11c3a8
bdcde9f6
2a2a3910
fef91715
edf6f4f2
11edf010
ec05fb08
fd0f0ff7
3c0a0f06
00ff445c
1506fb00
dee5e9de
3c52fa0f
e6130c1c
f5a29ecd
500913e1
e3c5bd15
1cf8dbeb
01fc1332
dff40215
1ef308fc
cfebfb0e
f649e2ce
a3eed3ff
4813d5a8
edfef401
04fb0301
f9faf806
251df301
e9f3de09
f909e8ef
090e0cfa
e4132600
c5bff21a
bdcbc8c5
f5e90013
fef4f0f7
01280e33
dfeaf2f0
c0c3edd9
3ff1aafd
f24e3be8
01f904ef
0d10090c
e6dbecde
1700ffff
f30f2110
e5e2e80a
42fe00e6
f4363923
26c5032a
f8eeebfb
efe5f8e3
f0090e03
10001307
e2ebfd0b
c1e6d4da
1b20fcde
01f1f40b
f2071301
fcf0f805
09352aff
16000a25
e2fef4f3
18e104e8
170c0a20
fc25fefb
e5eaffe6
c9dfe5fe
14e7f8d6
03f7fe04
00010100
000100fe
00fe0100
010100fe
01000000
00010001
000000ff
000001ff
00010000
fe000100
01ffff01
00ff0001
ffff0001
000100ff
01000000
00000001
0000ff00
00ff0000
ff000101
01000002
0000ff00
00010100
ffffff00
00ff0001
0101feff
01000000
000000ff
00ff00ff
00000000
00000200
01000001
0101ffff
00000001
01000000
01010000
ff01feff
01010000
01010100
ff000000
ff000000
00010001
00010000
ff020000
ffff0000
00000001
ff0001ff
0100ff00
0000ff00
ff000000
00ff0001
0000ff00
ff0100ff
00ff01ff
01ff00ff
01010100
00000001
ff01ff00
01fffe01
01000001
ffffff01
00fefffe
0000ff01
01ff00ff
010000ff
00010100
00ff00ff
00ff00fe
0200ff00
ff000100
0100ff00
0100ff01
ff010001
ce01ced9
04f2e3e9
08fe0d12
f5f3f810
1a1f09f0
0ef9fc32
0afbeef5
09f71b1a
f9f5eb03
f3eafbec
fc06f3ed
f3060b00
04fc02fc
060e00f7
fe021301
12fc0906
c4cb00fa
0bf7ebed
ef01f4f0
f0ff03f1
0afdfdfe
fb1303fc
05ff0b04
04eb0007
f719ee31
fdf8e7f4
1af61f0e
0d030c13
fa02fa01
08e5fff3
da06fbf3
effdf214
02edf4fa
0cfcf407
02f922fc
141cff1b
0c1beae9
39facdf0
1619f1e7
4600f9f5
1ff60d1d
e5e1fc2b
15d7f823
fe030a01
050ff1f0
f52e4613
e2082107
efdadbf7
e3f7f9d8
f3e0f2fe
fdd50013
f0cde21c
f8effa2c
f5e4032b
11db0f2c
e0da1d27
03040b37
0b0f03fe
34f2f9f6
0803d7e2
0bdbc4f7
29c3c3f7
f2b793fe
fa0a03f8
0417faef
0ef700ee
09e2ed12
fc22f92a
0e1928de
d826fafe
d5cc1c08
e5fffdfa
00ffff00
0001ff00
ff000000
0000ffff
01000200
00000100
00000001
00010000
ff000000
ffff00ff
00ff0000
00ffff01
ffffff00
01ffffff
00000000
ff00ff00
0000ff00
ff000000
00000000
010200ff
01000000
ff010000
000100ff
00010000
ffffff00
00010000
0001ffff
01000001
00ff0002
00000001
00000000
ffffffff
00000000
000001ff
0000ff00
01fdff00
27fcf112
0118d6f8
ccd0cc33
c7d4a2d0
0a09f4dc
dd04150c
0cec0406
1726f212
dffc11d7
bdede6cc
eaefddc0
fef4f4f8
01e1f9fb
1b16d9ed
1ff4f82a
f7f70604
dadf03d9
c7dcec17
f41b12f0
2ff06342
17fce935
062605f3
10f60a0a
1ae615e8
eaec0aef
e4f9d4e5
e0d9e5fd
05010e0d
f503fef6
e9e1eafa
0ada24f4
e0c2e0e6
0afab5e2
eefdf3ce
e4e625e8
eff703db
5c504f7b
5035616e
0000647f
4d005837
1edafbcc
fdc2f79f
000081c9
1000d7eb
11fef207
fb033626
f6f201f2
0b142218
0910e5eb
f1ceccef
f6110a23
fcef0d13
13fef0e9
fb0d01ff
f9f31404
050f2bfe
f72d2923
0cfbd6cb
03050a0c
faf0e7fb
0f0200ff
ebe7fa0d
f51e12f7
3434fcf8
06faf02f
f5090000
0000f3f8
00ff0000
00010000
000000ff
00000001
f7111316
f50109ff
05f40bf5
05ecf0f0
0100f606
00000000
1101ff00
ecd91c16
010700f9
ddf7f709
02f417da
f3090c1a
10f70309
e8eff9f7
fd0df0f6
f3fd16f7
0e070800
f6060afb
faf6f907
000bf3f1
04f61f02
000ce0f9
fcff150f
fef40201
100d0d05
d7fa05fd
02f7f104
0408f30a
fd04f4ff
1417100f
150b1716
00000617
000000ff
ff010000
0000ff00
00000101
fffd02ff
f9fbff05
f0e8f2fc
f5f4f1ef
ff000409
00000000
26000100
cd09fa12
05e6f0df
011e0bf9
f8041d04
e8f6fbfe
11ee0a02
e9e4ff1b
04fa02eb
f3171611
faee08fe
fc07ecfa
fb01fe06
f1fcf0f1
100afaea
0113f9f4
05fdf6ee
ff030109
02060afb
fdf207fd
0ef9020f
e7f502f7
f6f7daec
f2030eea
f7e8f204
01ffdce4
0100ff01
00010100
01010000
0001ff00
fff2eff6
1011fbfa
1001fe0c
fd04f9f8
0100f9f6
ff000000
ffff0000
02fdf8fe
051114f6
0d060afa
18171629
fef2f514
0c0f05f9
05f60819
061300fb
fb0c0c0a
e8f60607
02f6f5fd
feef0003
f1fbe5f9
0e05f3e4
06111cfe
030c001b
fbfbfa07
f8f3fe0a
06fcfff9
07000403
d7e7f6fa
dde4e4db
110a09f0
f906fff9
0000f9f9
010100ff
01000100
01000000
0000fe01
fdf9f8ef
0f0b0910
e4ebf911
09effa01
0101fcf8
00000000
f10100ff
04f600ee
16151420
011bfb05
e3080cd1
fa16fa0c
06f321f5
eee2f90f
16f4f2ef
fc2219fd
29e6f9fe
e61feaef
fd0e181a
1317fd08
06ea0907
0007e80f
fffcfdf5
f9050ce3
09f405fa
c3290cf5
21d31923
e8f0e404
fe01e2e3
ff0b1c02
fef1030e
ff01eaff
00ffff00
ff000000
01ff0000
00000001
ff0df0fc
edfc13e8
f7def110
020ff7f2
0101fb12
ff000000
150000ff
f008020f
e3e5f7e2
04f802f9
07f80106
0a01fef6
000907fb
fd0806f7
0204fffd
f50c0501
15f90b20
0b07fc00
01f8f904
fc08f9fb
f9f903fe
f5020b00
0102fc07
f8f60800
04fbfafb
f00b12e8
fe050009
03f3080c
0805f304
f7f4fa07
00f7f8f5
0100fe01
00ffff00
ff010000
01000100
ffff0100
0602fe06
05fe0905
f7040a08
10f21006
0000f8fe
00000000
f6000100
f8f3fef2
fff5fc00
10faf0f8
0f020b08
f7e6f1ff
0e04f904
040a0900
f904f80d
16f5f2ec
eb011b19
06eb0614
0403faf9
01fc0c06
05fcf20a
f90c0ff9
08080d08
07000108
04030104
00100cfe
f60704fd
fb0a140a
e7f80ffe
f30512e8
0df70713
0100fd05
00010101
01000000
0100ff00
0000ff00
0a030507
0001f805
e9f401fd
f7ef0d05
ff00fffb
01000001
fd000000
05f708ff
0dff0306
29131d03
e4fff808
1a1c13ea
f7040925
f5ee09f0
f90f1ce4
0a100a0f
efece5db
fe0bfdfd
f3070d05
01f8f1f6
03220bf4
00f1ee1d
0a0afafa
1103f9f6
ef01f1f1
0002fbf9
0bfbfff6
ebfafa11
1809fe04
05100900
fc010207
ff010bfa
00010000
00010000
00000000
00000000
00e502fc
1009f5f3
0b0df705
fef7faf8
0000f3ff
01ff0101
e4010001
fd000506
e3060ff4
1bdcea10
f417cbde
0b02e9f7
0208f9f6
091708f7
14010017
0200fbf2
0ddae603
effe04f8
0cfef80e
0212fcf3
eff1060d
fcecf911
11080a11
fffdf9fb
fcf0f1f5
e10cfaec
0802fdf6
0101010f
130c060e
e9fc181c
0bf50715
0001f603
01010000
00ff0100
00000000
01ff0000
f705fd03
f700f5f2
faeafdfb
02e8f90e
0000f902
00000000
f600ff00
0c1be5fd
ea0104e5
020006fe
fe08f3fb
01f9fcf1
0409f6fc
06f706fe
fa0500fb
070200f6
040df0f7
01080d00
020e0a08
12100904
0106f617
0ef0fe00
0800fa08
0204fffe
f6fafffc
fff50106
f20bfcff
06fefe0e
04feedf0
fdfcff0f
0408fef8
0000140a
00000001
00000001
01000000
00010000
02fbfbf5
00fefb00
0002fcfa
07f3f401
00fffbfd
00000001
f5000000
fcfd00fd
000d05f5
f9f8ffe9
08f8fae8
f70af7f9
f2f9f8f2
f903faf1
f9f106f4
0802f602
24d8f4ff
0a1ae702
f0f7eff8
f8fef0e8
fbfbff03
fbfef105
00ff0913
f7fe01f7
090607f8
d6130705
0bf81a19
f5f70008
0bfcf809
f7ecfd00
f2fbf1fb
010000fa
00010001
000101ff
00010000
01ff0000
0bf9f8fe
efff07f3
0902f5fd
f9fff9f5
01fffe0c
000100ff
fb00ffff
fc03010c
e5f900e6
0414efd7
2a21f3ea
232303fb
0d0bdffd
0906f8e6
01092409
f404f7e6
15d6f20a
08dfea09
f9f20108
1705e2f6
10f0fe04
08f10c0e
fdf71c29
1a21f2fc
f509f6e5
ed19fcde
ed102b04
edf705f4
f5ebf805
dfe5f815
dcdeefe7
0000e5f1
000000ff
0000ffff
00ff0001
00000000
f1060708
07f2fbf9
fc1116fc
03284521
01001f3b
01ff00ff
f500ff00
0a0901ff
241cfbfd
0614fef5
0f080b0b
f400f716
0001f5f9
03000b07
010705f7
07fcff02
02fff807
070b060b
f4fbf5f4
f6f7f5f4
04f1f9f8
09080903
fafb160e
f8f6f8ff
f5fcefff
f7fe0700
fdff03f5
01fdfe03
0704e9f3
f3fa0908
02eaf802
0000fbf8
00ff0000
0000ff00
01010000
ff000000
06fe02fe
0afd0a09
ece3f30b
03edebf3
00fffe01
ffff00ff
04000000
0b040705
1f18130d
14f61800
e3faee3b
10b70ae5
f8ef0407
0bd7d705
e8f8f8e8
14eb1125
a8402200
e317d649
07f31b00
f806f410
0722e2e8
060b18f0
03d812c9
0decf31b
f1fa0a12
7fdb14f2
09d6f4f5
fff014f2
1910f2e7
0a16f8ec
f5fd02f7
000105f1
0000ffff
00010000
0000ff00
0000ff00
070512f5
f6f1ff11
0208fbee
2f060014
00001701
00000000
fd010000
36e93cf4
fdec0a1e
3fe4fa20
152ccf10
f6f4dbf9
170602ef
0504f5fc
f8000ef0
efe5f5ee
fbbdf7ff
2fe9dd21
01e6f513
ff15ddf2
02090b04
f1f51214
fc0800f3
06f4ef14
09e9e6f7
0224edfa
df1418da
e409f2f5
fefd0ffc
f50a240f
0bf5010f
0000ff16
000000ff
00000000
00000000
ff000000
fef2fff7
f1ffeaf6
03e8fedf
fafb1000
00ff040f
00000000
14000000
1c3dff14
f01218ef
061d1406
d5ea1417
1a0f02ee
effe1112
faf1cbc1
fe0b05ff
f3f60f1a
f10df5e9
2901fb17
ee0809ff
c8cff1fb
0b2306c6
e0f3030c
dbe7daab
1309fd09
f812fcfe
07f307eb
ff0304f2
15e8faf8
2d0b524f
f702fe18
02fb1d37
0100ebf1
01000000
00000000
00ffff00
000001ff
0bf91711
f803f6fe
fe0604df
0dfddffc
01010a1a
ff0000ff
ffff0001
1204fcfa
f6f2fe14
2214214f
19f40b4d
401f0920
564d7f19
21181c81
ab3c190a
f1221635
b817170f
fee822d4
00b7fd3b
01271239
1a271634
02070212
edf4f7f8
0eefede3
1afd1020
24040d19
1f05e2fe
21e315f2
e1e4e300
eef7f4f0
d2e6f6ee
eeebffe0
f2fc1fd7
26fce3d0
1755e50b
f62d1102
0c2c12e1
1517f2d6
1429160e
fddf212e
35aff1ba
c593f2c9
9dcee4e9
babf17e0
13030c22
1010f611
fdccca0d
99a75de0
f912049d
0fe80f18
10d5f20f
5410030b
5b0efb0c
edb4eb2d
d4371514
2609fda2
a31a1e1c
d5d8ada5
3cfc0007
daf7e9ed
1b04f9e8
0a13272c
181d2d02
03e92d20
b5d5c22a
fbffeacb
f4f92405
15050dfd
070cfece
0138e60a
dde6dafa
f3eff0ce
1206cbe2
e8fd02f6
eae2f30a
0dddf7ef
f1f828f6
e4fb17f2
f91ad003
030215f3
18efed0b
2b2f1413
bbb7e22c
dcdeddc2
c4c0c9c6
d4b3acd2
2cf5e4f0
fbfad310
dbc5d5f0
30ea0722
092600fc
00ebc2d8
df201fda
1e1ef800
e0eef6ee
05eeece6
f50701ff
0408fc03
fa0c12f1
d6fd0517
ede2f1f3
f4fcff02
09f4ee03
1507e70b
fd1aebf2
fa04ec08
e0e32bd0
0e0b031e
dee7ec19
02f7e1e2
060a0ef3
f613f6f4
d351fcf4
27f9d417
1019d7df
f6f4f2eb
02f6feff
060704fb
df10cc00
d7ffbd25
0401fdcc
15281824
fcdfe302
0c32ea0c
ec061b04
1113f5da
111ef912
f2ebd3ed
06e505ee
140ac90b
20121b1d
08272a1f
f8f31612
fbe6f10a
fd1d16f9
29fe0e1b
ef0008e5
f7010afe
382d1301
0c1f1f27
f4e4161e
fae3f432
fc1f01ed
cdf0ebe9
ebb0f7f1
050e1505
fa09f80b
410ff9e0
2d0fec11
66ed1fe2
5405ec44
74201f5d
f10a07f5
03f60605
07ece700
59cfce0b
2020251b
f62f06f7
d61116eb
f3fdf2f8
e2f2fadd
d4e1d9d7
2b052315
dcf9ff3e
dad81212
0215d5e9
0b120102
04000ff4
f1eefaf9
fde6df07
11d1fde6
e61fd0ef
f8fdebe6
fbfff3ed
2b4003f1
c0ea25f8
fcbec3fd
c0c9ebfe
0ae9c2dc
fbfa01f0
e40af0ec
e9ec07e5
04f7f006
ebee150f
e8e1ecfb
d808fe0b
e8e513f4
0e04f30d
08150f14
03fa0808
07d0fd03
d446d6c3
1efb28fd
f8ecf4ee
0803001d
ebd8fee4
2d25fd17
21f90d00
12160a1f
fe010df0
141a1612
f3fd1f16
fd0406eb
e5091016
dcdee3e0
f6edebe4
0e110204
0213220a
fdf8fc1f
fff7fafb
0313fc00
f8effe03
0cf9e3f1
1b090315
ff0e0309
100cfdf2
1b1a1612
edeaf425
0500f5f3
0005180a
10110b09
eb1b090a
08ff0dfa
050dfefb
fef3fdfe
04fdf401
fa02fdf3
fa040707
00f2edf2
0002f9fd
08010503
06fde4fa
f5fd0601
e71c0707
17012af1
0aea0819
934af3cf
1b052bfa
020afef7
0e0ae9d6
fc31d908
fafb1fe5
e3ecefde
48d4f023
f8fefee4
e4f5f6fa
f2dbf4eb
0b19bcfb
dd091ce7
2fea05f8
17191af7
211e310b
221ef341
0a160bc7
09081803
0ef0020d
0147c920
ece806db
091801d5
f0e2fd02
fbfcfd12
efecfbfb
cb1013f1
1ba9c564
feb6bcdd
fb2de614
e4e72522
f4eed708
f50cf8df
2ddae9ca
0b22f625
e0eb06eb
09d2d7ed
1712031f
e7fefe04
ebfb0008
dddbebf8
e8ebe5d8
1406ecff
4f38222b
02eef34f
dffcf5ea
2d36e6f9
162b0b0b
0c05f8d6
17fae4f8
0e381f03
04ead8d2
4233effa
1cfbf723
f606fff8
f7ebff01
f82005ff
a9f43a09
04f0f6d5
055304fc
f5fe0910
efeefeff
012df8ec
df1525f2
e4e6f5da
eee2f3fc
ec140104
2708c4e0
e0e3f1f8
e8e1ff01
2f04e7fa
b6b3d10a
0ff60bf7
1e14ed1b
e9ff0703
ffebeefd
faeb0e0a
13fbe80d
2df41dd7
31fc0e5a
1b05fae3
f8f5f4d7
262a0310
e10408ff
f0f0f5f6
07edd100
e3f8dbd0
fd090402
11f20408
0ef7e60e
10201c06
fff11a10
034407de
02fb1afe
56421f1f
2f48381c
edf8f2f6
f6f4f2ec
1529f1f3
ec0de7f9
f8e510f9
0d05dd12
140c1be1
cbcfd819
c6ccd2b7
e3f7e1ee
eef3c4cc
320304d5
dd12fdea
f7f800e8
2dfeea08
1d1cffeb
f7f62622
ecdee60a
0b2a3e0d
32001227
0c03f812
ee0af401
10fa01ec
1a290d18
eb011412
15f1cef2
06382af3
f8e908ec
fc01d602
e80613d4
ecdcf4f5
f105d1ea
0b010814
f2fbed0e
e8e2e8e9
f1e3f5f0
02f4010b
f3f5fbfe
e4e803f6
0efb1432
26fd131f
101b0913
cb1c1e17
f1eeccd9
0d1e14dd
e103e3ef
ecd0c3c8
e00e1b1b
ec04ff0d
260713fe
061c1311
cdf00104
09d61b04
04ecd41a
01deeefd
03f4e5dc
fff2e9d8
ec15f4e7
e8e91df9
06f8ed03
f1f106e1
caedf3e2
bec3d6d5
00ebf7fe
f30bf0f8
041e12e3
21021519
01e6f10a
0ee6f5f2
f8e3f3fe
d3f9cdf3
e4c22ce6
0f040403
0d060a17
18e9d302
d0d11ce1
e3eacff9
f1eaf9f0
efd9fd15
e2e704ea
eff6f6d1
eb1bf7d3
e601ee05
f7ffeeff
e5e4ede7
f6f102e8
f6f8ecec
f80007f9
0bfafcf6
120bfcff
03f21dfd
f90017f6
f0efed0f
e9e9f5f0
0cf9edf1
faf214fa
e3fd071a
ecdecbda
fb050317
06f5f9ec
fefd0ffc
effb0915
f8faff04
0cca00fa
dfe21cba
fc0201ee
0f1e04fa
251aeaff
0a070c10
05030508
0ccc11fc
de3d1004
04e9dff3
05050cf6
ff03ee0a
1a0302de
e7ef0e2a
0bf1da1c
deca0c1f
f613ef44
fa16daf0
f0f8f610
dbebfcee
fd0e120c
1c22f1e2
121612f2
cafc04ea
d90a08cb
d5d8dee2
ffeaede0
0cf4fced
01ccdb46
d8eff5f8
ea107126
e2c7ca1a
fd15311c
1d0d7f40
12fff451
eff7e9f3
25e1d6e5
01cef309
ecdce124
d6c01019
e2bdae24
ebefe7dc
f60ce6dd
f8df29f1
ce141f15
efee06f2
3215d8be
e633edd6
c3e13509
e4a6bce0
a4f5c9fa
f8c8c38f
e1f61cfa
32f7ff1b
2a1dd907
055132c7
0835450e
2bf02b3b
f4fcb423
e9f1f8c3
f032090c
17030135
070e170a
f3960c15
1cf1cd28
e71dfb1d
ca0ec3dd
cbb3e2c0
d900fce7
d9d2f6ee
011416f3
f9f301f2
14fe0807
0618df15
edfdf2f5
beb8cfbb
dbd4a0b5
00feecf0
fd15f3f1
f9e816ee
24c6af0f
27050afc
0521101c
e51f0dfd
b1ddc1d2
08ed11b1
dbf2d6d8
aaf6d6c7
bacff6ac
f0b6bef2
30f1c8b2
3d31dc22
053e18d2
2314061b
d90b0efa
f906f8ff
17e9fdfb
0ff1fff6
fcf50204
cc90dbff
06c5cd21
c6cbc307
c4cf0bfa
d1b9e5f2
08dcf007
10fa1203
0102f91d
eefef200
1c0ae8df
fff01405
4ee8f3da
1a402931
0d181d15
0403f700
f5f80cff
f801fb07
fef3eee9
e0effdde
04f51303
f323201f
f80e04e2
2a101017
13d5e6fb
0044d5e7
0c0bf7d9
fffd1cf9
ff0cf3f2
f9fdf1f2
0b08f1d3
fcf90b0f
fefdfa0a
19f2090e
eb09f90d
05f8f806
0efaf50c
1407f602
0ff7d314
1c1dede1
f116ecf0
e8e915e3
2d08f12a
ecde0004
0d0100f9
f3070a03
e70efcee
ce0f18fb
17fbf1eb
273bd6e6
bc06e8dd
fb07fc06
f1fe00f1
e604ecf8
152be3f2
f601f2e3
13030619
280d07d8
daf6e70c
f8fe01d7
59407f55
4a771f46
35444053
4d6e695e
81e5c212
cdb7f4e7
dec6c3b3
caaacfbf
fd07fe02
01fcfafd
fa0206fb
040609fe
0000fa05
fe0507ff
fb000205
fb00f9fb
fefdfcf9
f9fd01fd
07fefd09
fefcfd03
fe00fefd
ee1afcff
fdec1903
0bfbf913
ff01050a
f9ff04fd
0602fd06
fa070202
f8ff06fc
04fcfc04
0705f8fe
fe0301fb
fd0106fb
01fdfe07
020406fd
fe0bfdfd
fd0405f4
fd050505
03050503
fd020703
fdfd02fa
fa000702
0806fffd
fe020201
16f5fc06
fa010ef0
00e9fb07
252713f0
f70c031f
0c130c1e
10f40815
1213eaf4
0f1a0520
04120705
14172d15
f7000308
0703ff05
1df40701
1241e10c
fc110b0f
f0f2effc
13fb06ff
000d0910
eaedf6ed
0504f2e9
011304f1
fd0b0c06
0e0613f6
04171f0c
faf8f303
0a110405
fbeff21a
e7f1e5d1
1012140c
f6101011
fb06121c
02eadd02
16f7e9e6
f801e7f5
e70213de
01040104
f309f4f7
f9f600fc
f5f900fe
fafefbf6
0afff7fd
fa0405fc
02fb03f8
080107fa
06f7f5f9
0b020501
03ff0007
0201fe02
15ebfcfd
f220e9f7
fae31eeb
fcfd04fb
fdf6fe03
fef8fdf7
00fa0309
f9fef4ff
f2f902f2
0004fb03
01020303
0308ff02
fbfdff07
01fdfbfa
04f7f406
f70ffa00
fc07fffd
fd0a0b08
06060302
010905fe
fe090d08
f90500f7
03fafd03
e8fdede3
05f1e809
fefc0ef4
1ed9032d
0cfffa16
f7fc08eb
f9f0fafd
00f01d04
0a08eb06
def8eed7
0efc17ff
f2eafa2d
ecede3f5
160fe6dc
defe11f2
ebd90414
d1e0e7d7
e6e8e9d2
fbec09ff
f7f4fbeb
e50a0bf8
06ec0103
100bf30c
0517160c
fef30d10
fbf211fd
08fdf00c
03f7f0ff
05f40dfe
f70feff5
0ff90f14
160bf214
2218fe10
0e1207f6
f812f407
f6fe0afb
ebe113cb
e9fe240f
e2ea0211
fd04fffd
f7fcd40a
eb0c10ed
ecf12712
ffdfd320
fdf0ee0d
ea100e10
03e6151a
f7f30d01
fbfef810
321ffaed
0d5d0905
ed01560c
f706dce8
f3def4e9
e7eeecf0
ff02d8e9
00f1f0e6
13112111
2afb0e15
202f04f0
fb1f2bfc
fc05f8f1
030bec13
f5dffb13
14f9f301
2a04f2e3
fb3f2dff
16f64434
1705ed0d
1f21e8f0
ff16ebfd
fc0605e7
0312f7f3
0affeafc
030200fb
f8efefff
040eedf9
ff140f03
eefe1315
f3fff7ea
fcff0af5
fdf2fcfb
09f20803
f8f80304
f9fffafe
fc0af8fa
ff060a0d
13030118
f3f3090b
fffaf6f3
09ec010b
ef07f501
fcf9fcef
0404f6fe
fffc08fb
0507ff09
feff0403
08fa08f3
0a050300
00000000
fdeceefc
0402eef3
f01504ee
02f6fef2
13040306
090efc05
1916040b
ff191b0d
f2162109
e305140d
fa131b0a
fe25200c
f7e912fe
08fb07fb
fdfb110e
19ebed06
2201f815
dcf9dae8
e6f2ffe8
01fbf708
f3f8f4f8
0ddcf1f7
f310f3ee
04ed15f7
0dfd201c
fd060414
0408e6e7
fbff1305
04fffa08
e90b0a00
02fa0709
f1f900ea
f3faedf3
effc0efa
f5eff60c
18f7ef0a
1327edfa
0efc0afc
f8e50312
1c25e1f2
06161b00
f90bff01
0601edee
0c130c02
ff11ffee
05010217
fe0c06f2
d4fceaf1
f5fd07ee
0df1f7fa
060af3ef
fcf61011
ffff0301
01f41419
fa00ecf9
ff00fa03
f5fdfaf3
f2f404ff
1deefe0a
f01404ed
08fbfffe
0301f101
f102f8f6
01f404fc
0efd0006
f30bfafd
07f80ff8
fdfbfc0c
f100fcfe
050ff506
faf9fbfa
fff006ee
0606f201
0bf101f9
060ef2f0
08f91808
fcf8ef13
fbf2f7fc
eee80afd
07f1eb04
27070be0
0c2009f2
1a14070f
0b30efd7
f412ff11
f50421ee
f1041217
d00a0416
e8fe29e4
f2fbec07
def5deea
050e11e2
0f071112
da24fc0c
dac4f5ed
05e0c9e2
131afe07
e6fc0b19
0be4e6fc
0710eefe
050118fb
0600f309
f7f206ee
07e4e514
0c0bfbf2
0610f815
f90bfe0c
0de4fc04
e5dad8e6
04e8fdf1
24090204
fcfc0002
fdfb1bf0
fe08131d
fa05e2fe
f0140fe4
fbf9f1f5
181807fb
ea03f10a
fd1407ff
06040101
02110303
f000120b
03fd050a
f2f508f2
02fe06fc
01000500
fc04030b
fcfaff01
02dff7fa
1700f11a
fe1902fa
f703eef3
eef0eff5
f9fc0305
fc01ebf7
02eae6fa
f211f8ed
02f30cf6
0307fbfb
fbf701f9
0702faf9
0605fc0c
fb060608
04f9eff0
f3fceedf
02fd0e0e
2217f8fc
041b2012
01021d25
03fd0705
f91006fb
fafc2adc
f01e22ea
e0fd0df7
e92ceaea
f613ece3
12080b01
dbfc0ef8
e6bdc61a
efed1712
f2fafa09
fded0bf2
f9f7fbf6
fcfcf4f9
ee2cf6fc
0e04e8f9
e4e1f4ee
f6f6f3f7
e2f0f3e3
e102f7e2
f6f2e7f4
eceaf7c5
e8ecdeed
14f2f1e9
0efa050f
fa050df4
f31af705
0f05f2f6
16e60b14
e5cdf40c
11cbf1e6
e4ec02f6
fffbe8d7
03eef3f8
07efeaf4
13f9f6f9
000d0f13
0f1e0fe8
ec0905ca
0c1316d9
f1331bf6
fefbd8f5
0608d5f0
f209fdec
f1fb0917
dd0a2815
f6f2e6fa
f0f9dfe4
fcfcfee0
01020701
feee060b
f3f2ecfe
0ddd0807
1a020627
0d06f624
f5fbf1e0
fe0bf007
11171104
09effbfa
02faebf3
03e40714
02e9ec03
0301fcf1
f6f9f0f8
2dfbfd21
42020d38
06faf41d
1ff11d1a
1de6fa08
2713f81c
fa0a0f02
06e90001
0afaeb21
fdf7fdea
fff607dd
0104f1e8
fe00f202
f5fdfae5
f4e9fee9
f1ede6f6
f2f40cef
e7f0e5f4
0400efef
17ffff01
02f9010a
f6f8f5fa
ca14f5f9
e0d103ce
19e0e2e7
04fefefe
f2f40905
0d02f0f2
1b17f306
f6fe15fd
0af5f607
1a0ffbfa
11141503
ff111a13
e6f3eef3
fdfff6f6
ee1709f7
02f406fb
0c1e09fa
12333b19
0a18252d
0c1d200b
05091e17
f7fff6fc
edf70efc
df0aca41
e01de07f
150bee28
f7b2121e
16f850ff
20fb0d12
fbef13ed
38121ad6
1f19dada
0dd91deb
f8e4fdff
f1f90103
03fbfe14
f41b00f5
ec0a29f7
18d1efde
1d1d0d03
edfd0704
f7f50e02
edd1120e
e60513ec
f1f60203
0310e505
dc1e04fe
defbf61f
18fc08fd
0dd716e3
0318f5c8
d52ff92d
001a12fd
0e3be0ff
07f70b1c
f32e0c12
0302fef9
07ff2414
1dfbe51b
faf6f8d3
051b0ae2
f1f403fa
0bf0cfdc
ff05e6e8
010f11e6
e7320b15
e0edf8f2
fbff0af3
ffeff2dc
f61ef7d7
080bfbfb
ed0307ef
1d1df5fe
55072526
e64e0600
fafa0af5
0003fdfd
fbf5efed
f90b11f8
ece8f201
fdf0eaf7
f5f6f2ed
00edf008
05efee03
0101e9f3
ffe8eaf0
2207280f
15f4f72e
f704fb1b
1def0314
f0dde302
fbec0401
f2edf9fc
000ae5fa
0df80900
07d4f006
d8e7d714
ddd9dac7
eceecfe7
f4f72cff
edebf2ef
022602f4
fff4f904
2908ef07
f8f62207
081c160a
f005fef8
00091808
070a070f
1c0f09f7
de0314f6
1b01190a
10221419
d4f7ddea
1feb483a
1b121826
d0231511
151bd0d4
f70207f9
e2edf104
080eecf8
eb020ad7
f0ceeae3
184cd6e1
244e610c
dcdecfe7
f4d5f4dd
f3ece5fa
fbdbc3e3
dff40509
38ffd1fb
22f82c03
0610185a
2d3e1a43
7f4a735e
3e357a81
9b61001c
f81c1643
81507a23
f2e8e8f9
04f90afe
f5ea0515
f6f8f1ed
09ddf308
08e9d725
09eadae3
110ef615
fb00f6fa
f90c09fb
f01cf3f1
e0f102f7
11f2f908
c5da0915
a2df11d1
facd172c
f20a09eb
efee0af8
fb2b0808
e8fa0ef0
edecf3ea
f8f60104
f317ebf9
0b0e1408
00090f0c
f4e20bff
fdefc217
00ecf101
fd0be7f1
0c17e9f0
feedece7
edf9e3ce
05e8fe0d
eaf2ec03
f1f21afb
faef0503
2e4403e2
dfffbd49
d6260cc9
ddacc124
0f0928c9
0109061b
fc04f8f9
231b3407
e8ee1112
18e3e422
c3cb03cd
0ae3e129
2a091113
f8140e09
1cc7e508
ef2910f4
dfa0b2c1
f447f92f
ebd7f313
05df1ce0
1013fe3c
0cf9131e
1350e0ef
04a120bf
3c2df1f0
11260c35
fe1403e6
11240f0a
1c1d2816
3ea3cc18
342e6195
d1eaa83e
08e7d4df
e21f14de
29d0edcb
d9fe0533
fa01e0df
181fe6fd
2a220e0f
ecfc0414
e7fb00eb
152421e4
231d1605
121a0916
edf2fa03
f80301fe
fd05e7ec
0f03ffed
0d140901
17090c0c
f4ebeb0b
e5f3ebe2
f1fedbdf
161b0dfc
031f1b06
fcfc2113
eef2f5fd
13f4f6fa
0d14fd0a
06fa0c00
0b041003
02fff618
d9e2f408
f9050204
fcfcfef8
effe21f7
001a1df1
080c0afd
02fafa04
07f1e9f9
040df1f7
f501f904
f3f0f6f5
161bf502
12050108
ef101411
f7fb08fb
ebeef6ee
0017151d
f7f1f9fc
030503fb
161c2126
eade0216
07fcf2d9
f000fbf3
0e15f7f9
f10a0fee
e4f1f6ea
170ce1e6
f9fff605
17100a0d
04091010
f9fdf304
fc0005fd
0803fafc
f7040607
070404ea
172df9fc
fdfe050b
fb0301fe
080202ff
031d060e
f002f2f5
fdffefe5
f9f1f311
0cdcdae8
08fcf710
e2ecf8f0
090806fc
f5f4f5f8
f5f2fbf7
f3f5f2ea
1209f9f1
0e0c1213
0701f7f9
07050d12
f6fdfdff
fd01ff02
fbf8f7f5
1308ff04
0a0d0f0c
ebf4090c
03fee7e7
f41612f0
1b01fcf7
fbff0416
fbfcf3f1
0900fcfb
0100f001
0d020d0a
02fdfc06
02fdf902
02ff06fd
e4f2f8f1
f5f8fae5
07020404
08080609
0d1e1207
fdf6130b
fafdf0fa
f6fa06ff
fbf6f804
0602fbf8
0e050002
f0fadfe5
1c102608
260cf613
e9092617
deeaddf8
fff5e2e9
09ff07f8
ff01e1f1
0e020500
f8edf2ed
f9f20e06
f30004fd
fd00fefa
07210d08
dcee21f4
01dbe5ff
ebe60306
01e7efff
ee00f3e6
e5f6f2e8
eaee07e6
e4faeff3
09f3fdf7
f7f2fd0c
d4f3fc00
010022f5
fefd0a18
fdfef5fc
faf7fdf9
ddf725fb
f61c04ff
0c0a0c16
eae4f2f6
ecebe602
04f70af8
fe0a15fd
01f2d8d7
13ff0614
18221809
0d060d17
ddea0a00
f5000cdb
fa232720
090cf2f4
fc0d0afc
f91a1717
f5ea1006
fbeff60c
f1fffbf3
19f9fcf6
f5f3e607
dfe5e3e3
f8ebf6fe
130bf908
fffd06fb
0afc1917
ee010118
05fafd04
0b02fcfe
ff0302f1
130fff00
1a08ec00
fbfaeb09
f3fbf6f8
f3faf0f0
fcfd05f1
ef030000
0101fcff
0a11fff5
0300f5f6
01f81417
eff3e702
000000ff
01ff0000
ffff01ff
01010001
ffff0100
ff010101
01000102
00000000
00000000
00000000
ff000000
01ff0000
0001ffff
01ff0100
01010001
00000000
ff00ffff
01ffff00
00010100
01000001
01000000
00000000
ff010000
00000100
0000ff00
000100ff
ff000000
00010000
00010100
00010101
02000000
ff010001
01000000
0100ff00
ffff0100
00000001
00010100
01000200
00ffff00
01000000
00ff0001
0101ff01
fe010000
000000ff
ff010001
0001ff00
00ff0000
01ff0001
00ff0000
01000000
ffff0001
010000ff
00010000
00000001
ff01ff00
00000000
00000201
ffff0000
0101ffff
01000100
00ff0100
01000100
ff0000ff
00000000
ff000000
ff010000
00000000
01000001
ff000000
00010000
ff010000
01020100
ea1f0bf7
0619d8d7
05f6f1dc
07fff2fe
103b08f2
fd2f1edb
f9050acb
ecedf5f5
f70100ef
18f8f7fd
1003ff19
15faf108
10f5ecf4
5912f4fb
35f7a957
0ff5adb0
13fdeae3
eeeee209
13dcfa0a
2016e80a
d4e1e10e
0cf70106
fefbf500
0a190f00
e1f30dfb
091de3ee
ee171add
f9060dfa
f9f70605
042008fb
ec1422f4
e7fc08f1
eff1f8e0
040202ff
f9f1def0
ea04edef
14e31d21
e20af4f5
0ef7f0ea
011401ef
f3e4060b
1b04e207
f81b10f8
f6f200fa
1800fe09
ed00ef06
25e6f6fc
eafdf1de
f8eceefc
ee0aece6
e4f90af5
fcea0209
260de400
e5fd16d9
0b240afb
0c02040f
e7ed04e7
f2f5f304
e4fbf8ea
fbf0f70c
f7f609dd
e420ddd9
16e1f5fd
1600131b
090eff10
f748e702
0bca12eb
04fe01db
0401ff22
f9eb0c00
160c0013
00021af7
012718f6
ece71c0c
e2fc04f0
f6f8fcf3
0d03f4fa
0e1e0bf7
fafa0300
1309060d
f2f9f910
ede8f4f5
defbebe8
0bf8feea
fe060405
f2f80a07
f8f0f8ec
ef0a0111
eee7dee2
0cf8020b
07ebe7fb
f807f1eb
f5fdfaff
0b000806
f9fe010c
f9fd05e1
14ebf4f2
f30706f3
faf4dae4
fef7fdf9
0a01ff0b
0906e903
fc1505e8
e7fdf8e8
ece80aec
f8f2f3fd
f2f0fbf7
13fb0904
e8f7f6ea
03fd0d04
ea07ff1a
f5fb1901
0c0d0919
fc0b0b05
ede6fefe
02ea04fb
0df3dc0b
19ebf403
ff12e6f1
0002fbdc
f607fcfd
f2f7f5f3
fb04fff4
12ff0ff4
e0e1190b
d9e3dee3
1ef90509
f20ffdfc
0102fee2
fb000206
f60901fa
f1e91500
eceefbff
e2fcf1f4
f3dbf9f4
f91110fa
0cf50c11
1703e804
f4f9fecf
e8dff1f8
faf601f1
f7ea0115
e6eaf3eb
030415ee
db991f30
36d4f9d1
be97b837
3b772cc0
1300f22f
f8f4e2ff
131bffe4
f5f7f816
211bfe03
e219eefe
342a2329
