56574230
0004285c
00000000
00000000
ee242712
ededfff3
1c1f0efa
f5fef5f2
100afcf5
f7f3f70e
fff2f2f6
00ff0000
01000001
00000000
00000000
00000000
00000000
02040000
f4f139e5
03f2df35
d103070c
05cd1315
e50210f2
f2f225fc
f8f3031e
0df3eaf3
dcec141c
f4f8f6e8
ee1e3a1f
eef2ebdb
1c3020ed
08fdca13
f70ad055
12f206f6
ede360f5
e5ebf8d6
003ae906
070e07f2
05020c1e
06f50702
e8f9f6fa
d5f9e1cf
050c09f7
0efbfa06
d4ee03f1
eef9ebde
040a0301
76270c32
16390d2d
e91af70b
b9e9dcc5
f9e50bde
01e0b5e1
0c04eed8
212a0b02
01132716
0df9fe02
f605f905
ffcdd5d2
7ff12044
09f61033
ffd8b501
3915f2e3
fddd1434
09e6c202
f91b0006
eeed0ce9
2df30115
f418e3fa
edfc14f4
18dcf829
0000eaf4
00000000
00000000
00000000
00000000
00000000
00000000
020d0b00
ff0d290c
ede80311
f007f1ed
fcebf3f2
3f13ff18
f510f517
f005f207
f50aefcc
0ef40908
09f8cff2
fc1109f0
00ddfe15
f806f40f
e4e212fa
19f4f92c
dd1bf0ef
f4fb39e3
19f4eb17
f338f1de
eafb1bf3
ddc6f3f5
fee6d0f9
0e0f030c
faf80409
150b1ef4
17ff263e
10070a0b
07f8e605
fc0607fc
f4dcfb0c
fb0c0307
d0ebf9ed
05faf9e8
3f2a0028
28454c3e
3d003b38
7e37407f
333b0022
3a280a7f
3300253c
d01e25ac
f5fa03ff
edf3f7f4
000000ee
00000000
15010000
f715fae9
f2010ef8
0206faf3
f80402f9
060df3fd
150510e5
f10f0d07
f5fd0509
e7effaf6
ede4eced
06f5f1ef
0a08120c
01fdfd0f
090dff00
0a0cf00f
f3f40ef2
05f4f010
0000effc
00000000
f3000000
ebf4f7ea
03f40102
21f91319
eefbff1c
0206f3f5
f5130ef3
090506fd
fff7ef06
04fdf4ee
0113f6fb
00ed03f7
01fdfbf9
fdfe0100
000000fd
00000000
fbf70000
00fefd01
fd060503
0b040204
0a09050b
f1fcfdf9
10fffbff
0101030f
fd000104
1205faf9
0911020f
0b000bfd
11081213
0605fc11
0af9f7fe
0f130601
fafcfb12
f6fdfaf8
0000fff9
00000000
ff000000
fdfefdfc
0a0806fe
0a0a0707
01030a08
01faf805
0200fd00
0f0efe00
13100b11
01110d08
02040301
fcfafc03
fd020503
f3f70300
000000f6
00000000
130c0000
f11108fb
01f6fb03
0f080202
f4f4ed0a
24f71efc
0a12e8ee
e6ddd9e7
0503f1e1
fc012812
edf104ec
040a0709
0e02040b
ebf4f307
f0f8c3ec
360e0ce9
0905fc38
f3fc05fd
0000f5fb
00000000
f8000000
eef8fdfd
fbfbfef0
f4f9f106
0804fae8
02070019
f90400f7
11f9fefd
fa0bf904
10dce4ec
dcf7f8f9
0d0206e4
fffffafb
060703fc
00000002
00000000
12f40000
fe17f203
010809fd
ff02fcf2
faf90309
1e05fc03
f3ff00e7
fe0a03f8
09fc0a07
eeeb0007
07eeee01
fe1807fe
05ff0dfe
170f0b17
0df7081b
00fdeffd
f5fafcf6
08fa0208
0000fbfe
00000000
0f000000
f615fa00
f5f30df5
01fe0007
fe06fa00
f0ecedf7
e0fceadc
f7f902f0
f9f8fafa
06000005
f0fb00fa
f2eefbf5
0401fafb
000af9fd
000000fc
00000000
f0ed0000
09f4e627
02e8f8f9
f3ffedf4
f90304fb
0024f5f1
d506e506
fefefb1a
f3fe09ef
ed1cf1ff
b8fb39b9
10e7ff2e
ec0fd1e2
0c1c26dd
e11431ff
d6cb18f3
ffec0203
0afbf600
0000fffd
00000000
f3000000
f8ed1814
0ae9d80c
e8f2eef8
1005fbf8
fbf710f3
fefae6f0
eef80bfa
e1ec06f0
0aff0c0f
f7fff3f9
f30b11f9
f6070b04
f5fafcf7
000000fd
00000000
f3f00000
fee3050f
fff5e90c
05fd0afb
fef4f608
000beb0e
0ff9ffe5
f0fcf201
04f1fbfe
14e6f5f8
2ce8b445
ea15eec3
f6ebf7e4
05080504
f4f41208
f41bd4d9
f307fcf6
eff101fc
0000fef9
00000000
03000000
f0fff4ee
01070df4
fce8fff5
f104e8fb
03fdf6fa
0306fdf9
e4f903fe
f4ebf5e2
0d140f09
0bf71613
16f3eb13
0e00eff1
06fe140f
000000fe
00000000
05f50000
ef05fcfc
faf31d04
0f11f602
04f3fa12
f1050c11
fa09f8f0
fe0af513
f2001102
f80ae807
07fe0205
0004fafc
0906fb05
fffcf406
fceef8ef
0907090b
f818020c
000412f7
0000f706
00000000
06000000
160d0507
030f060a
27f832fa
2e052837
ff11effb
faf4110d
fefdfc0d
fcfef907
e9f7fdfc
3419e912
e816f41f
08010308
0803070a
00000005
00000000
f3f30000
fb05f812
f7f91204
06f8fffe
f3fcfe03
0b0110e8
fd11060b
fb03fa05
fcfb01f8
1a15fd04
ededf30e
01e9dde4
fd05f0f5
02070afa
d5f8f0f0
f8fadec8
ffff0608
03fdfd01
00000003
00000000
ee000000
02f6f7ff
060601fe
f9fcf9fa
08fdfcf8
fbf51105
07fef90b
e9e40f02
0009fee7
17081408
f9fb1717
eef8f1fa
05fd0f08
0af9040e
0000000d
00000000
d6150000
25cb2b08
f6fc0904
f8feff21
07ffebf2
a606e403
d225d956
09f5fefc
f212fef8
00f603f6
0113e00b
0808f3f7
171bf20d
f2fbf6ef
011d0dd3
ff270cf6
04e1fdf0
e410ebeb
00000a02
00000000
f1000000
08ea00f9
f70aff03
0607f90c
0801e7d4
faff04fc
07f4f637
020bfee7
fa0e0ee2
e5f00e00
d1f60afe
17f8f40a
ef06f5e7
e9ff04eb
000000ec
00000000
1bf60000
fb11e9fc
1e12ff09
fef2f6f9
0901ee08
5917dafe
03efe5cb
0812ee11
f5100ef2
fa00f4f6
ebf119ff
02f10412
f4fbf5f8
01fe02fb
ef07f1f4
0ffc0908
edf4eefa
f5fb1402
0000f5f4
00000000
06000000
e21c02ed
fef813e5
d8f906f1
0efb1513
fdf9cf14
dc02d7b2
fd01f4e1
fafc1202
ff04fe1b
12dd070b
0e05e915
f8fc0700
d2d00605
000000d9
00000000
0e030000
f811f5ef
ec1ef90f
140ce7d8
0d0510fd
040c3a00
58fd0181
ef0afbf5
06030608
01f606f3
0ae5f51e
fc030605
fffdfdf8
f8060d00
0e0cd7fa
f9ff0718
041503fb
fe0213f5
0000050a
00000000
0c000000
e4edfe07
060814ea
0afc0307
d5f6eb11
0cff01f5
0c0609f7
10130afd
f2f1f2fc
f401f901
16f500e7
08f0f7f6
05fd0206
f709f1fa
000000ec
00000000
faf60000
26f80b06
0c0ff40c
f6f6f105
04050efc
0003fdf4
1bddf73c
f9f6ff0d
0af7fb09
3f480107
d215240f
15bccdd8
eff10e12
fbebf1ff
07e6fffd
08e1ef15
09ff0817
09fcf10d
0000e6e1
00000000
ec000000
f8faeee2
1d1e05f4
e10002f7
f4f000e6
13f401fc
0702e9fd
f9e5f2ef
09f5ed0d
1302fafa
fa06ff22
dbe509e8
10f2f3f0
1f120818
00000014
00000000
e6f60000
10fc0008
fa0405fa
c3d3f9fe
eee8f5d0
00f222fe
e4e9142a
02020bf2
fdfa090a
1e0df602
050c030d
03f6e6ea
edf3ff00
fbf2f3f5
01ee04f9
f9fcfafc
0cfaee06
0c06fefc
0000f802
00000000
08000000
0b03fc14
e0e4e3fa
faf2e1ec
170cfeee
eef41a0a
f1efe604
0a0b04f4
010e0f07
f3eef6f3
f201f4ec
101109ff
f3060804
fffefcfa
00000001
00000000
02070000
fcf600f0
150af3fe
231d171a
edf3f51a
15f1e7ee
12f41a16
0101fdf0
fffd04fd
f9fafe05
fe02fcf5
f7091709
0503fafd
fafe02fe
e802fcf7
160802fe
f600ff11
faf7fbfb
000000fd
00000000
f3000000
0c07f4ed
fd07ff0c
f5fdf8f4
0a02fe00
fd0df805
07f70a02
f3f2f3fd
08090bf3
03090f10
fffa0804
070a06fd
fafdf3fc
0d16faf2
00000003
00000000
06010000
141e04f9
f2fb11ec
e5fb0401
050111f7
c9fcf409
fe081444
060b03ef
fffa100f
e1f6ee01
050e05e6
e7121a0b
fce71df5
2702ee27
41d11337
f0e0d3fd
f9f7f806
0afde000
0000f4e2
00000000
fe000000
0ffafafc
f800f304
f00df9eb
f7e001fb
f7f80402
04f0f912
f7e4f700
2601d919
f6190ff1
0613ef02
ec0a11ed
0008ffff
00fbfefe
00000009
00000000
e7f10000
dff408ed
09e20dfe
fbfff601
fffe0b00
0ff50b05
f1fff7ea
0401f3e5
fdfdfdfb
f8e10505
1dddd12d
080fe4e3
040ff5fe
f6fe06fa
f416dad3
ff2811ec
f9fcf8fd
f300f3fb
000002f1
00000000
07000000
fd07eff5
fdfa07fa
fc03fbf7
f901fef8
fbef03fa
00f9ef09
ef03f9f0
ddfa14de
f2e2fb08
f6e714fd
fcdfd814
353c385c
437f3237
3f584649
4f36573e
fcf8b8df
ea811c34
2a5e5171
d143c63b
f5e6e7f6
07fe1615
f7fe01fb
0df4f8f8
fa080709
0f3b20e9
07f0faf4
0e1a0efe
faf60703
141d180d
edf5f0f9
fbfa12fa
f41108f3
061ef3fb
e0d5e916
fbfcfa0e
1d0efb1e
fa010505
f2ea1728
11ef0ed3
12e50407
e7f31112
b3d80e03
2f57f9b2
e9061315
e2fc2d0c
ff0bfbe1
07303e0a
d2fbf7fc
f5fbfcd3
11090efe
15083a39
f0d7fcff
f205040b
150be1eb
fcf4fe0e
f1fbe815
28fe000a
1608fefe
f50900f7
010900f9
061f1508
fff5fff7
1400f609
f1f80df5
07f103df
0bf50ef9
05f8f6f1
ee130fd7
c00a0a17
f3acfb08
fcfebffb
f8f9f1f3
12f10205
4b04e3ed
e00e6188
ea140a16
08ae43f4
f01cdb1c
ca2af00a
0b0d0209
c42005e3
16fd0906
18f5f70b
e311f5e4
0c080b04
0fee0205
e3f10e0d
2fd8f2ff
091a05e4
1cfe0407
ff0d0cff
00f3c405
13ebf7de
070b0c29
f8050604
e5e005fc
ebf0fdf6
ecedfaf9
09fdf5f0
f31704e7
121d1e08
021be10f
14050808
fb101e18
fe1e0911
f0e5051b
11dce4e0
09e8060f
20fef906
f4f805ff
d9f019e9
f4e3fc19
0fb3db0e
de04e33d
c1e80308
f8eb3fee
e704320b
d3d91026
e415340c
f9ff2b15
0cfdd52b
fa02fede
01dbf0fb
1600080f
0ee5e81a
1203f0f1
1111ef00
ca0416dd
f4e71a12
fefcf7ef
0c0f0c02
f2eb1b18
0400ebe9
020b02fe
02fcff05
0cebfd07
0bec1101
eef6211f
fa1b110c
f70221fe
f4efed0a
d0d3dae7
05070418
fe03160b
10191108
180cd006
29efdaeb
d72219f1
f71223fd
400d30fb
0e01c50f
03f2dbfb
1e03edf9
f813eb06
e8fac7d1
f60fc7b1
070503f6
e8d9d0d9
eedcf7eb
f6f0ff18
10eb112d
01fd0610
0307f2f1
11070fdb
f702feeb
faf7f704
0700fd08
2cf90406
f1f00de9
050100f2
030e0303
fb0aff16
f00ef922
e1200012
200eeafc
ea0ff91d
fef0fdfe
1c1f18f1
f3eff1ee
f9f2f2f2
e00df9ee
ee15f700
bb23ea54
ea010336
0338edf1
51f7d121
e296fdf4
09fe72f3
f8f0f608
01d819eb
dee5d8d2
0018ea17
01e8060b
e4dfced7
e3fddc16
f823fff7
f31cdce9
17160327
090fd6ff
f5e7e6e4
3bf93320
0f15184b
0b080c0c
0e080f0f
fc0f12f7
f3f8110a
faff01fa
fafafdfb
0de8100c
100ef10e
0c02deeb
d4200be4
f9ff2302
05fefe08
01fff7fb
03f8060b
0206fcff
fa0e040f
e5f1faf6
e9f406e1
17001321
03e8f40d
0b06df14
1b0d0dfe
e8010a0e
cbcfebdf
f9292709
dddcf6fe
f6f3f3cd
0afbfd00
05f2120c
f609ff01
e4001009
0bff0df3
090c0613
12050e02
0a1a0c0d
f2f7f20a
faf7faf7
01f8fbfd
fc0104f2
0e050d0d
fc050204
08fd0409
eb383918
f7d33817
eaf7fc18
0ef10304
07f6f507
fd0efef1
12f705fa
0718fd03
fe0301ff
0f0efb0f
19f7f70f
06fc010d
1208fafa
f4f50afb
fe00030d
e4f5f101
ece0f5e0
fa01f1f3
02f8ef01
060af4f9
e7fc0a02
fbf2f4fd
03fef2f6
12f4ed13
080ef5ef
0e0ef7ff
030208fc
f9efe3f6
e5feeded
e2e7f2fd
efe4e7ea
0103f0f1
012814f7
24fb13ff
f311ed0e
c6cef0d9
ac5626e0
b3a855e4
eb083214
24c50145
ea03d8f9
02f30bf8
faf3eb06
161bdcf4
0c0c07f8
07e8f703
ffdd100f
0d0e0316
0d0b1f0b
0c0bef0f
defdfff9
c2fa1115
e6e3fac1
4b4c2015
16fd01f8
13120b15
f70c0f04
06071404
14192224
d5ec38f4
f8d9cf03
0205e8eb
f00202f3
feebfd0b
efeffcf0
ff08ffe1
0707130c
0415010c
f3d9f9f6
0803fa0f
fe00f2e5
1b0cf111
22dbcaf6
2f150d1f
eedce8fd
0d1008fc
fcf12439
060a00f3
17fa07fb
16182b18
1010121b
231a0cf6
ee1ed0f2
f6fd03ca
09000d11
0d01f30c
02edff05
0608061b
22ed071d
0e02d930
21fe01f0
07111e2d
feed05fe
04e8f90f
0df3f4fd
5009b508
f920f0b4
fa2a0d03
0b001307
e9e1f3f5
f8db11fe
0a060404
fa00fbf8
f60000fa
0408020c
dee4fa04
190005f6
091d1b1c
05fe0cf5
fe021027
f0fb1d09
df1b05f6
ff200f08
ece4f7eb
ebe5e1f6
fafff3f9
02fcf6f6
40de111f
d324d9e6
fdefe5fc
21475334
fd13102d
11f4d3fe
08f209ff
0c270005
edf810f2
0d1714e0
0111fc0b
edfb0fed
e9f0fc1a
0307f9f0
d6ea05f9
14ff0906
1f12f10f
1a12fa1b
ebf7f0ff
10ed1102
f8f6f20d
04faf4f3
0ee80c09
14220024
fe0c0dee
13110209
e1f813f9
061dfee1
effae515
f5effce3
0e1ffef8
e7f7fc08
e0c6cffd
f0ffed09
03fb11f6
e9fcf309
ffe61bdd
dbfeeed7
16ff0546
fd053120
d60cd7f1
4714e1f7
fcd4f9f0
fb2907fe
06f0f7ee
0b112113
e915c6eb
edecd3d4
f30b090b
2411f2fa
eae804f6
ed1cfe06
f8ed01f1
e3050a03
070500f2
100a100b
f6f5f515
0a070606
1c180a0a
001510f7
edf3e7e4
02fc02f5
0500ef0c
f9eb0919
fef404fb
1d13fb13
ee04ebf7
efe4dad3
ebfcf1de
05dff2e8
3a23f810
e1ebe723
f6eafef1
ebfbef25
07f5fce2
f2270500
0ff20600
fef3071a
10f204e4
d1e40907
f7d8dce4
f802fae7
2119050a
19282018
02363b24
f9fd100a
ec1e22d3
ed21150d
120af709
e6eef503
f7f4fd04
13e6fd0e
05fefdf2
fb0600fe
fbff02fd
f5040af9
faf2f5f3
12f6eb0d
ec0f02e8
01edfff4
ef1400ed
fffa0510
0902f8f6
1102fe05
0d11fc0e
0525240f
fcfe0cf9
f6f4fbfe
2a0bf71a
c1f932cb
cbf7fd1f
10de3b0d
f81cf128
f508f9f8
fdf407fd
e21902dd
1df90416
0114eaed
ee2106ea
0205000a
f1fef8f5
f20b03f9
0ce81efb
060ffaed
0509f3fc
eef0feed
f2f1cef4
0bf80314
0d0b080f
f501faf4
e90801f7
fc03f6f7
f70f060f
16ec080c
0f0902f2
140838f3
e1d804fb
1600fb33
f1122708
cd0ce009
c6a2f109
fe1dde2d
e108e10c
07ed0000
f3f1ee18
17e858e7
dbfa0cd2
e89f1e0b
c4d4fb13
e37f09e5
dcf4e9ee
e80912f9
fd0ffe16
f201260b
e4e30fda
00f8f505
1ff1031d
f00adbdc
280403f0
f7e40805
18fe1b0a
0d060314
03e3f205
2d0dff11
e7e5e10f
f6eceae6
0400fefa
f13b24dc
fbe0312e
100e0709
12040410
fbf62009
ee0cf1e7
332716f9
b534fdec
090a0dc7
dfe1da07
22eef3e8
221ffc34
f4e2e703
d41301db
0ad14e14
f8edf827
e403fdfa
03f2f2f1
0b10dff9
50081406
f353031d
cbf223c3
00ff0806
0600ebee
04f5ee03
07f7fcf9
0528e7f2
98f142b7
ebf11619
36d70c27
1912e445
0810edf1
0c180402
01010405
0b00050c
e302fe01
16f2f308
fb1a0bfb
1304fd0e
f50907fb
0dff0fe8
f804fbfb
01fbf604
07eefffb
1515e8f8
0211210f
f8ff1519
0a0e0003
f9fb0cf8
0ddae81a
00eb16cb
06241423
fd00161b
e301ecfd
ff0cf808
04f7f6ff
0419080e
e3ed0ef6
1eee0217
f514e905
f9f9fcf0
08fcfbfa
14f2fb0b
f3050bfb
01d20100
f4f8f5f4
18fcf601
5e767f76
5b484076
3a794952
5d656f70
1fe275de
7f8a16c7
e10c18d1
c2680522
1608e9eb
00111918
f8e9d1f0
ed01e6e3
28011aef
06190f25
00f50712
0d1e0313
e2eb13ed
eef20202
fbe6f5f9
dbea0218
f9eae6f0
f91803fd
dfee09d4
02efe0ed
00070709
ebf503f3
fdc8d61b
d6d6efd6
f913f102
060610fa
0ee00012
1f150a17
16091007
eefbeef2
f3f8eaf4
fb1200f7
0e0a0f08
e6ccde0f
f00904f9
d997e5d6
5e109c3f
fd232cd4
0afaf00d
e8f9fddd
0cf91e02
18120505
cf02e215
a1d808d0
eaf7b727
fc1ad5f9
1efa0d01
ff1009fe
1b17f124
e404af13
b72ddd33
0ae91015
060dfd15
0df71a10
f6f9de15
f9e1fdd9
f2f7fb07
edf60704
0f05f4ff
e2f411e9
06fa2216
06f50502
2d0cc9e5
ce1de3f0
1524fb00
e52512f8
03e9f716
d2e5b4e7
f0d9d9e6
0505f8da
e70ed9f0
0b12fa14
fcf40728
f6edfbe4
030afbd7
e51df105
fe03ff09
f90302fd
f40310f0
0108070d
ed0111fa
fdfa010c
0600050b
f7002119
f7010ef9
f40ef1f6
fa1605fd
e7d7dbfa
f8f3e5e5
1203faf3
08faef0b
11ebd9d8
0a06e5fd
ecf9e5f8
fdf7f2fb
f113f9eb
f3f30301
0bf1f00b
f402ebfc
0ffbfffc
f802050c
daebf8ea
f0edf9e6
fcf7f505
e0f4f2ee
00fc06ee
e90ee7f7
c5b80bec
cee6d9bb
19fb1d0e
fbff050a
02fffffe
d61defde
e4fdebc9
280508d4
fd13e800
daec0bd9
cedb0bfa
e7d1e719
080404ea
1720eb06
26e7ed02
f2050c08
2203d834
13ebe8f2
f6dfdff3
f2f2e808
e4eaf6f6
defb3210
fbe81f15
209ae218
43d8df5b
060ed609
05110815
2b2411e9
2a0e1f17
0708eafe
e8ed0c14
f7fc04e5
e82a09f7
dd001de3
35f502f8
36f9c4e3
20d8e9c7
1dbcd354
ebe1af11
eded08f8
efea0102
ecfce60c
11ea1cf5
e5f91a23
00d7db19
11e8f2d5
1422fc20
e5fcf93e
210e1c04
0c1a230d
0a13f30f
0c1a2ffb
0207fb0b
fffe07fd
eae2f9f7
04e1d6ef
ed2600e6
ccb4e1b8
5718d022
3ec43d39
a5fb96df
121610bf
f0f8f3fe
fdf7efe6
fe08fc08
0cfc12fd
e6eb0aef
04ffea00
ecf4f600
0603f4f5
ec1f2408
eee101eb
b5e9faff
32efd2e3
e7fc16e6
02e30606
d4e6ddef
b2d5d8e3
ded9d0c2
f9130de3
f6dd05f4
f4fddd12
f8120df7
33160a15
231e2947
dceb1511
15f7f7e7
fae8151b
021b2627
d5f30500
09f9e3e0
110ce807
f906f8e0
16f0e7f7
1008ea16
fffcf8f4
1e0af9f3
e3d5d825
d5e5bdd3
150b12c4
cdf6f500
d6d4d2e3
04d607e0
1d11f430
f4f1f103
f1f700ed
1f12f712
22fd1e02
17f2d71f
170bf92c
f504fb0b
e4f2d9e0
0aeaffef
f0ef08ed
04faeffb
0ef419fe
051a041f
ead6fb14
f2fbedea
e5061ee4
c3c5e2d0
cbc9b4c6
fb1c070f
ead5fa17
f2ebf1e6
16000e08
f7f3fb11
050406fe
1a000412
00180817
fbe00502
0cc0f3e6
1b1bfc26
15fbe6ee
f8020304
f803dffc
e1ebe1f1
e1f40204
170a0e0f
e4dde711
fe0fff09
271cedee
e6f5f316
dcddd3f3
24070b0c
18202228
12cec5d2
eef1120e
f7fdfbfb
fd180504
eb0420d8
f0b2ffff
da5ca82f
c70be5d9
d6b21819
f2d5f5ea
fce9dd12
09bbfa17
08f2df1b
ead2c840
1920f1fc
ff0d1814
deecf91f
efcfeefe
13f2f40a
072505f1
0212030b
1a0ff0fb
fef916ff
f8e6f616
f23025ec
c4eecd08
1adfc7f4
0d08fcda
2117e616
020500e6
ffffdbee
daec0dc9
d7e014bf
0403a817
e7f5d8e1
12f506f9
0fee0ffa
f3f9ee0f
f52608f4
e0dbd2ce
09ebcfda
15f12afb
fa25f430
ec03e415
e4f11d02
1d0efcef
132ce517
ded8fa15
e8c4b1d5
b6e9fd48
090b0fd1
030d1216
0d0dfc0c
26272a24
ed07111e
fbe8e707
0f03e8eb
0b0efb04
e5f1100a
f8e7dfd1
0d0f21ea
0f251229
e0e9db1a
e7f611fb
10070c10
f6f9fcfc
0af2b402
f9fd06dc
0dff09d2
fcc6b504
0d0ef917
f8faf6fe
faf010fa
e6faf3db
f7fffce4
d1d5c2ef
c0bacfec
e32100b1
13dc11c7
16f012fe
120ae704
0bf0f043
22ecfa0d
2601e10d
f310f7e1
41eda89f
000a051a
120411ff
ecf5ef00
f4eff3eb
17151c05
ddfafaf3
1f240ff6
010afa10
040601ee
0e250cff
04f92004
dadc22dd
162b0fd6
15ede4fa
f00003e9
1601f00f
02030fee
080c0816
e3e50b30
082a4ce2
120df909
f8fe00ff
0505eafe
04e11606
080f03f8
e6f1fcef
e7dce015
0007f6d0
1a00340c
08fa091c
c8cdb8e8
e6e8a6bd
180404e5
262b1d0c
f3eb1dea
2af70fcd
1628170d
ecff1509
e1ebe2d9
fdf808ef
03021c28
041c1df3
f5e0f32a
d0e7deb7
4338eafb
f5e9f5fd
e9ece5f7
f40415e7
011117f1
e6fadfe3
0709f8ee
f9fbf409
04f4fdfe
f606f6f9
fe0a06f7
e0072afe
3a0defdf
e21b151c
13d4b9ba
f6f9ff04
03fdeafc
d3ead2ea
e603d6c8
f9f2d2dc
cbf20abd
e2daeef1
0fb6bbe3
0f18ec0c
191101fa
eaead9fb
3a04fcea
e804f133
1f0a1cf3
1c0bfb1b
0803f2f4
000307fc
05ff1007
0b1ef905
fc06fafb
07fbf5f6
fbf20818
e5f9f0f6
edf43204
05e5e90b
02fcd007
12f907ef
0a2df90a
e7f204de
c9f5d8d2
d7e6ffe1
ed06defb
eef9d3bc
0bf3fee3
f702f2fa
fdf30c14
eafd0cfe
04f50505
fffef402
def6f5ec
fe05e3fb
ebf304ea
fbd3f2f6
0515f6e4
f6fd0ee9
d7fdf2e9
ceee29e8
f101fefb
f9f21803
f9f6f4f4
09f20b1c
d9ebed00
e7dbf3f5
fceaec08
eedc3413
12f0f532
6ca3ba34
28319afc
f6f6f9d1
11e2e808
310de6ef
0e220103
e9211300
00e8fdf1
05f3ed1b
15fd0d00
0ff9091f
000afa1c
0ef90d01
29d3ef08
411bba1e
f614e1b7
0efcef08
e1fdf8ec
f309f9fc
f6fbf9f5
eb05fcfd
f5f40407
0606e3eb
f40515f6
f0f0f711
05050602
e9ecf8fc
f40204f5
fd000b0a
030f0bf9
e30b1712
ff01e5ea
0000ff04
00fd01ff
fe00fdf8
04020900
f10cfcf8
05f60901
0cfffa0e
e41efcee
edf911ea
ece7dfe6
f5fee5e6
09e20c0f
090bec0a
13352afe
210f3830
fb00ec25
0bf507fa
f90902fc
0a000a00
020c0209
27170d11
291e072c
0d0f1ade
f2fe091a
0c27d305
3bd830ff
f1e9f11b
edf3f1db
fe0510f9
04040ffe
18010609
fbcdf931
51d516cc
d7e4f832
eef7e4f3
ecf40cf3
eff6fced
13f9f0ec
0021140b
eeeb07ea
eb14f6e1
13031c00
031dee19
02ecfafc
2cfc0804
e10b2703
0d19edfa
dbe6d5ef
05e5d9fa
15e62cfe
040ce421
2d19eeeb
11f447ff
080ad20a
02e8e0e5
dc2901f5
07ec08f0
0102ee04
13050a27
e1eee9c6
feeae201
df16bd3d
cd13f2bb
fbdd10f6
f800f9e2
ee02ff06
02daf904
c81ec822
eb1c1909
ed0e1ee9
11eb0630
f602fb18
dee2fffe
28d8eafd
eb0c0afc
00e71525
030a15ec
0bf40220
eadadb03
cfbbbbd2
eade9edc
ebd2fb02
dce003d2
03e008fc
0ff4f020
21f900ec
efed09dc
dfe7f900
30ea177f
e206f1da
f3e704d7
0b0f1716
cf17f401
16f41adc
7041555c
6b606465
6e696362
70627f59
abed67b8
1cd3fca6
fee02f22
f2bb81ef
11f4f503
dbcff70a
f901fbfe
fcf71710
04010121
fcf1f0fa
f0f80403
353cf401
f81919e3
0a072b28
f3f41515
c2c7e9ed
52f81116
341c3566
1120152e
02eff4eb
f33803e0
fbf4e5e6
d7e2e6e5
4f36bbab
f30b122c
030823fc
4a1cf7e3
5e710f48
0efcf9e2
d9d9f7f8
3617f5e7
0301fbf8
d9edf5fa
f4f8e9e8
e7fef9eb
f90bfdf6
15231d06
092a0de6
f7f2cde4
cde9f713
16fcfb0c
1cf21926
e713dc0c
de12f301
fde5f42e
ebf3e2fe
08fdf7ef
02fafbe9
da030708
1a03112a
102f031e
1afc1cfc
d821fbf7
0b1205e5
fef607f3
07f3fb0b
812cf6fd
fbc8eb01
4310f3f2
e02d11d3
0ffc1c01
eb0926fb
dafae6fa
e510f9f0
17e508f6
552ce82d
cb2d1793
f1030f08
1ef03124
fed2d126
d9f7cbd0
d6ef02d4
32ed1b15
b716f105
e5e01bf4
30fdc855
fec1c6d3
070cc7e7
011913f4
fff11ddd
130315c9
120a0d1f
15f3ec07
2d0b232d
e43f382d
fecce6e9
f3eed8d3
190932cf
09e8edde
4630d5e0
10301913
ee17100d
dde00444
fbde2425
bddc3301
d018f70a
29d7e0e8
021cd334
1b07dd0a
fa1b1534
fae41715
f3ef1f1d
eb1bfe00
fc1ef5f3
140f3208
17141119
f2fe0008
e20bcfde
cac904cd
f8091810
1210e2fe
3dfbf520
def9e6e7
e8dfe7e2
e3fbdce4
fef3f90b
2910f8d9
0d0cf127
fa04ecd9
38321d35
0d1b3429
f5e1d10c
f1d501e1
d5eee60f
38ebfcf5
e1dd0439
f4ee1f0d
25f8131b
0314f8e7
071df0ce
2709d2fb
06f40c00
0f3c2307
f800331b
e0d8d9ef
0405e9e0
fe351f15
1b13cbfc
27370814
182c2709
001e0c02
d9dbdddc
3b00020b
d8db2027
0ce0d40f
00f50eec
d1df26f9
dd00f4d1
1b151412
01020702
2ab70a06
09f136e9
031609db
050314f5
de03fffb
0c0a04f1
0e0a1afc
f1eff8fa
e7eaedf4
04fbddd4
1302050a
f212e1e5
e80bfcdf
17f5fc2f
28ccf000
16f91bff
180ad3f4
e6ee2a59
ee49330a
0010d6f9
f7df0a41
fecf15e3
f7e512f6
fcc8e2fb
e7eb0d21
10030ffc
0cdb1e28
fcfef522
ed030e03
d2c4e5f3
fc1cf824
e20c2013
21ee4df2
fbca10fd
f8f8f6f6
1002fef7
ece91108
0ffd060e
eff80606
e9e7f0ec
dbe1e4e9
03f6060b
f90e17fa
140b10f7
110e1824
f70e1509
cbd6cae1
050ce8d5
232716ff
e6161421
02f21102
f4040100
00f307f0
fd08e8fd
2f0915f0
f71104fb
e5dcfbf0
08f9e6ef
00100df4
eee11411
eae9cfef
1118f9ef
1017120b
1512fb0d
de0c09f5
f024f6f2
080215f1
e72b0d00
dfd7ffe9
3ff1d00a
1df30c1a
2717212a
2cac411c
30368b54
e2f6f9ee
fddaf006
020ae6f7
3c0e1c1b
053ce927
f7d7fde9
1a021914
fcee3210
1ff1f632
f8ebe902
deefe2f4
03f403f4
5cdcfffc
1849d8fd
def7e7ee
1febdb0b
dbfee2d8
31fa0503
00f11808
decefbde
e4dec803
04cc0501
27dce72d
2b2a2d0c
0a134636
0ae8ff25
ecf7dbef
07fff4d9
0e040503
052d002a
38ea11f5
0919c6ee
e82cfae3
0c062308
e512ff08
03df17fe
f4fbec05
092a1ee0
ea133b20
fe01f0f7
f60713fe
1ef2051b
d0efdcf6
0101facc
0e0309ff
eee6f705
04130bec
0c2f3427
ed10f4f1
ecee06ef
06f1fd1b
e4ebfefe
0b270bf6
eaf4f5ef
fffe02fe
f507f500
03f8f7e5
02fffe07
f2efdc0a
f4e2dbc8
0807f5e1
09100816
fd080e07
f2dcfd04
140cf6f9
f0201008
edfcf6e4
d7e604db
180c2b2a
fb03f00a
05d8e9e5
f60e0ff1
eee42813
08f0e3f7
121402e8
dae2e7f1
ebd3c4e8
2bf31721
12111829
f71f2807
feeb0009
0bf500f1
23342812
e717252c
f1df07e4
ebebe0ee
351c1a02
2b20182e
eaf32314
11ffe5db
2b0e1013
fd082221
03e10108
13051712
06fbfd05
f609111f
deecf5f8
00eff9e3
e8fceaed
f3fefee8
d6df03ff
fec1f70b
f4fdf917
15fde5da
0e12050e
0e01010f
1036c7fd
05e421f8
f8ff0f23
16fbf211
e318f2e8
0ae73813
07270523
0011112b
0704f6fc
f1ef2af3
dfc4befd
fff2c0dd
f7e3fa10
fef8fb09
4768fb17
070c1be1
251b10ed
d6facdf8
e9ddbdfb
f42526d6
f703d71d
1cf9e1f2
fc3301c6
373eecf1
02f71104
0cfb1f14
17090227
f9d0ece2
e2f7c8e4
160afacc
d90a05f1
e5bef0f2
b7d501ff
02f0f913
e50b0304
28e31414
2318cefd
e4df16e7
fa0014fd
12fafe0e
130ff9f8
c9d1ec03
f8e4e3ee
f60a0106
ff050a0e
dedffb08
0d2920f4
01ec2a23
142c2010
f90af61f
264203fa
13ba07eb
110d08fc
eef9c9eb
01da1117
1e2b1cd1
02f0dc26
2635e046
fa0a22f2
02f91105
0ae1e4d0
e7c2cdd1
f4f3d9d3
f8ebf5f7
e1f3dce8
0ef6f2d8
221ee012
06fdf6df
e608ebf1
2c1b0a25
f1e5fdf6
f4f9eff9
05f802f3
e2e900e5
e4f1e6ed
f0e1f5f2
fd00fa0f
edfaecf1
04eee9f9
07fcf3de
1f19110f
e5fbf812
03eb02fb
02f8f006
0d1607f8
f5040efd
11f1f2ff
07f00008
ff0b0eed
01f72924
f605050f
25f4d6fb
fede052b
1704e818
051a16f5
fc01faf5
0ffd070e
fa020d02
05fb0308
02161e07
13061c23
07faf80d
ecf2f70d
f9dbe4e6
0506f401
f2f4fddd
1306122e
f8080b19
d948c106
f6031aea
21091431
fc0ce914
07edf6e8
17def20e
02e806de
0b0ce51a
0219f8ee
1a0702e1
0d01010e
00fb02f2
0efc0705
c914f5f1
b436eee2
05e7091e
1d0406f3
131c02f1
d2dff503
d9f511e2
0942f2f2
08281a03
d8fafc16
3212fdef
fc2724c1
e224fff8
fddf00e0
dcf3e2f8
ebdaeede
e214eafa
cdd616dc
09f8c7f3
de151e0e
d3d72717
fc0f0bf0
efd9141b
bc32f10e
0d0def02
f504effb
e30524ea
3bc0f121
340e0c46
2421021a
e207df0d
edeff0cd
eaececfa
ede81816
f30918fa
ffd607d7
ef190108
b52cf41c
f4e3dd20
e1f82322
3435fecc
f3cfddfd
eaef550f
e7ff02d9
bffc2cef
f213ee12
ccf7e8f9
1725eeed
03241e10
fdfa1d0c
fed1d6f1
c4f6c2c3
e4faf3bd
d6b6e0e7
0907c989
28dbe9ef
f0121e5b
19122106
1e100d2c
0114050b
12f0e808
0c1e090e
fcf90c0e
f8f7f510
200cf506
fa1b2dfb
f403fbef
0af7fe01
fbf6f9ff
15f5fbf9
f5f51619
e0ed00e6
f907160d
fc0ef7fd
fcf6fff5
fc182125
0717e2e2
e6ebe80f
fc0b1107
ebfbf3fc
13110ff1
fd0b0c09
fafbecfd
101002e9
e0fbf3d8
07e709fd
0212121f
e9e9f7f8
e406dbea
edf204cc
fffcedfb
fb03f200
10161112
f9370fe7
21012d34
08f50cfd
1fc80702
2410f30a
ed102406
fde2f916
deb5faf5
fff1bee7
1d271ce2
38492047
ffeecbf7
4a524e0f
f5291555
dad4fcd4
fc2af7f6
e5f20be4
2f090008
06f5ec0b
01ed0fea
1d04e207
1409280e
fb18db00
ebedf4d7
213d11e9
d2ffe908
15d0f4d0
0519f6ef
0e1f1006
faeee7fb
f309f5ee
2d1113fc
0227221a
f90202f2
51022114
ef2d1f3f
39505c61
1a7f2853
18574835
6319706e
3afde8d0
401124fa
665eea06
2e577f6f
fedcf8d7
dcb9112a
09f612b4
13fcf2e8
330e060f
160df3f9
cfd3d2f3
fdf1d8d1
284428ce
dd483eeb
30f9ad81
0a1f04ff
e91d2412
f304ddd7
f4f71b0b
0af10fff
0205111e
f0e4ee04
d31b0b0b
f8fbede6
f5ebe0fa
11fd10fa
edf61f0a
03292eda
ed0718e8
ddf10bfb
fd101ae0
02d6d1ee
ed02061f
e1caf227
de3d5427
fa09ebac
09160ffc
18fdf0eb
ff09fbfe
08f8fe05
f700f2f5
f5f0f90f
022004ef
41d32fe3
00dd45c6
0ccd12d7
f816db00
1fd5ed22
0011cbee
11ddf8d9
23f72fac
02fc06df
f8000707
d61800f1
e9f5f60c
0cc026ce
f60ffe15
0ee915f9
f0faf2fd
11000804
eb15140a
dc1cfd0e
f8e311fa
0ce005d3
101dd128
e1f519f4
14fe01fb
dfde20e2
e331f92a
080fec56
1fd854e8
0a021ce6
eb150b03
e5feee05
0b06e506
f70c1bf6
d5f80206
1ff6f2df
15d10e12
f02907d9
e7f1d51c
04ebe5ff
14f5ffed
ddf1fdfb
0be4d906
191914c6
a113b20b
080410f9
f4f5fbfc
fde708f9
d6e31dd7
22eefbda
ef09f815
10f1fefb
080600e5
f522f02b
15d6d4d5
05132fd7
dbece42b
e54fcd10
f5f4f720
fd0b0705
00f110f9
e925db1c
190a240e
d1e236f0
cf34c6ec
f916314b
faf8f7f1
fa04fd0d
fafaf7f0
0920e815
e1190407
00fcf7da
e1ec2018
16ddee21
ebfbe8eb
f8fbf7f7
faf31704
f6dc0506
ff00ed08
e5f2f8df
0df12601
fffa050a
0cf6f40b
e0defa02
f5f3fffc
02f10e17
0ceff4ff
0812ee09
1ceb0a15
0513f910
e3ebfff3
03c6e4fa
0819c103
f4ea1407
d017fc0a
fbdf26f2
0fe2d639
20f8ee06
e719e9ee
0c02edd9
fe132308
ecf705f5
10fefc03
010bfff5
ec04fb07
d6d9fed6
04101d0e
d80705d9
fbbf0017
f332a522
eaf42fb4
17cc0601
0814e8f5
f10002df
10100309
e81bee0d
03f80507
0600f5f2
040befeb
f3b71405
cb29d4be
2bbb1ec1
f4250d15
fcf120f9
f70c1508
1506030c
01d3fef4
dc3cdbf5
d5051704
38a8fcf6
0f0ccced
0dfffcfc
f505f9f7
3c0ebc0f
9819389c
fd0e1133
39040852
f8180f00
0bf512fe
f5f3dff4
fbffedf6
01fff9f1
f500f8f6
1ffef9f2
ce0df208
b3d052e1
0ef9fd31
ff37d0f4
1614fbce
eb3300fb
d60612d4
f8f90bf2
010d21e5
f2f8f303
0ffa16fe
d2d3001d
0df0eb11
32e5e2d9
0230eefb
f1112bef
f01d00e4
06e810f6
b7e91b26
2bac0154
16fccb05
0f0f10d9
070ce5f2
d90511eb
11eb1616
02dc1810
39e5c841
1a13ecd8
c21a36d4
e80d1f08
f7fe07de
e1effc09
15e41a19
fa0cf618
070e1427
fce1f4e2
d4fb1f0e
eaded818
061bdcce
fce2f804
f60affef
1f2f0919
0511331e
0e0bf4f2
081c2428
f0002b03
f6f0ed05
fcf4fff3
edf6e80a
f9f2f3fa
02faf2f3
010af703
04fb0106
fc05e8f8
d9e3fbea
f0d7d4d5
173bf7e2
e4ef0bf5
ebd9ebe7
fde019f2
02f8ed1c
07e0eff5
00ec11ea
e53a1e20
ece0174b
f3edf5cc
10fbe502
e2fd19fe
0708f5ff
f8f70bf1
e9f4eceb
fcfdebe7
02fffcfb
010b0801
f9ff0104
fdfaf600
fef1eae7
ff0a0608
142119fa
030506f6
e4f2fd02
0d180eef
0f25291b
00051212
f60606fa
dff006ff
01efeff5
f001f3f4
170a0905
17022b33
0200fc06
eceef5f5
f2f6edee
f6f9f6f4
03eef2ff
1f190109
151a181a
07030005
f6f7f8fd
0803f8ef
faf7f8fc
00ebfa05
fb06fbf9
0ff3f9fa
f607e6f8
01090fee
ecf7fc07
f8e8e5ee
e7df0103
00f2f716
e1e80509
dc020bd0
e8f21129
c2b723ea
cec9f1e0
fb0014f8
ecdf2306
f3f0e5db
1cf20609
feddff14
0e0200fc
1015fbff
07ec1817
09eaea2c
2fe3ca0f
210fd0fa
27040a02
eadbd0ef
1532dee1
1602042b
f206f9e9
0ff20d06
12f2ea32
eef8e3e9
0811e9e1
c9e4eff5
2be20408
0ff6010c
0e0adcf6
0b1c09e8
ee06fdf8
0df7eb08
dc0309f2
07ffe6ee
03ff07f7
0bf9f906
f7f6fe03
f403eae9
e1e9ebed
3723f1f0
0e0cff27
0adee8f7
201703ec
18261b0f
daebeffb
1913d7d5
0114080d
ccdef5f2
0a08e0d8
1a2b1cf4
ea195139
cfd1f308
f0fff8d2
02f603fe
0ef70006
10190ffe
f8000dfe
dfdd0204
1314fce8
05e90d09
200f1409
020c131e
f7fef3f5
d7d1f901
ebd6e7eb
f82f2d34
0204efe2
f0ecfc0b
16e60210
06dfc8ec
d4283c24
cdf8fdf6
03032fc3
37c9dfde
0a12c1bd
ef33c011
ce1a4f9e
fb23f9fd
05234d0a
eaf81ccd
bf27fce0
dbe13cf6
e8eff514
fae71201
f5f81108
13051409
f2060d06
111f0c01
beacc9e9
ff11fdec
e202643d
d1bce2db
f418f8f2
ffe72906
f3f0f311
25e3121d
1f242034
06211745
c1de3d17
f9f40eb5
0600f0f7
2218fdfe
fc02fc06
e4ddf5f0
0bfdffff
ebef0c0a
fbf4eeed
f5ecebe8
f6f7f9f4
100b1201
f40602f7
0906f2f6
14050910
0706070c
0507fbfe
070ffd04
ee071103
fdfcf100
0101fffc
fa120308
16fdf80d
f60cf602
fe02ff05
fd060600
edf10703
07e3e2f5
f3f8e7f0
f8f5eff1
03f6f8f8
eff9fcfb
f2edf8ef
0c09f204
f10b0cf4
f9f0ebfe
ede2e0ee
0c07f6ef
fb060400
03fa0400
1a180708
0a08fd16
f7e7f004
fd0f03eb
30c9eaf0
ef0ada41
ca22f612
ce3709df
d805fbb5
edfc3819
e1d80f28
c2a51542
a9f51524
0bf60f20
faedfb02
1dc80207
1809c1c1
eeebebf6
fbf80b05
01f107ff
01110714
f70510ff
3103edfd
12eccefb
fa03e40b
07e9fee7
14e7f613
ff02ed0f
17eded05
3c3ce7d7
3309dde2
38bdf3f4
e9b9fc4c
e6e3f949
110706f9
ea1f1d09
e7e7e5da
ff0002e2
e1dad7fd
f705d8ee
10f904cd
f5fd19f1
0af70dea
15dcf2eb
0fe52114
140511fc
0af103fc
20e332bf
3cac0090
03f5f8e9
fd080705
00fcf7ed
04f90911
0507edf1
ff01010b
08f7effb
0c1e00eb
04fc00fb
1408edff
c9e52316
e9d808da
f1152803
f505f1bd
e9fdf1db
fcfb01f2
fc09eb0b
e00af51e
f5e8340c
361140a5
f2f4ebc8
08111002
fb17fe02
10fbf8f9
f8f90902
f4cc10dd
2ceace00
0b201301
ff12ee23
f3e508f9
fc0b00e8
24131105
fe1b3342
c3c7c900
0909b8c3
94f61174
e9eb0bbf
ff0affea
f9eb1f1d
e803f800
e11205fd
240a0301
f5fefa14
fcdfd9d8
142a2813
e2f0f6f8
0d2b0d12
15340718
f0d0cfd5
f2fa2b05
2f131305
dfe9ea10
040ceff9
fdfc1f05
045920fc
00b6b7fd
e0033e1b
04dbedf1
f9362620
fbf90e1c
fee3dfe3
fcdceed8
fe19f524
f509d9d9
17f433fa
2f13defe
f90e2904
e2dad20e
1deb1505
1431150f
0ddb0525
08eb09ef
0f310c3c
13e0141f
ebe8e8e6
1be8e702
f004ecf3
0cf91202
040cfa0e
f707e91e
01ff03d5
0e3c230f
fcc42b48
11da9dbc
eb3b1c01
0adee217
fb0df8f6
fbf0f804
f40f0cee
f91ce31a
06e4bce9
1f313cf3
15bed720
06230910
22ebdbf9
f302eff8
00f5eaf4
436c6676
4b636c7f
6b745369
61757172
25cfd6dc
81bfdfc6
9adbcec6
d9d9bfd3
2a29582e
7a4f1a33
09f4ec3b
f6ede6f8
f6efeced
3323effc
08170907
0a22f8f5
f0e4f103
faf0f4f1
06010505
f8f20104
f0fbe70d
12f7f6e7
2c30010f
fb08fae4
fbfee9fb
f7fffdea
030cf1e2
00e9170e
072a060c
0a1f4019
00da0b2e
f81cfff8
f402e8e9
ddedede5
dfdceae3
1103e4f8
32fb152d
120b031f
f52a04f2
3b0b1e1b
5a7a663c
e4304d1e
08e91a29
3237002c
fd0cf6fd
fff5f9f3
ef23d1ff
e9f207e7
ec0bdeef
dd19fee7
c8e00420
308d2d20
283fbb2a
21f8f90e
ef0308e7
5fd62cea
2778ef37
fc055517
0006f725
f00f28d2
edf30bef
03f6f706
c81104e3
26ed2705
0bfc0a16
ec00f7f4
07ef02f6
f6fdfdfe
edcf00e6
f7eef3f7
040a01f5
ee04020a
e4f3e9f9
eff20e04
fbf0ec22
f70bd518
09d905f3
0b06ef17
fe0af8e9
30130820
16f5de01
010df42d
21fe00f8
1efb21fd
d8210b09
e2ee22d8
1e0d09ee
1510050c
fee9f11f
0efdf8d7
04091406
e3f1edf2
fd1d080c
f9fa2e02
d5fef8fb
f3f7111c
e8de0aff
e4e1e0f3
fe271bfd
f8e61f17
fd090b09
10030f17
f5fe001e
f544f4f5
0e201b20
f2fe0d07
dfe0ebf7
12f402db
4022482e
eb011928
f20a1afd
f1f920f6
c2fe12dc
0ad0feeb
ed12bdda
0df115db
0ce8cfe4
0d051b22
0b110f32
162df40d
e6de2a19
e1c2dd05
10f7e9f2
e3ef1119
fae505f3
e9dbf7e1
f513e4d6
031e3112
f1ec0a13
effb0b18
d2cbe7ea
dff0d7f8
0b04e5e6
0a161906
30faf7fb
38131b29
02fffb39
1a0700f7
fe1a3335
0035fbe8
e7271c13
1010e2ea
26323404
1c01231a
36081544
1f10ed23
f50de9ef
e9eff704
e8d6fbe5
e2dfd6ef
c0e307bf
e0d918e7
3e0df717
05ff2e44
22ee1507
120737eb
fef90bfe
fc0924ed
0d0e1210
eff523fd
040316f1
f8f9df03
15f2fcf7
f119f5fe
ee2806f3
dad802ef
d1dbe4dd
ffd8e3ed
09050603
0e100a09
ea02e0e6
02f7f303
01f2edfa
0afd0df4
e0d7ff10
f8fccdd7
13eddee8
20210f12
040a091d
f2ee03f2
23f41b10
41ff3008
1b326f1e
3b12561d
04cb0a1f
ea1d3c00
050fd5ec
cde40ad7
fd12160b
0805050e
01f9f3f6
0303f7f3
02050600
1400f3fd
101505ef
0925ec00
eff812f9
fb03faf8
02ff130c
f6eefa05
0005fa09
f1e8ffff
06f9f8e5
fbfff7eb
fafbf2fa
f1f8f8f2
16f3f60a
0310f002
eeeffcf2
06070d0b
15f7070c
1315f90c
14f70c0c
04ff1b19
f5f5ef04
f107f7ef
06f702ff
04ffff13
e908fefc
dfecf4ee
f80dfbeb
00fafae2
0dff01f5
1f08fefc
091207f7
01feed03
2a0a19e3
004c6044
eb02192f
0c16f6f4
121813f6
f802fefb
0afb00ec
644e2445
25417a20
f912f451
e93130fe
fff6213b
00f800fd
070af1ec
0afc130f
110af911
faf7f9f8
13030002
f6eaf813
0506f6fd
0af10300
02100e01
10fce8e9
12090e1b
02130704
151105ea
14203434
f0ddf433
e7eff8e2
110be8f4
f9f4eb06
0efff5fa
18f7fb0f
0907e110
06fbfcff
f4ed1e0d
fbfcff07
fcf9fafc
01090307
f9f6fc0d
f9f9ee01
0afc08fe
0f100d0f
dee2fae6
f1f1e3ed
f8e9fcf1
f8fae3f6
f6ff0bea
feff0400
2afb0006
33381525
21303422
f1fff903
f9f700ee
fd03eb07
121d2517
00fa2420
070c0207
f1020b08
e7ecf3ec
e7e0e4ee
f10d0e0d
fbf603f8
f0f4f906
fb08faf7
24080811
0a03f51d
1f0806f2
f7190915
01f31701
140901ee
eee8f903
faf105e8
07f0e9f9
05eff70a
ebf91c00
e7fcff0a
dedf04eb
00ebfbf4
f1d6d9f6
fd0fe3df
dfd00003
03cecdf0
f1f2ebe6
ed090103
ffeffa12
02fb0008
f6fcecf8
00f2f00e
070cf403
080c110e
1a272922
e2010d16
0e02fc00
f2e9f708
ecf8e7e6
dddbe7ef
dcdff310
d2eef1df
20140dec
00f30f1f
110c0007
f1fc02f4
ef020912
1214f3f2
e807f5fe
fd3212f5
19ff1e22
0a13fa19
e4141d0a
030908ee
fcecfeee
dc0b11e8
c1d1e7df
c7defddb
efd410e9
01e1e12d
f3ff04e3
e4ff20f2
0efaed07
1c0611f7
f312020e
ecf3efeb
fbfe01ef
09ec03fc
1b030213
070d0c03
d71f05e5
19fc3504
1b280d16
0cf7e301
fc0aebfd
f2040eec
fb0307f8
08ef1f00
060ee8f2
0d0d0c11
f0030916
efedffdd
010305fe
1fe9fb18
1ff5eef1
e6d5d2f7
e5e9babe
2f2afbfe
2d176117
0cea3d3a
5220d81c
0a1c1ef3
0809ebf3
011df309
f1f9f8d6
210af90e
dbe5e7e9
07e3ecf5
f9f5efe0
2bebdaf8
f8f31bdb
fef9f9f7
1401ec06
e1dee5fd
eed8c8d6
eae5e6f2
fbf8f3f7
13ed01fe
133c4608
f9ea3729
dcddf5f7
eae6e4dd
15bad0ee
e7fdcdce
140bf7d0
031b2213
ddf41d1b
ff07e501
f8caf8f7
fafcfb1b
20fbf30b
fef5f1f7
ebed05fb
1f1a13f7
05f91904
0105f914
f3f41704
f6efef0f
f5df0303
0d0e05fd
f304d808
f5f4f0db
e517fbeb
fde103f3
f7fceef7
f3fef8ff
16e60209
10101018
ff030008
05fb0b0f
04fe0d08
f4f9ec0c
030a0b00
f60b0d0c
0c0d0903
06fdfff8
1219fafe
f7fa010e
00fd0303
ebf60bf0
09fbf804
edf9fef4
3028eeeb
180c1826
d7f0fcf8
ece6fbf3
e5f3eff4
19021612
1a1312f7
ebfdf821
1206e811
faefffed
d7dfd6ec
09e5dff1
1501fb1f
eb0ff3f3
041121f3
380c062c
21e7102a
1dfee004
0d2a1009
e4e9f50c
fef0fffc
0704fafe
f8fafd05
11fe080f
d7e9e3e8
0f0dfbea
250a0502
adbb080f
9b81cba3
fcd4ccd1
07fcf904
f602fafd
00dcebfc
c3eebace
d904f9d0
0fd5d907
1425ee07
0b01eaf5
fb10ef03
efeddef8
faeee4ee
e7fd1e37
122619e1
ff12f909
0017e207
dffcf9ee
c5cfcafc
f8bedaeb
18110103
fdf9e91a
c8e2f8d4
dddacfe0
1507cfe1
e51ad7e2
ff0316f1
f7f0ef0c
ee01e403
fdfd16f9
0905090e
1a1a1701
1d0c3829
0e08fb20
140ff807
21fdedf1
0f050610
ec0605f4
dfda00ef
f3e8e4ec
1bfdf608
01f5d41a
ec2218f4
0e2bf8f6
d2d0f718
0bfaf2eb
fc07cde8
a5e407cf
cbcffdde
f8151c0a
f3fde4ee
f902fdd9
05ffff07
f017fdef
fef101e8
fdf2f4e9
090bf4fc
030203fe
ed0ff4fa
06ff10f9
f5f5fa0e
1efd0510
fafb0219
0a05fc00
130dfdee
1b191417
14181416
f7faf2f2
fbf8f6ee
f4f4f1f4
0d040007
f0ea120e
06fc05f6
0205050a
eae90403
e8e8e7eb
f30af6e8
0df80c03
fc0f0a0e
05070610
fc090104
021017f4
06eef6ff
fc01fe04
1b01020d
ffedfc0f
fe09edf3
fc03fd00
10fd2113
2803fe0f
172f121a
dc1516e0
24fb0105
03180426
0ff9f400
ec0703f7
0600eaf3
f41009f6
12eb1b0e
2e350614
e21c2311
f3f0e6e5
fcf8f1f4
0f0e1c17
02101209
030c0601
320a1c29
f7e50b28
0b0dedf3
000b0efc
02f60f0f
27231504
d5f5dff4
e2f2f6cc
251007fb
01141b0f
0cf70905
1302eb07
150f10fb
23031316
061bfc28
423e4e59
1f46117b
166f2f2b
2913617f
3bab8176
0f7912c8
13e6ac2a
1902c9d7
00ea02f7
2d091dff
f8e3ee26
1212fae9
eee63228
1902e9eb
13262a01
0b071c17
f7d7e901
e808f7f9
fbeefafc
fbf5fb09
0b02f4fd
ddcb100f
0effe2df
0551371d
1e1d090e
e2011a05
10030304
10091f0f
e3cbcf10
fa0ef2e7
ff0721fc
f60b1afe
06edfd19
0c100e04
fa050207
0c05181d
ebfef0fc
f2fd09ec
eef6f9f2
fb02efee
1b04fc00
e51d07f5
f3f9f9f1
f61005f6
b30fbac8
b8c2f3c5
202c140a
1f2e2a25
ceed2029
edd4d8ea
f800d6ec
f1fcf3f0
fafe01f5
eceee4e7
f303e9f6
fcf0f50c
00fc00fb
07040104
17fdfb1b
03132009
08f90a11
09100300
f7fcd9f3
f4fffbee
180df4f9
071b1a02
f1e7170a
faeee706
fa09fdfd
edf2fcf6
f6ecebf4
0e08150d
fcf2090f
e30712f5
03e40a15
f5fbebfd
fc0100eb
def90309
0be514fe
0c05fe1d
faf2f610
def4dfed
0b0cf1e5
13111403
f3061a1d
e9ecfbf2
efecee04
eceef2e4
00f0fef3
d6e9e0f4
e6e4d7dd
f1eef7e8
f9f2effd
e3e7ebef
e7f8ecde
fddad7d9
0af20308
fb03f000
06192917
0d110207
1f180b01
1820180c
f508180b
eaf4fbe4
f9f2e8f3
fdfdf5fd
f2f9f7f4
150c1cff
1e0e291b
1211fb21
fa1313fd
1106131c
1b17091a
0c0f10fe
0408fb03
f5f405f9
23b6d60a
ff439fe6
0f0dfcc6
0e2e1507
fd0d202d
e40b1fd1
0df6151a
0104f6fa
e9faf4ef
23f30123
1f27f712
02f7fa08
14fafa03
0703040b
0d011f02
fc062821
0214cdea
e0030fd5
eb0a06f4
f4eeff03
02effe04
1af9fa0f
fa040a1c
f8f20a02
07f1031a
f6ffeafb
f3fc05e8
f3150609
08ea1d11
fb03041d
f10c05ee
fcfd110c
fefc0303
ec070c09
f105f0e0
edfb12e3
fd121df4
1cdd2e0a
0c100f39
ef0dfb00
f8f7d8d0
f0f7fdfe
ffd9f4ec
171df5fc
133726f5
f3fde8ed
f001f3fd
2d2a0cf1
f01911f8
201ff8f1
15fc0332
ecdadedd
fd05e1e8
fe0d10ed
06eed7e2
0f21fc01
15170b1b
f31d110e
2512f5ed
1d02f307
fb0bfef4
0506e4eb
1a100bfb
f90c0202
0102f7fc
f5f1ed02
130a061a
12f5142d
19fbe520
0708f3ed
efe1f1f7
01dfdf07
ff080d01
f5f608fb
02fafff6
06291e08
2d042f1d
2c17ff12
f90404f1
13ef071d
2810fb2e
00f4000b
0df41208
1b272513
1c241e25
f7d21423
1df7e6ff
0b18f1d7
1518071a
f40a0dfe
e7ebdae3
d8e2e8ea
fd04fdd8
051afffd
efe721fe
1003f91f
fa100604
0e15dbec
011616f8
08000608
0b12010e
f606f2ff
f1090ff2
05151302
092525e1
fe382f13
091308fc
0e03fd01
fb030401
14ff0a0e
090dfe15
f9251103
fdf61118
fb0f0af7
f8081c26
e8edfaf8
eeeefaec
e907fb01
03fb0ef0
ebf700fd
15defe0e
ff01e0ff
03fe02fa
030a0205
f4f6eb05
f7fdfff1
02f9e7ed
ea02f5ec
f1e2d904
cfe4c9c8
1900e5d4
08090111
ecf0f6f8
edcf13ff
13f5d313
fffaf2f4
ef06dfe6
f71224e6
41291f50
0f14354e
090e0bfa
0e1616fa
2f21141f
192a122e
46c50f40
e930b901
f6faf9cd
0f040b08
241f0906
d2f92bf4
f7e8e20a
f7ed070c
e6e1e7fd
19eb1303
f306f20d
e8fe0aec
f2eff303
01f7f2e1
04fc10f9
f2f60300
02f8fffc
2004ef0f
f209fdf2
070501ff
02fe1315
060df017
e0e113fe
04f4eeef
df0909f8
03e8f7f1
160bf30f
e71defdc
f7f410f3
131a0a10
0604110a
f901fe0a
07fb0ffe
f106f3fe
1610eff7
092820f9
07eaf0f0
2f27fe03
0a05feff
e40900e9
f2e40be4
fcf4ecfd
0b041315
071f0b0d
fc090b01
08f80f07
0900fa0b
15222ef8
381f212a
35162634
261a022d
0b05e6de
0e16030a
0b2b2900
240d1414
2a292227
00ffe627
e5ffefd8
f504fbe4
edecdcf7
20fde3e6
11161425
f708060b
0ff4030c
0e19eaf2
ee0a03f9
f4f4f403
190f0501
240ffc22
fc1a08f5
1d03030c
191f1118
12282b23
f5f9231b
e4fd0cf6
23fd0b15
fe050d27
e3eff4f6
f7ecd6ea
edeff0f6
f0fbf0ea
09070c00
02f70808
01fefa00
0f0f0b11
edea0706
fc080ce8
e919221c
f4e8f8ef
f2f3eaff
f308fff9
01f305f5
00f2ee0d
04fbfff2
d2cd0708
d6e0c9d2
fae1d5e1
fa0408fe
110b1300
09271d04
36132305
e8f7033d
05ebeb06
fb01edf1
f4f5fcfe
f6f5fa09
ff01f3f0
07fe0109
fb2d00d5
faf52c04
f201f102
1f15101c
e3030025
08eceb04
f80a07fc
faf2e1e9
16fceaef
010eff00
0a0a03f0
09fdf610
f41e04fd
0302130b
0bf71be5
f7f91537
fdf61c02
1d02f519
db30f4d2
19ec3d10
241af91f
1e1b241b
430ff723
ee032aff
fce1eb03
fff11e13
edefe206
eff7efe1
200a0702
f6ee110f
1af9fc07
11fc0c06
1c23201f
1910242b
072b1028
edf114f2
d517eade
c8e002de
e2e6f7ef
f9def5ed
2108e9f5
221f1313
fe131915
fc1cfa03
f3230928
091510f9
fbf61817
fdf0f017
eff2f1f0
0d17efed
01110402
faf3f9fe
f90000fa
03fc0bff
0405ff05
e9fbf1f1
02020cf1
04fbfe01
f8ddf508
eff4e3f5
00fbf2dc
f0fc0c01
01eef307
0601f3f6
0612fdf7
152d0f05
0e3a1e1f
0a1d2029
160e0d01
d91d1004
c1acdfce
bec3cec5
fffd03f9
14f81c12
0d12fc1b
081d120c
0df60713
13170d1b
f5092212
feee0008
fde7ec0f
ff0d0bfb
fdf41408
e5d9e508
ede3d9e0
180bebe9
22061715
e608fff3
ece4f6ed
faf1efed
1810130f
02fd0a1b
1310fa03
0b3218fc
06ff2715
03ede909
39fceced
363b283c
34413d2c
f501f7f9
f707fff0
fe030100
17f306ff
e1d6f206
f7e1daf5
0f0700fb
1720080d
17201116
d2dacfe7
bad9d6e6
f5fd0acc
f6e8f3f8
f7fbf2ed
1a0cfc03
020702fe
08f91f03
1d19050d
f203ede6
fdec09f7
ddd8f8fe
d6e2e0e9
1023d5d2
190e1409
fd181e0d
fbf8f900
f6f8fceb
eff2f4e2
fef6f500
0e0f04fc
09120cfd
202d0b0e
2f203305
e12a3916
e2e0f3e6
ffefeaee
e903fdff
edeaeff3
150600ee
f90402fb
05070102
1901f91d
0b00f7ef
0813f306
fcf609ed
e4efeb00
aecacde8
fb07feb5
2713241f
04ec1e2a
2a06eb2a
db0d08fa
f8de340d
19ebed3b
e00afaea
eee30905
fcfbfaf4
f302fafa
04f3fcf2
0a04fa0d
120afdfb
08101314
07030f08
1c040605
0c04060f
1613f302
001708ff
f5221608
d5f119db
17e4ff15
06150708
fe03040a
daf1dfe0
03ffece9
10f2edfe
f320eeee
010a1200
f7ff0aef
1d030400
0627daf5
fd0d0fe8
0b141b1f
fb07fafd
0d1214fd
0bf00d07
fbf9dff2
f9ff0406
f7f90116
f4fc07f5
e8f70df6
fc030208
0005f8eb
dce8f708
f2dee2e4
1211f3f3
ee121413
f7d6e907
12ed050f
ebf4e407
0c0113fd
0b000810
01f2faf4
0efc0302
0e13f500
f30b06f5
faf2fbf3
d6e1f1ed
e7dfe5df
01f6f500
180d0a05
05e7dc11
f900fce6
caeb0f05
b8c4d2be
f9cdcada
eef8e805
d4e1ebde
15e5fffc
181cf704
030c0d01
f7f906f5
e1e5fdee
ebec01e5
22edfe07
2f32262a
06253917
fffdf3fa
040ce7f4
dde6f3fb
d0c5d1d1
f8fcd4d7
ff04f70d
fff7f9fd
f6f704fe
fbfaf9fb
0a121f12
00f4110f
00f5ef1a
04fc09fb
fb04ff03
1503f9f6
df1d0bf4
ece0e6e0
0f0af8fc
0b0c2724
fb03fa13
0efef1ff
fa0702fc
dfd4e6eb
0b07fbe6
150e1b19
1f101924
23280d31
00f2faf7
18f9090c
eee6f9f7
09f31306
390c000e
44512624
ca25331b
cdbef5ce
daced7e2
e40000f6
ecf5f9ed
fb01fcf0
19070a0a
fcf91427
011117ed
1b07060f
0811f812
03ff03fe
fb1e230d
e3e4120e
0f02fef3
fb0c0706
e5f90102
e4fc12e8
0106130d
fbf9090b
f1ebef06
fb08ff02
0f0801f6
120cf613
042104fc
ef041409
f5fb03f2
f1031207
ebf6e4de
fa0015d8
011208e3
0503040e
f1131bf5
07df111b
f0f7db07
f9fef8f8
01f4fbf2
1e14f607
32300f10
1d02f5fc
13190907
0c0d0c14
ed140cfc
f0e4fbf5
e2fcd9e5
0ceafcf2
0511100e
1a0e0f09
f4280bef
0d062b11
28302d13
21503b37
09f9403b
12060307
f20b0105
eb06ebeb
f80d1adf
ec07fdfa
fbee11fb
03e9e808
f9dec9dc
fcfcf2ee
ecfd0df7
f3fa0708
dce2e7f3
f4e0ecde
f1dee6fa
dcfdcfea
fcfc08d3
fbeaeffb
fdfcfefa
08160614
ff000e07
0e1df706
182f2c0a
ed07fffb
f8fbf4f1
19190cf2
0d2c2715
f5f42c22
f3f0ed06
e8f6f8ff
ececf5f5
dfebfce3
f6f9080d
0c02f6f6
00090112
0bf907fc
fd0f0513
fb0003f3
081efffc
f809f6f8
f9fc0bf6
fb060b00
01f00bf9
0f080608
07140b0c
e9e0fb11
eff5e7e8
21e8eeed
00120e10
00e90300
00f3e0f8
d7f8ddf3
e5ecfede
f6f900f5
d6f506fe
b5cfc8df
decba7c3
e9d1d6d2
b3b1d3be
0b10fd04
fcf61028
e9f70202
03e4f501
040feaf7
fa0fea16
00f3dbe0
01fcfd0b
f0f9f7fc
1c151713
18161203
02faf807
fae9f5e8
10faf1ed
1f011605
1916181a
0b100f1e
ff020812
0302f907
09001404
f1f4f915
f2eefbe7
0feef5e9
1e18081e
0a0e1008
f616f900
0b07060f
fa01edf0
13170cea
dccfc928
dfc4bebc
eceee3d7
f3f8f101
fd040501
0a180cfb
fe091f03
fbfef8f5
0909fef8
fafbf106
0106fbf8
f2f5190e
ead4cd17
f403f102
faf7faff
ff0509f5
18f7151d
1003060f
06eefaff
11dce6fb
e7fbfdf9
f90307e3
0d242620
fc0602fe
1207090a
150d090f
0f030c04
1b110005
071c210b
f2eb0c12
0b07fdf7
d61f0908
f1cbfce4
1fffecfd
140e15f9
07072623
ecf50203
f6cfeae9
0812e7df
f6faf2f9
0905ff05
04fa0100
15fcf107
e3fbf1fa
dedcdef2
03fcffe5
f1e6dee3
e5f9efe5
b2d8c3d7
16c3c0bf
10141312
12081318
0fede2e7
0f170a09
0614030b
f4090dfd
08f71902
eef9f408
09e1e8ea
f4fd0c02
0c030704
deedeaf7
edede6d8
fd0f14f2
16190a19
e4ef1721
05f9f5eb
f1150c05
0e071208
f4101c09
24172d26
1a031511
baa8d603
d8b7bfbb
f708dacb
171533f3
0f1d332a
f7fff9f2
0105fbf9
1ae7f50a
1b190406
eaf9f61c
14f9ff04
dbfb001a
d709ecd5
f1fd040a
f9edfaf8
0b05f803
fefe04f5
fafafceb
d9f50bf0
09c8f5ff
0810d3ed
1d0b1020
08191c0f
070e100c
0d0f0f14
f3e8f4f1
ebf4eafb
fce6dce0
fc09e6e5
04f9200b
1f0f0015
02160403
e1e8f4f3
ebd0dcef
1a04240e
15210908
0c0c04f6
0e120605
0c100a12
ec0107fd
fe02ecf9
1c0c1b1c
f6e80df7
02fff7ec
0e080f06
ecfef301
fdf60108
fe0d02f9
09e90412
190c04f3
f20ceb12
d8dcdbc9
d0f6c5c3
36033a04
0bfefd40
ee06f6f9
07ee02f3
0a0e0406
daf91920
0ceff8ef
1f240c19
eaffebe9
e8e7f5e9
f1fefffe
faf708fe
321af408
da102704
e6ddfa17
fef9e5eb
0510ea02
0afd2022
f6faf407
09f401fb
ed07fdfb
f400fff7
e7f1f4fb
eee8e5e1
eff803f2
f3ee02f6
07050711
1c160804
e6ddd916
d1e3d1ce
fffceada
1ae8ed13
1011e3f5
1d20ee02
19201b0e
e7f8fafc
e8f6d5d9
18fffce5
eb00ebf0
f506edd6
e2f605f1
0201f706
e0ecfcfb
fdebf6f0
110a0503
1b1a140b
fbeef20f
040f04ef
0e031618
161710fb
091f1210
f1eafcf1
f1dbd9f9
d7e9dbec
01ed03ea
00effe27
0f02fc00
1c091e21
e0f229e5
09f4ff18
0317fb10
e6f61ae0
f0e9e603
000cedf3
2f160001
0b221702
00fc1817
03f6011e
f4000a13
04fcf9f9
1606f90d
ff0c05f7
010c0906
22100607
fb06f6fc
04eef5fc
3b12e321
021c2a04
06010f08
ffff0409
f3f8f7ec
f4fff0ff
f31414ed
fde7070f
1112e7f3
f60604fa
e8f1f6f4
f6d301dd
330dcf2c
0fe4f808
1712fd07
f9f90513
06fb0611
ea070804
f70208f0
fefe0709
1512e8fd
1b29f311
03f4f80d
0711fd03
01f8e6f6
f608fcec
f004f7f7
fdfd06f0
05f51109
12c94840
12c2a45a
1de6e1ed
2f35d9fe
d8f4f903
fdf60c05
04010e0f
0910f1fb
020b0101
f8fa00fa
020305f4
ed1416fc
03df1b0b
f3e50018
1affe917
0e110815
1901fc0d
fb12edf7
03f3fff1
f2ebfe00
021218fc
1df2251d
f20a0d1b
fc0f1416
1dfd0503
38170b23
ebff1611
030208f4
e50513f1
f1eae7de
0d11f8e7
07000100
f309f8f4
f0f30903
09f90601
dbf7f705
cbe4e0ca
bbc0e6d2
070e140a
0d030f1e
040f0814
2110182d
030c0f21
1003eaf3
e40cf2df
e5d8d8e2
ccd6d8cf
e5f4fae6
f0f7f302
eef400f2
10fb0206
04f2f5fe
07efdf09
0b03f0f1
0c0bef0d
260bf911
0f0e08f9
26081b1e
05e6f70f
fff4f2f1
06fb00fb
1412f916
f901efd9
dde104fe
fbe7f1ee
1d222e12
2a112f1a
fbf7021f
f8f8f2fa
d4d5eeee
e8e7e0ee
01ffeff8
0007fbfc
0f1312fd
f3040500
04fe06f8
f0edf50b
0cf600fe
f4090a14
fe0d1eed
f3fe141d
e7e9fbf1
e9eff6ed
fa00f508
f9f7f0f8
291704ef
082f0d0d
02f70f05
0afdf512
0cf0e7e3
091708fe
13142a08
01efff01
1918f7fe
fb010702
f3ea0c09
0911faf3
e6030403
19e5ebf6
e8f8f704
d5bcdad5
ef1007fa
e7f0f808
0d0803ee
23180f10
0210181b
f501f304
ebdfdfdd
05f408fd
08180e11
05f00206
060505fd
27342600
1f2c353e
e7ddf718
1e03f0f2
112b2605
030ef503
e1f1feeb
f3f3eefc
fcfafde9
0e0d1005
02f6eef7
eee5f9f7
0ef8ff03
f1060006
f5f2f3ef
f5f9ebed
11020705
fefb0716
050e01fb
fc041509
0b0405f9
0608070d
fb040b05
f6001701
f1fcf904
fbecf2fb
040402f5
f2f90a08
fff2e3f9
11fef7ee
0f1a0606
ef0f1504
7f233037
3c702f62
fcf0fafe
f4fbfbf4
1005e503
070209f9
ff01eefd
010207f5
f2070301
c5d8f2ee
cebde0d0
efede9f8
f0ebf2f7
fdf401f6
ffff0b0a
cde4fc09
e2b0d5f1
f5e2c0ef
0301efff
1206f20b
47605846
4a514548
49455048
52515744
58524e56
4b4d6a4d
4f4a584d
7f3d3e51
1fe910ff
d3001fe2
4cfd1d0c
f1fbfc2b
02eff4e4
3e1fdc75
ddd4f4d3
810a1beb
1ff7f90e
00f0fa13
03ebf7f2
0ffdee0f
fbf20819
fef3f907
f1fdf309
0edfde17
050823fb
e1ff0aec
f00a0904
07e51315
edd92210
0afff816
06f3020a
05eff011
0bf3f508
fdf3eefc
faf61400
eef028f1
0ce2ebf4
f5f5f5fb
fe160c09
ff0219f7
f50701f5
26e8fb19
f32701fc
f5f7f6ed
09f2f7f6
0e03ebf0
1607fd06
ef060219
f01b350e
ebf437f4
e6020905
180e1af9
05f308f5
fd0a180b
f0070605
e3f30ad7
01fc0504
e91bf6f1
f4fffe14
16fffa10
fff8fa11
0b10f4e8
f01bf1a2
05210ee8
151c070f
05fef007
fd02ea07
031100f1
08e80c27
04e5f91a
0409f1ed
f8f1feed
f403fbf1
09f7e2fb
0514ee0d
14181dfb
f5110201
21eeedf1
f9faf1e6
0a0805f8
effb17f8
00fa01fd
fe0c0e10
fc02fe07
06e50a03
1f020bfd
f8fff722
03faef15
fcf71509
f0eef0fb
d8dad8e5
1cfff803
06071e22
fd0afd0e
fdf8f9f0
0f07ff04
2219001e
03fbf7f0
13fa0300
0508f302
f706fde3
ff0c050a
09fd05fb
f21302fd
0af8f601
11fbfa0b
dc04faec
eaece5d4
ebdce9f7
fdf9f2f9
fd12f5fa
f2ee1314
dbf5e6f5
08f51ff2
17fef22d
fc061704
d7ef05fa
06fa00e7
18f8f6f5
11f20616
0007e713
ec06fbff
f5fcf5e9
fbf104ff
e8f3fb06
deecdce8
112a11dc
002d32fe
0af61719
eefb0dee
d9e00208
10fbf0f0
11351e07
04ec1a07
03f9f30a
03f1e9fe
f3f2efec
06fbf9fd
ecf8eefe
16eaeee8
10040b0e
ef05f4fd
05001416
02fffefc
fee6faff
dfdadae8
e8f4e2dc
fceefbf2
fb182712
e0f913f5
f704fa0a
0103f6f4
2408140f
0112101f
f9ee05fa
0308f1fb
03100af2
fa030d1c
e5ef08ef
f1dde9f3
01151c18
070904f1
04fef7f7
fde8ebfc
fff1f1e6
06fffdee
fb0a0205
f801080c
f2fd0af1
fc08fe04
e3eff0ee
09fb07eb
10efff06
f512fe0b
0cff0ee9
15280503
f8f90904
fbf6fc03
05f001eb
f0fc1111
ddecebe8
0b090ffa
110b001c
04f8061a
f8ffea01
f327efe9
f5f500d2
240c1321
1001242b
18250d04
08ecfc0e
0cf5dee4
080a0d1b
dfeaea00
fee7f4eb
0ff8e503
e7ea01fe
f6eee2eb
f7fae9f6
fcfaf004
00fafaf9
fde5fb16
f2eef605
fe02f7fe
0104feff
dc0de2d9
f90527f0
f7eff2f4
07020b08
f702050a
100a0f04
0e100102
14090e10
e3ecf808
0d222009
f9061115
0c0cfcf9
fc040506
1407070a
0b15e901
0f0a090b
1304f20d
07ed020d
04ecec03
1909fd03
feedf822
fd08fd08
f5ea0008
07f6faf2
07f6020e
03f71334
fae3eb08
ffe901fc
10fbfdf6
01eefbff
00100302
19fb0200
0c28ff0d
f9fbfef0
f8fdfffb
faf8fbee
140804ed
0d0e0f05
311e00f4
fa230d04
05f9f4fd
3cfbf72b
ff22fffb
fdf5f9ed
00fafc07
fd06050d
f103fdf7
fffef4f8
06f0eef5
171b0bf5
f5f720f8
fdf5dafc
15fe0911
eefd000b
f9cddcdc
f702ded8
03fa17e9
08fceafd
10fd08f7
e9f7e1e7
e3eef0ea
ced2ebd3
fedde3ef
010a080e
16fb0108
fa0efd0d
f8f70ced
1809f2f8
f9082310
f5000a0e
e7f3f5e7
fefd05df
06f50d01
f4e6ff17
06f5ebf4
e51610dd
02f4edf8
050409f7
f2f9f6f2
10080406
00140cfd
ffefe7f8
1a0925f8
131b071e
090f1a0f
e700fe04
09ff02fa
02f919ff
f41c00f9
0b131dee
03fbf201
faf2f5fa
0206fef6
0911fcfd
1b151b0d
f71a1dff
ec020b0c
e9ebdfe2
e8eee9e1
03f30df0
0208f50a
12f6ffff
fe18020f
fafc08f1
fffbfc25
edebe5f8
0bf115f1
fcf90e10
07f6f606
2810e405
0b1412f6
0e041e0e
fd0ae9fa
ef1912d3
fd04100e
26f8080a
f407fd16
f6fb0cf9
1011e3f3
06020609
000dfc06
0a0d01f1
042717fe
e713fc09
e8f921fe
02e8ee08
0fe5ecdb
e115e3e3
fbf1fef0
02f9f306
0401eaf6
0401f90b
f00aeb03
f1d21111
fae5f001
f7dbdde3
07f6f2ef
f7220ae3
e6f116e9
05efe6e9
090bf501
f5040a11
d9e907f6
f4ee06f1
0fecfc1b
ed05f1df
f802ff02
f5f2e0f3
0ff5f0ea
1406ee19
f50d0bf7
fde4e501
f71aede3
fe06fa1a
3200140d
0708011e
e70c04f8
e1f5f4ea
ffe8e104
00110cf1
fe060305
fe12110a
1bfdf7f9
1820f427
f21312fe
00fd0703
e7de171a
fa01e007
040406fc
0df21408
0d05fd1b
0cfe0cf2
190e0e27
04fb0100
f8f4eaf6
080bef06
ebefecf4
01f513fb
e8fde6f5
f60406f6
170d151e
1b030624
16fb0311
f6f3eee9
fcf6eff6
d7edfcdb
f4ec06fe
1118e6ff
090102f9
f31304f7
f20fe6c6
f5fbe6ed
f804f3e3
f1fa0ef4
f2f6dfe7
06fa05e2
e7f9fd04
09000afa
f6d7bcd8
280a1908
01fa0326
f7f9f705
e9f3edec
1c090202
e1fa13fa
0715edf5
05040812
1002200f
d307010d
d5effae9
150317fa
f3001824
f3e8e2e5
fe0ef7f1
e0f307f1
eff10df6
0302fdf3
0110f201
fc0b02f6
fef5ebf6
0413fc00
fc020cf5
f2e6e3ea
06fadef3
0c1004f9
25fe1bf7
100b0425
0810000b
f9efdaf0
f00406e7
efe6fc01
1105f105
05f50815
1004031f
0fe3f3f5
30120819
e3e9f715
e9e6e6eb
fbfff8f2
fbf5f0f6
05fdf9ec
d0f00b09
15020ae4
fa000efa
fa0cf50d
f702eb05
04f510e4
f414f518
f6f324f3
f0f30315
f0eb04fe
f6dbf919
f7f1fffe
1eeefe1a
1918ed1c
de181de7
17e711fe
0c03e417
ed05eff3
08fbfe05
0cf7f605
f0f80b05
edefeef7
f9f305f0
fa01f3fc
fef302ee
100d0825
06fb0504
f116f2fe
fd0b14e7
d3190bd7
02ca341e
0debed13
14fcf0ec
fefaff0d
f80b08fa
1cf40bff
f317fbf2
fe040ff4
fcf403eb
09e70707
00fbe21a
efeffef6
1c050804
0121f8f0
16f90a13
f20dfcfb
fbf508fd
24f3e81b
0515ecf5
f7f916fc
12ede926
f224000a
ddeb1de6
150ffb03
c90803f0
f5e8f9ec
f62618f3
f7db151a
e9182f0c
08d1132d
150af603
f806050a
09080504
f9041602
f7fc080a
df221fd4
f7e53e0a
1818171a
ef1306fe
0300f7ed
0e12090f
0a060a00
0b35e50b
dae814cd
09fd04fc
f6f8d9e5
2915e8f5
0113f2fd
f00c0ae1
e7f502fe
fcfe0400
0d021900
120e001d
f4f90c0f
f5131410
fdf9f2fa
05190ef7
07eafbf1
130bf7f7
e404f207
fdea01fe
07070406
fd010600
08f80913
1202ed07
1cfb0124
f9fbf515
f1dff209
f2e2d9ea
510cdb01
2723093b
08f306f8
fb14fbfe
1a0502f8
fd281cfd
f70212fb
fe04fafb
16f2eaf8
041904f4
eefeef0e
fc05f9fd
ecf6fafc
06f90eea
00e7132b
080dff07
08ff1501
fa05f211
12070000
f914fc09
f5e2e507
deddbbe2
e9f40abf
f8ee0417
e913fb14
fc0b19d5
210603fc
1835edff
ee0201f7
f5e2f5f8
ff0ff7f0
f909060c
f8fa0afa
0be8e800
11ede915
fc05fcf9
07060902
0d08f52e
0a060403
f9f9fd00
e2f4fbfc
fef3190f
daf7232a
cdee08db
fae9f6f4
fefe0d00
e0f10111
fe1205fa
e9fb1811
12090ffc
11fb071b
f4f7eafb
f4f7f7fa
efebf7fd
fbf90d0c
03e8fc19
fdf3f7fa
12fce905
1bfffef0
0d231708
f50c0f0c
f9ebff18
06e8fa09
f80e0505
0e1a1709
0f02f1fc
ec1a01f4
0300ebee
f1f6f5eb
e9e6fcfc
fd1ceff3
fefc1c04
d100deee
f4e8ffd1
07091504
02fb0a17
eff5070c
f8f7f9f6
0e0e050e
e6f0f408
1ff70503
edfc1226
e5e2f1ee
edfafd06
fae2eee4
1c15ff05
0e190ffc
071efbef
f4f5fced
f90aeed3
1f180710
01fc0e29
f8e2dce6
041eecde
f0fcfee8
0b020a03
0dff0204
fa0a0109
f91d0afd
17f5effb
fe06f908
fefbf9eb
07f816f1
fafe16fd
08e5e5fc
1212f2f9
ff0f2206
f1fcff03
f8fdf8eb
020f0305
0e0c1d0b
f613171d
0909fa04
fe01f8ea
0bfefdf1
f0f1f609
16e8f907
f909f917
0d060cf7
25063a17
ff130328
02d5edf0
f70bff0c
f2f6f1eb
f4e1f410
ef16f608
210b060c
dee70010
0df0e3f1
2d18f816
f1fbfe0f
03010f0e
def8f4e9
fbfe00f1
f9fcfffc
15e604ec
dcf8ea02
0cf9f5fa
0411f2f4
0cf8fdf8
ea1b00ee
0f0ff4dc
130f1e01
0303daf7
dcfaf5ef
f5f012f2
0ae8f4fa
1aecf817
061e10fa
f8092103
eae5fcf7
e4ffeff9
01fcfafc
f6fe04f6
0cf3fb06
06080d0b
1310f903
030205ff
00140af0
f2eb05fb
f7e2fae7
f006e810
eaef0e00
00f507fc
fdf9ef0a
f2fdffd5
1a20140d
11f8e808
eefc1503
efd3f8e5
f91c1512
e5f4fd17
ecf1fbee
f0f8fafa
0ffc0801
ed000bf4
11f8fb12
fe130501
05fd0402
f4fdfff0
f5f80513
f8f1ff14
ed00f4fa
f6f1df03
ec03f8f4
f9f4f902
ee04e5e5
e8e001dc
f900fd04
e8f6e9e1
f7d9ebf6
0b03090a
0307e2e8
08f913f9
01f6d206
effff0de
e4e7f4f6
faf6e7f9
08011df3
08ecda0b
05fb01fa
fd0b03f2
faeff003
01fadef0
f6f5e7e8
0afbf5ef
02f11111
060a16ee
11020d1a
e3f0e3ff
ebfed9c3
dbd7e9f8
f9d9cedd
f60200fe
07e708f9
0b13f2f2
0a10f608
dfe6fbf3
02f1f6f0
030900fc
fd0b0914
f1ff161d
0bffebf7
f4e9fd09
0e0cea04
1812071d
13020b0a
0a020802
130002fe
1b1b101a
06edeff9
0b02f3f9
0f0a1bfc
ee1702f1
dee5fbde
f7f2e8ea
fd01eaf9
fbfc03ea
f3dbec06
08e3e7ee
f6e7f501
eeeeeff8
e6ff02ff
19eef807
db17fde7
1000f307
030cf7fe
0afdf7ff
fef6edf1
e905ede6
14fbf001
05e9ece5
f6ff1611
fefb0209
1c1a0d0c
09121020
0016f109
020729fd
0bf6f323
f703fcfb
f801fa04
d2f7f7f1
07ed00f5
ee1307f9
00f11d01
de070df5
22e30225
fd13f40a
fdf70501
fb1f01fc
e816f7e2
1506261c
fafceff2
09fbf1fa
02e1ef02
01fde8f2
01f5ff14
f4ff1d06
070afef4
f50ff9fe
23ff0b01
e92ceff3
ff0919e8
1bf7ed03
f71b02da
1f060e10
e22a32f3
f5ff060a
f8f7f9dd
f60afef2
e0f5efe3
fee90ff9
dd132412
12dffa0d
f1effce7
d4e8fcf3
fef902f9
15f5060e
ff04f80a
f9f30b10
e4f7f8ec
00edf8fb
f41103df
0c040b14
0d121df7
01ef1708
ff01f2ee
f00108ed
13081ef7
f400f610
11fbf7f9
f01beddd
fad90ffc
1909e320
e72008ec
02c41ae9
09fcdf15
0dfc1113
fdfc0d03
fff804f7
05f3eff5
0f2402f5
e6fc1de3
eafbf5ff
e9df02e1
f7e9f0fc
f6f1f0f9
09f1f5fd
3d1bf1fd
fd3e20fd
1400140d
16000a02
0901efed
efdeebf9
f7f4d0f1
04e70ff2
fd08f609
e9f3e504
05161ff7
e1ec1a24
0e2414e2
fa05220f
fe1e04ff
e60a23ea
f5f604fc
f9fae9f2
05e4e1ec
faf5f2f5
0bfcdce3
19140b12
f30dfff3
10090107
de0002f4
fbf80fee
32020b21
0afa0127
08100d13
1bfff3de
161d0aff
fd050cf5
0609fafc
09172204
e1180bf2
17f3150e
eceb0613
14e8edfb
0be40d04
0519f407
0bfefafa
0405030d
f5ff01e6
f6f5e9f1
2815fcf9
f30cfd1e
f9edf503
16f7edec
f50512ed
06ff0f21
14030504
0711ee06
08e40205
17030b13
f7f91311
00ebf30f
fa090303
f8e1f303
030beff0
da0514f0
fedb0205
12061e12
fe02eb10
fcfdfbe8
151c1926
f5f2f801
06f6ff0a
f60c1f01
14fb071b
08000024
09ea0b00
22071223
f5fbfa25
fa000908
02eafdf6
06fcf203
001404e9
f613f7f6
f6e50206
10fff708
00fcf302
fb0404f8
f5e2dde8
efedefed
f7e6f610
0de8ed0c
fbf4ebf2
04e6e9ed
f8051c06
e7181918
f7040aeb
f1102814
1a01f907
1437fa16
05091f0c
0a140af5
f4110afb
04dfe0ef
25ffef11
faf3f625
e8f7ffff
1b0decf7
08f80bfe
0214090e
3a14fcfb
251eee1b
0c02090d
f6fc0617
fc0e09f6
fb011216
effd1512
ef192708
e2102814
ddf002f4
fdf508fe
f5142101
04083009
0ef50602
06f82429
3217031c
323704fe
0512f305
ff08101c
fcff080f
0bfce9ea
1613e4cc
16fbfd04
f412fe00
0b09e600
29120634
11e6efea
2c100a17
f9f4f925
00f603fe
f9f9ff01
f7edf6f9
0b080008
fbfc0913
09fcf500
0815101a
10f7fc18
edf2020d
13170cee
f40018fc
0cf4dfdf
f204000b
fa0a0014
edee1afc
e9f8fe0c
e20afbe7
f20d0bf7
25ff06fe
03f10d35
0208fffe
09f2e9f4
f6f82411
f3fcf3f9
07f504fa
17fd02fc
ecea1010
23f4f6f4
3101fd37
01f5ebe8
04e3e8e3
0bfffaf2
0808e8fa
fb1f07e3
2800f3ef
ff280127
ed18250e
f5f8ff05
e9ecf7f6
00ed020f
0c091913
f4050efc
e8fffdf2
def818fb
03f50ff4
ff041001
dcdee9f9
020df8f5
1ff1f1f6
ff00040e
e9dfeaf3
df100808
fa02fbde
18051c00
f210180e
0a0203ec
02050305
df0e330f
1600f2db
fc0307ed
0c040209
ebf7220b
e4e8fbf8
e4e9000b
fdf8f0d9
f908f504
f2ff03f5
07fff5fb
fb0e0b01
020406eb
21fffa0c
e001e7eb
f3020404
08ec040f
f1f8fbf9
1000f7fe
f0fd0912
0aebfb0f
06f5fded
f4fe0705
f5eff50c
1ffdfcf6
eef20623
f30300f7
ee051500
15fa05f9
0415020c
f3f3f4e7
ecf9e3d9
04131af8
f20cf8fb
03f503e9
010de603
040e24eb
08fa1115
fa2619e9
07fa0203
0421e8f9
030b19ea
f6f7edf6
fc050bfd
180dfc15
02290efa
e202080b
06ef05ee
10f61719
1518db05
fa1501f8
02ff05fc
070df7fa
07040404
e3f0f9fb
160be6dd
00fd0d0d
fb04f501
2c07050e
07080126
0903eb0f
09130eef
23260909
fa29320a
1510111b
152914f5
fb130a01
f8fbf6f2
f8f3f4fc
0508fcfd
ea0403f2
0bfc0af0
070ef011
0106f9f2
f8f2060f
fa11fbe6
1000f503
162a0df9
19eb0df6
1fe60c27
f7f4e91f
ffff14fd
0500fd05
0d0a0cf4
1dfcede7
11003022
fd00ea0e
f4ecf2fa
0dfff9eb
fd0af317
f1fb1c02
fefbdee7
03fefc04
ff102212
0f0901f4
f3151405
efe0d9e3
fb06fffd
f8e5ffef
e8f8eefa
fd03f1e2
f0ef13ff
fe0c09fc
f605fbe5
e4f407ed
00ec05fa
0efa1104
e8eef60c
0ffbff0e
eadb201b
1304e502
f0021bf9
fbf31c0e
090d05fe
ff081507
090a0409
05ff1a0d
f8190911
032be3fa
eaf435e5
01f4e801
140e0f02
060d0f14
02f3fbf0
ec00e8f6
f81c03e5
16ed150c
ffe9e401
fe2411ec
e8080c12
06fafee9
2920050a
090b3811
d6f9fe13
eefaeedb
fbe7e0ef
e9f2ff09
0b0cfdee
e3f306f7
17faefe2
2221020d
0203191a
f4f0f1fd
fff1eee0
030f1e05
07090a19
e4f5e0f5
02dffbed
def8f3ea
fff0f6ed
05fdedec
0f0c0b05
f5f5f902
fb1207ff
01fe0b09
1b0bec13
ee1a03ea
17f50a08
f70bfe11
04011206
02fb0a06
11fef116
eb2c16fa
0a120401
f0eff804
01fbebf7
09140105
fb1a250b
f1fdeaff
e4fce8df
ea00f1ed
f8e6e1ec
f3e90701
fb08efec
dbf900fe
05eff0e8
f2efd90c
10dd0b04
cff0d8fd
0e2103fc
ecfff5f3
dd05fbd7
20fd06f8
f40d02f4
16030803
e70803f5
0ef0ee07
fd06030c
f11216f7
04ed001a
02ebfe02
1d2ff2f8
fdf3f4fa
1bf40702
fa13f209
f1ed0af8
e5f6eaf7
0ef6f206
12e5ee06
f510dffd
0811fb0b
13edfc0e
bf03e9f2
33fee4fc
06fe12ee
f90ced09
ef0520eb
f701eafa
ff1910f9
1ef4f114
0afe0405
0bf306e3
0d15f61d
06ec1405
16f7fb19
fb030f04
f1eef4f9
0307e9e9
edf3e9fe
14e9e1ed
e8e40a07
0bf5e504
e0f307ea
f1ec130b
ed070df8
fd03da01
f509380d
25140afa
07131a06
f816e7f1
ff0502f8
16fe1109
040eef1d
f8eeffeb
ea28e0de
14fc1208
02331009
10f7fbf8
f401f8f9
1607fd04
140b0701
f8040214
0e08fb00
03fe0a04
21fee4f5
022b0a0b
10dbf50c
eae3e1ef
0b08e210
fdfbf9fc
f20706ff
f7070900
01ddf9fe
ecf9ddf5
0af5fa00
210dfc05
0b02fb01
04eefb07
0805ebf8
1c0bf815
edfd1f08
f2d70c1d
2c0be50d
2347f8f3
fafef1d0
f5fb0b13
1b09e8ff
fc1dfe03
eef70fee
1409fbfc
ff02faff
060004f9
e10d05f5
efecf3fa
260eeafa
e40ffcf1
f11f0bfe
e3f312f0
131d02db
03e8ec06
06ffe7e4
fbee0621
e4f1f3fc
eaf70efb
01061c13
ecfcf9f5
faf7f9ef
f505f8e3
d50d08e8
dbe9101a
ef120505
08eaff13
0a11f80f
fd000606
e31e0de8
ec070bc4
f8f1f006
2608e6f6
e1df1a15
1c06fbef
f6322607
f1e0f1ea
17e8fc15
ed0809e2
fc01fee8
06fe0cea
03efeb12
090bed01
090af3ff
fbfdf7fc
0ffb16f5
f6fc05fb
fd0306fc
fee5fe09
16090bfb
f20df80b
f8080a0c
02f81ceb
f4ef010a
eb04f7f8
e414f7e9
f0f0effc
150b11f4
eae4ff02
f6ece903
0aebfff4
062afaf9
0cfb04f0
dd09e1ea
fffa04e2
010a23f7
f6f51afe
0cf7ffee
fb0ce5ec
1b0befe6
0ce0ff17
0112fd02
fa08ff04
fff2f0f6
070c030a
d7f204f6
e0edf7e8
0c010212
0b0f0afd
f3ea08fd
f60bf201
27fd1224
ed0bf812
eb05f7eb
ed01fdd9
05040cf6
f3ff02fa
140bfaeb
00fef604
000fdefb
3310fa1d
101c0d05
ef01e8f9
fe0af8f1
09160bf9
03fe1a00
14f61505
02f10c0f
09fd0818
120f0007
021201fe
1ef41308
13f2143d
eeedfbfa
fe273c1a
19040316
20321e0e
f8fdfd06
2a1ff3f0
1826211d
15020207
050009f3
f9f7f20b
eb0300f9
04f6f2eb
0cf20312
05060efe
ff031200
f30cfd03
fc050103
fd00fdfb
ebfa0ef4
21131421
0df41f17
020d0508
12fdfc0b
20fb0402
0f1906fb
fcf8f3e6
10f70efe
0913f911
ef130bed
2b0e1218
0929070a
0010180e
0605f310
f50a0af6
0101fdff
f5fb02fc
0e1701fa
060b140c
fefef8ff
eef7eff2
10f3f6ee
0512fe14
010e0bf9
0eee01f4
13091315
0a240d09
0721301b
01fa1423
fcfe03fa
e70cf9ff
f9e5fcf3
d5f1f7e7
fff8fcf1
fd0001fa
060d1101
f103160b
13f0f4ff
070ef907
03f6f7f0
1510f303
ff100501
05eff907
01f4f3fb
f8efedfa
eee8e9e0
fcf1f5e5
f4fef813
fbfffffe
160a050f
f50ff602
0ae70c00
0de0fe30
fcfcf3f3
f60e1b06
f5ee0416
090d03fd
000204f0
fd0aefe7
f0fc01f2
fff8ebfe
0406f2ff
ff0f03fe
fdfa0d04
dffef9ff
f3e6f6f1
07f7f6ed
0512f4ff
1417280b
04fae5f6
0bfd0608
04f90412
f0fdf5fa
faf211fc
f3fcf002
08fbeef6
f9f4ff00
f8fbfcfd
0ce2ffec
0d0fee22
f806effc
20ede90c
0f0c2b10
19fc0213
0007f7f3
06eaeeff
11000a0e
fa020403
f7eff2f5
fb00effb
011a1cff
e6eefc0f
0ce8071a
09100e1f
0a02fbf3
0700f914
00091402
030af10a
f7f905f4
f0f4f701
e0fdeff4
e4fd0aea
edf8f82d
f3c902f8
3211ec2d
fbf2ee02
07fcf007
dbdfdc11
0eeae8ed
e4f20e05
fb19f9fe
ff064121
fef40f08
fc190d02
0bf304e0
1226f7fc
1908f706
f7f813fa
fe05f520
04edecff
e61a040a
ff010dfa
0a04fe1f
2cec0b15
f710d8fa
061106ee
f4fefdff
2713f5f1
0f192014
04f4fafa
02fcfff3
e2f5f903
fdf3f408
ff08f400
eefefd07
f9fe01fa
fa090502
0ff72af2
f82cf914
0df6f503
0f091607
f50508f4
19fef6ea
071a1003
f5fc1701
ff1d0d04
faed1000
f31c01ec
ec04e9f5
f519fff3
fefcff12
0704f7ea
fdfcfb10
fe170f08
f9050a02
fa0d07e9
e9e7efe7
f208fae3
050812ee
e1041409
f2f7fde2
fbedf8f3
00ded8ed
fc06feef
f2f711f2
12fb0125
fd0f1316
f9091407
f203fa19
ecf8ddce
07ebf001
fafff7f7
ea0b0003
dbd8e8fe
e405f8f2
fff8fde3
e4f510ff
fb261f0f
e8fd05f5
0800fb02
f30ffd0b
0b0afcde
0a130610
05f9e7ee
0d030018
04f9edf7
140c1016
e8f2110d
ecf0fcfa
10e1fc02
0203ecf5
2508fe22
fb2d1407
15110d01
000a031a
07d40312
f2d2fa17
ece7eefd
00edfcee
260ef805
0a170705
0f021319
dff803f8
ea0506d6
edfe0703
e6e4ddcd
140503d8
01fd0402
fcfc04fa
fb02f0f0
f706fff3
d7ec05f9
e8e9f4f6
02231e15
0803162b
190d0a10
11ff03ff
f0ed021d
0508d9fe
c71100f7
babdc9c4
bec5d1c0
0907f4e6
ff101219
2222fcfe
e9faf6fb
0f08d6c7
eef7fc01
23f903f7
0508ed07
f4fef008
eef4eef1
f2effef1
faf5ef07
1bf3fa06
f6fe2231
150d01ea
0c1a0b08
f202fdfd
0ff3f7fc
fffe08ff
f2f60c21
140f08f4
11fef9fb
f8fb0311
f9ef0002
1af61a1f
fb08171a
ede9f2f4
09e0d8ed
0f1afbfe
252a1c04
e3f5f6f5
02f6e5ca
02eb0509
f6f0ef06
f6ef02fc
f90bfe02
04e9e6e9
2e25141e
faeaf816
1cf9fb07
e8f62525
07011608
00fa0c24
f8fdebf4
fc05f4f2
ea211314
f9e9faee
fc0c04f2
f1061a0b
e3eb04fd
fcf3fafc
01ed03fb
f6f802fe
0109fbfc
f8e7ebf1
fe07e9f5
111e15f4
f3eef501
02faeef0
0c13060e
f5fef517
1601ecef
00eff9fd
19d7e3ea
1c15080f
e7f1fd24
12edf2f7
e9f8fb09
130afd01
00fd0f0e
1c141007
dce9f509
070912f1
ee030614
0410faf2
fb0505f1
e9fe0f19
00fcf5de
fafc07f1
01e7fb0c
ecfe02fb
12f3eaf9
ffffe1eb
f204fb04
10faf1f8
04e9ea03
0b0eff07
fe090806
03f70c13
fad7e8f9
f8f6f9f6
0000f9f0
eaf80af8
0610f600
dffaf5f7
1e230ef2
f6ee1717
bcd6def9
04f3e2d0
020200f9
f5f61306
23200303
111a260b
eef01515
2507df07
fe1620fc
03fbfbf3
e60403f9
1e0518f7
eb11e723
fd030d01
0f0004ea
f20ef0fb
03180c00
01011509
eae000f5
1501f604
3e0d24fe
110f2b7f
0bfe05d5
f003ec0b
0b1300eb
03241d1e
ecdaf410
140ff6ff
f1020605
16131ffe
f0fdf322
e5e708fb
fc03e909
01fdfdff
f51f18ef
f20a1516
d3f800e6
f302fbf1
f8ecef05
f5ef05f7
010c0601
fd0b1c08
1117dded
15321c16
07eafd02
f6090800
02faf911
f5f3fef4
f125e1e7
f4fbeaf9
ff0b3bfb
150c0b38
060b080f
13f50904
2825edfd
10401af6
f701fcfc
ed08faf2
08f010ff
0c07071c
f3f6fe1d
0f0cff0f
fc0807f0
13fdeb15
050af7ed
0ef6f91d
e70befda
ebfafde7
fb041df3
f6fe0b1e
160afb0a
1af50b00
0b1100fa
13fde11f
fbe60005
140afa10
0507dd04
f31723e6
faf30314
f1150cf2
00eb19fc
fffd0103
13f60229
fafefafe
f70006ef
eeefee10
f0dde5f9
f913f90d
f5f90bdd
fdf5eff8
f7f50407
fa04f5ef
1bf908e7
fe150010
13f0eef6
0af1e406
e6fef4f0
05e9fd0d
fa00deeb
bcf411d5
09c20113
1600020f
fe0d0707
f7e3ffed
fb13f021
110df0e5
ff00f215
00eee808
0b05f30c
12081105
fe141c1b
0e081d0a
06edfd09
f600f206
fa0606ea
fcf608f0
0305f9fb
ce100deb
0bd40f1a
ffebe30b
06fef2ed
f0fc0209
faf8f50a
13ecf3f3
2b13f50d
fd08fcfe
ff11e6e2
fefc04e2
12040a15
0b040016
02060606
11f0e814
ec07e3f0
ebfc1df5
f9fa1210
fb02f0ea
ef0506e4
f900ff02
040bf7df
f7e6e3f8
ed0d05e6
161407fa
dc031eeb
f4d2e501
1b130017
f2f9fe00
10f80c29
0302dcf8
feeffff4
02f6fd14
070c0605
f9071df4
fdfef70c
21010503
1118010f
0df4fdff
14160d0c
06051214
0f05151c
010a1724
f11a1e07
0a0a190a
2115f008
0c02050e
e40ff1f5
f1f50ae1
f908edf8
f9330cf0
08d413fa
2cf8d526
ef05f2d2
fdd2f6fb
14f2e608
fdeedf0a
0207ebe2
0a0af4ef
0a0afbff
000cf7fc
f0f70702
0df1f100
2b1feefb
061b0dec
10e6fbf6
fc03f912
f00304ef
03f8f4f0
0ff60407
e9e5f30b
06eaeefe
1c1e0208
0b0bfef6
f7ffebff
0efa24fe
291d151b
fb1e2011
240e1002
17311a11
ff1517ff
fd18e902
ea1308e2
f40d0703
160320fa
fcf1f230
f604f4eb
fc130c13
28120c08
042808fd
03130210
180c18ef
ebe2cade
eef3f7d4
0100f3fb
07dce7fb
f5dff4ea
22e4de0b
111df4e3
f607ecf2
e1f4efed
e80df8ef
02fb01f4
01161903
fb031108
190eebf8
0709f80d
0d0512f9
040bff1e
030302f8
13f9031d
03181304
08051617
041c0c1c
0205120b
04ff0408
f303080d
0112f8f1
edf4f7fc
f2f00bfd
dbdbebfd
ebe3eaf2
f2f2f4f1
2014f503
131d0c0b
ee142619
e8f5e6f4
f1f203df
040205fb
fa0c10fd
060b0d2a
fef0f1ff
fc11fafa
0b1311f8
f0150cf8
f9f003fd
0e050a03
0f02f2fd
15fd1d02
02fd0615
ff0aee00
180a05fa
ff050a09
ed04030a
f3e0f1df
1f1deb0b
f105fdfc
fffc06fc
fbf1fff3
01151e03
0507f00a
fa01040a
fee7fbea
0b070ef1
0dfced13
05f9faf5
08050c00
fd0107fe
010a0b13
052febfb
d9313be6
ffd8121c
0e27050f
fcff01ef
07f1e603
0712f7ee
f312f615
f5050e00
f108ece9
2008e916
02fe0ff5
0cf5f70e
fafff2f7
df0316f1
12f12024
ebfe0012
ffe9f3f7
000bf50d
fefbf40d
03f7f8f8
e7ff14f9
10fdfa15
eaf700e8
ddfefdd5
11f71d11
f302121b
f5ddfe22
512be932
022718df
e1fcfdf6
07e2f0fb
e90d15fe
fef20612
060e0afc
0aecf5f8
0cf3000c
ef02fe02
f502000f
d7f7f4ff
fe0101d1
fbf40bf6
0d10020f
edf517fb
15deed1b
f610ff01
fc03f310
f8fbf1fc
f3fafcf9
0704fb01
0707d6ee
00f81fd2
fafd0905
1fe8f318
fae5f800
22ffdb36
f80c06e6
d009fadc
fef00af9
f8ebf713
01001507
f7f9f504
f8fffbf9
f6fcf6eb
09020ef8
0506f401
04faf805
f6f5ebf5
fefcfe11
ee05e1f9
f4fd0de8
f0f803f5
0d18ebef
60302017
081f2b1b
110e120c
05fa030a
0501200f
eef4f707
04fa04fe
ff06e5fc
f30706f1
f2dbe1f3
060dfee7
eefeed01
0af2f7ea
daf906f0
04e501f7
03f9eb17
140805f9
0a141517
f5f0fc04
fb13f8fa
f90706fb
03fd02ed
ff17f1e5
19181f10
fc0f0b0a
f700f909
e8e914f8
dffefcf2
efeb0400
f402e6ee
04e7fbf6
fc050701
f8fb1203
08edfb19
13f3f008
f004f7ef
fceefdf3
1606fd02
e4f9f800
f7e0ecf7
fcfaea12
000707f1
feecf0fc
dc02eee1
f1feffea
eefaf5e9
02eceeea
eef7f608
f9f1e6f9
13f5ff0c
ea06eaf7
fb0e11fe
0705090c
f20f090b
e80b06e1
01e6f3f7
0f0a1e0c
f8061712
0bf8ef18
f404edf7
07fef7f6
f01104dd
fefa0203
230dfa18
0d09050a
18f40619
fef7da1a
1904f900
0409fbf0
04fdf50d
f01101f4
effb0001
02fcf3eb
fc190503
150f0914
06fefffb
21eb0119
f602d7fa
0000fdfe
15e9fa1d
fc00fbff
fceffd0b
f5f4fff9
eae32319
ecf2ee1b
4ed3ff30
0330acfd
040106c0
f61c02e9
fdf4fef7
1804e901
13fa02f3
0c07fa02
f1f600f5
0ce0f905
e501d400
eff3e8fc
01dae80a
091cf1ed
1d441bf9
08f917fd
f2f6e3f4
090904f7
f007f4d3
04100602
01fd1808
16f7db0f
031406f5
ebf21ef9
000efd0a
ec1505fa
ebf410e7
0ee5f708
f9f4ecf7
1ffaf3f8
ee0eeded
fff8f8f8
f4fbf1f7
18fbf6fe
160be70c
fef4f4f2
1e02001b
f700f3f2
f7f00703
fff1e4fe
08ee0ff5
0a2d0506
0d03200d
05f1fa00
0a0d041a
f809e9f6
17001c0b
f4e5ee14
fef5ddf6
02f90cf1
ff1e07eb
f801271b
e0e708fd
21ebf41f
0df71308
0c09fe14
0b0d0809
15281907
04fc2b1c
13e9f80e
0120f607
e6edfaf9
05fe00fa
e6130dff
f1f10e0e
f7020009
04f4130e
fa0eec17
05e407f2
24ffff00
082ee507
e5fc15d1
f5161104
f8ef0af8
15ecfafa
09eed5f6
f60205f3
09ec0011
00f7f7f9
0e010808
ec0efefc
f9031ae9
0afa1034
07030b05
18ff1927
080a1c2f
f4fc0ff4
fbd9fd18
000602fe
1916180f
e72a11f1
f1e12208
e5fa01f5
020c231b
effbf604
fe1d2cd8
ffecfa11
2c0ef6fb
e30403f8
0411faf1
faf70c02
f9020af9
eaf3fafc
f1f5e7e3
fce8fa0d
0afbea00
091bef08
f20b00e0
f70003ef
fc1605e4
0e010308
f1080b0d
1502f5f8
20191b17
00050a11
faf4ffea
e6f5f106
5a695863
777f6453
6b635059
5a4e584c
616a5958
746b6669
5f5b6b65
507e736f
47cc4ff7
1c142820
1cd5093d
45014b3e
79042034
1f5cf93a
354b280f
7fe7b406
5329050c
181d1518
ffec13f0
ebd524f7
c11dfbe0
cbfe4204
d5100cc8
fefef6f0
021a1633
f31af713
2df6ffff
09f9faf0
eaf1f4ee
1bcf4af4
c21403ea
f1400910
f60c0817
0d02190d
bce417f6
fd70f8dc
01f1f111
b8f0d1e3
1a00e22e
f6eef2f2
06021214
242df802
130822ff
0ef50fe0
2b1cd3f3
f6ee0627
ebe7ece1
d3e22d06
f814f806
120058f9
de0d2bcd
4bead0ff
ff192a00
e368e50c
f01c0bd2
0923f005
ef240025
c103a925
c71315ef
f5ecf4d2
d5f0fe11
03e6071b
ec08f919
1ce4f50c
f5f707e7
ca2229fc
0cea027f
fe062815
451af7f6
f106ee0c
4bfd2228
e85738d4
e110fb71
fb083802
f9f70914
e3170500
10ee0383
feffddef
4a24f2ef
e33a130a
e4020629
3412bdf5
6fe80ef2
fa1dfb0a
e6fe1421
f30c240a
e21e130b
39ebf5e1
ed080fed
f7112a0c
e50bf1e5
f7fc2dd7
dce7b507
0aa9efef
0afef12f
d8d21206
1fdbe7de
0ddb2414
ffd8e408
1d00f74b
09fa0922
28c813fe
18e8f816
fdfa1301
13f1fdb9
e2bbc906
e9da0302
01d1020a
0f08fdee
150bfefd
f708ec18
f7ecf614
b4d2f2eb
10eb02e7
1a611023
4007eacd
06e733c5
b12cf1fc
e2f30af8
02ede8ff
21feeff9
03f216ec
f5f2031a
ebddf62f
f6eafcbd
04d1e7ba
f80e0ce9
ede216f3
dd0517ec
1f09db06
480814d6
f2fa1d02
faf5f4fb
fffd13f6
e900dbe9
24f3170d
02ff07f7
09f90d07
010640f4
0106e806
06f3ca48
33b52ff3
22ebe503
fae81137
53343e5c
38273f57
1a4c6875
7b576258
5e2a3456
133d337f
45244e60
6a1a253c
47cc4ff7
1c142820
1cd5093d
45014b3e
79042034
1f5cf93a
354b280f
7fe7b406
e1f3fdfd
eceaeac8
e7eff8e5
eef8fefb
0c0ff6f3
fee8f512
eaeae7e2
170de7e4
151e0f17
06f8f403
070801f4
02f6dc01
061c1b15
1417021a
f2f1ec00
08f5dadc
0100dde7
1affd100
1429192b
e5fb1819
1b41f5e9
16ecf3d4
111e151f
f1fcfefe
f9d6e7da
fce71a02
e2e4ddfe
dee901ee
190cf1ed
c1deed35
1b1008ff
f3124419
10020903
0ce3e9e9
e7e10d17
0906f6dc
e9e4e0dc
03faeeed
f8090cf6
efeaedfd
331de1d7
0d140336
e9f4e9cd
1b2cf0db
01160219
eeecf7ef
0f07faff
dbe0d7fb
0dff0a02
0010081e
fa042204
05f705f3
09030d00
0301ec06
feedd2e1
0a3a0de2
e70f0012
e5d8d3de
07eacfc7
fe080805
ed1d2610
fbea1f07
f5f6e803
ead8f7ed
08fbe7fa
1602fbf9
0e09f5f9
0f241a0c
ff0f0d01
1afcfefa
202410ef
02fdeb31
0606e1dc
001f09d9
22022705
dbff0610
0006c7ec
fff3050e
00f807fd
d2f614f6
e3e6d9f3
0516f814
23f007fd
fd392eec
fbfb12fb
fa1af5fa
12ef111a
d60d0007
e1ebe4ff
f1c4f4f1
4306ebff
422b2a25
09fc2b15
082b2b33
efe01b15
2613e4f9
060600e6
e0e00af1
00cfe7fc
081b06f0
ea1c190a
d7eed2fc
21faf106
03200d04
00f11215
1c2405f3
08f50425
00fedbff
1c202e14
02350b06
29eafff9
0f270916
eb052d1e
eaff1b00
d61608d8
0ff1ec10
1919faf5
f2011df4
0def000f
dedf15f6
1df6f111
2a0d0416
02060125
191d1228
162de7f2
f3f0ff0a
e3f2e5ed
bf10e5d6
1bdf07f2
fd0cfd02
11ffdfdc
f10105f8
19f7f50c
2dfafb2c
0c19fe0e
d2f03ceb
09dc0533
fad5fc12
06fee812
f5fd00e0
0f070405
d7e0e500
c7e4fbee
04e1ffde
13fcdff1
042a11fc
11f904fb
f7180301
e6dff807
f3dfd5f6
ffe50eec
f2fde20f
00dfefe9
0deaeff4
1e101411
2dfa10fe
26fbddee
03d10b06
330ad641
0523ffe8
1800dbf9
f605f2f3
e828cecd
d6e028db
1eeaf209
0b2f0917
010c1a0f
0feffd12
fa100d00
00f83200
02eb1216
03f9ea0d
28140cfd
e2daeb33
06fbf403
dde30eed
11e7effe
2df812fc
1821d21a
f2ff0dc7
06d8fcf4
f803f105
eee1efe7
f4e9f0fc
050e0b0e
f0f605e9
11d5f1f2
e70b021e
e5f303d7
09d90a08
feecde06
feeff6f4
170901ef
1c06fa02
d8f300ed
01eff209
fd0425fc
f41d0dfe
ef12e7f5
eecb00d5
31f91a05
f318ea0d
e92115da
eee80ad7
0aeee7db
011de812
f5ecfde1
eee625fc
020bf10f
dcf8f00e
eedd06f5
e6faef0b
efe701e0
fe1500db
e9e9f100
e8fcfaed
2002e600
1c19e8ff
0e0514fb
0f1d1d20
050c0c07
01161203
f11f2108
0002f4ee
22fe050b
230009e7
f4211c16
0005f613
02eb0cef
f3e0e702
f8f5f5f0
04f1ebf5
ebf400f4
def310fc
f8e0e9e7
23f707e1
08effb2d
ed0a152c
00fcd6f5
130cfdf7
0918160d
fc0500fe
02fa0c09
f71d0fee
010bf90f
e5ecebf1
fad7f5f6
08f2bbd2
0806fc03
161a1dfb
1c12f611
dae0e80e
fd010ff7
c8d6fcf5
d8eaf4d7
ee10f0f8
0bf62c06
e52225f4
e5042e21
08fcf5f6
160c0201
ffece5f5
0701f3f7
08171007
0ef9f909
160b0d12
edfff002
f4cbc9cd
fe02f3e6
231c1b04
e40a180b
d8e60be7
2818210f
f008281b
e7f4e4eb
d9edfcd9
fae80823
19fd120b
dee6e80d
0ef500f4
e0dbf70b
f704f7e4
eee8effd
fce023ef
1004f916
ed0efc0b
e9e900f9
3e2e13f8
edd7d7e0
f01e0c0f
eceaeb23
1916fe03
f6ed2609
f5e4fc09
36f41326
fc080c28
02e00eff
fd1c09ef
fefe031f
09322cfa
c91b0ae5
00e6d9de
0ef90315
0d28ef03
f8f60928
e3f53601
0bf9efe6
1115fd32
00c9002d
12fb13f9
fd0a103c
fad8dbfc
e502d5ed
1902efef
082119fa
0defe8f3
320a120d
000ef60f
0824f41d
fc21c4cf
1e3d0f14
fcf0e0f6
b400e6e7
153517d9
e4f6e9eb
30e81510
f3d9eb15
27ed120d
f1f4e80b
f7ddfe03
29e8093d
1cf52438
cde0de24
f2e9f6e6
0c10e6f3
f40e01fe
f82c4603
262403e2
f0eae506
0d0513ec
ec0a0418
dfea05e6
1cd3e2ef
20f60357
07e6e11d
34f8e9fe
0903e135
e6fb01f2
1de3f714
d005f904
1a2924c8
ea04f6ed
31f6ece2
ecf7f71d
22e7f9f3
ef00fa05
0904fdf4
052b1dff
fefb2114
edcdf225
fad9d8f4
e6f1f6ec
f3eef3f5
e6f3f302
0302f1db
08f50201
06fae8f8
06081a0d
faf8f704
0611fb1b
0f27e9e2
f9ecfc0b
04eff9e9
2bf2070d
f221041a
ebf71a05
fc09dce2
f6f214fc
f8f1fbe4
19f8fa1a
0cfe02f4
ddeaeadf
e71301ea
f5f305ed
fef2eeee
25010512
0a28fbfe
f4032bee
fced012b
fcd3efe7
d5d3c7e2
050bbcbd
11030a1a
fa1c1f26
f708ffff
f0ff06f2
01230300
f3f916ed
f9ee070b
f802f9ea
340efdfe
102a1e1d
d30e362a
f6decbd0
0300fbf2
08f41afe
04ea0e21
f20801ec
06071107
f6f20a0d
0a0d0de8
f0fc04fa
eaf6eaf5
11090fec
ded9bae4
babcd1bd
f911e0d8
080a1504
f1e509fb
fd06f1eb
eaf308ff
fd03e2fb
0f191ceb
0c284412
1b03fb0e
0f0a0e05
fb1aff07
1d2d0df5
1a1a1928
f61e1211
1506ef06
070d0814
f4f0f5ef
f1cef12b
e6f20008
25fb08fd
e4fc2530
f2fd20ee
eb293e36
12eafe1a
1cc6f429
0ffd271c
1c270124
efefde30
23ad0f01
01e60c5b
f30d0bfe
f2fb03f2
f7fc0e10
fdf20d01
e8d3deee
04df01e8
eed1fa0c
08e40e10
fef2fe41
f2040906
fdec241b
f0f40efc
2118fbf9
f723ecfb
2c17fdea
dceee2ff
03dcefdb
f2f6eb0e
e1ebe2ea
09fcdefd
f0efe609
14dc0131
ece3f50a
16f704f8
fae3e602
1500e6e8
e6f50920
0bf1ec04
18e7ef0f
f8f33135
f6e10122
e8000e13
c5f202c7
0724130d
e8f72201
00dc07ec
0ffff900
01f3e702
fc1ceaed
240018ea
d316e6e6
1007e0d5
19dc13f5
fe23f60e
f8151238
151cfbb6
f10ff5dd
fdf02912
eaf9f41d
d3eacecd
3a18e7db
e7eff400
0be0ddff
d406ebf8
e0eef5d1
f419f9cb
0108010d
0af5160b
0bf4cfd8
0bed101c
0f1e2435
00f8e6ff
0e20ede1
dbdfe210
13eaeee0
e0e31623
cfcadfef
fb10fc00
1521eaf5
090b0405
f9e6e9e9
f2e4e8ff
eadce91d
20fefaf0
ebfd211b
f4ebe4f8
1ccdd2cf
ef1a201d
f801ee13
faec0fe3
f2f5242f
060c1d06
0204eb0b
f8110e0e
1bf91a01
0101f002
fcf508e6
fef40e08
e2d3bde2
f5f328f1
fd0f2918
3f01030e
e1e73046
e4e2d8fd
dd0410f4
2130ded5
e7cae013
2520eb06
eb10e3e8
0aec0e14
19f0e4e7
f0f12028
e2e0eaec
e8e5ebeb
0103eeef
edf3e609
f2f40ff9
3125f5e1
d8cdc425
03e3edd0
182306f1
080cf81f
131801fc
e91706e5
ebf6d8d9
02fceadd
e11f402a
faff2dd5
061ef9fd
1c192311
e0edf933
e90c2800
2ae60b1d
20f10a16
e323effb
082ff1d2
f1ea2925
0de5eceb
fd071307
04020b12
e8f4f216
04f4e4f8
ebe3e9f6
fd0af1e3
11fe0af3
e8011a0d
ebf6eef4
0fe51d10
150fee27
eceffd25
ead5fdf2
2604da11
080b0ffe
f202f8ff
f0d7e322
f40ff7f6
f5ed01f6
d8f6f7ef
f80ffa17
fef8fafb
e10d2702
eacad6f8
03101df0
03ed0317
daf8e3f5
3f0c2af4
ee270d28
e6fa04f5
e2cd1303
0f0cf6fe
f4ebeed5
e4e8e7fb
13fbe4f3
2c03fdf8
ef1cdd21
fff2eed6
fc0b0cef
0defe608
1b3bf0ec
11103f0c
0302ff19
ceedecec
c8dbe6e7
360a0ef3
d1f81a49
14f2f40a
fb05090c
e5e307fb
112afbf7
04f82b19
0f05fa07
ef1304dc
3027f9f4
dce70412
051a0ccb
f90d3a47
e0130b0e
f3e0f10b
310bf9f4
081bf700
fefa16f6
06e71518
19f9e017
0bf00905
d9eed6d8
f10b0404
22f3fa0a
ecf1060a
f4ede8e4
c0fef2e5
12f3f8d5
da020d31
01232b1f
e3f22de6
06faf9c0
e903ebf5
ee0c1d00
d6e1e0ff
e8dc0af8
ef0cd7e5
03eaeadf
0def0701
02f3fa2a
1ff0e8f7
13f2e9f6
13f80011
2509fe05
2cf60c37
09e62237
e2d1d7fd
13e4daeb
ff04fff0
eaf2fd0b
13000ffc
eef80011
1fd9e43a
e8e9ed02
fee5ed08
1d22e8f4
f102f3f6
1cf916f9
0616ee20
090cf4e8
01ebbcda
00160e07
f414270e
ffecf904
fde2f0f3
08030b12
03fef213
d7e7e0fe
f8eaf6ed
1eff0c0f
fae7fb0f
11d7d9ed
0628e7eb
e9fc11d5
30d9e208
0206fd14
08fff1fc
0e040af3
eff40007
fdf4021b
26e0e3f9
f5e9fd05
0408d7ee
e2bbc5cf
36faf7f2
f107f740
ef0df5f5
080a05f6
02fe0311
15f4f8db
f611f708
ff0af7ec
f4070000
06f41501
eef4d506
f4ea0fec
e5d7f402
1ff0e6d4
fe0aecf0
1f21e6ef
081704ed
35f0c419
1da3e210
dcffdef7
1ee5ec16
ec20f307
e11115e6
eee90203
0efb002d
f2e21016
1fe6e5f7
41100811
fbf1ef1b
14030908
f1e6172c
ebf70ee7
fde501fe
f2472204
f8cb0111
e8f90800
ffe3f823
fbf10ced
e8faf612
07fde30c
04ea0d24
f6f4dafb
00e6f8ed
f6e2f005
24e4d5dd
064bf9e8
c5c11308
d2c1f54b
de02dd2c
00061bff
05f3f506
0505e410
00010e08
efdc0a24
0bf4050f
060e01ff
faff03fc
eaf6e5f9
1d081b2e
fd051cec
fbd9193d
07f00f1d
cf06fcd7
e30713db
f7e8f505
fa01e900
0efdfcf2
21f1fb0d
03f3e314
050aeb0a
fd040ae5
de1b13e6
cbf127ec
fded1edf
12f40732
e913f10f
f23203b0
e505fce0
f6da2519
10e6e31c
fae3eee7
f3f4f9f6
2ee7e415
09f9f2fa
de40e805
e10728d9
eaf6220a
0af00914
e7eb1d1c
18ddf710
ecf11337
dbf00607
fbda0d19
040ee5fe
f8f3f615
f2eaf2f9
ee0bdcde
231305f7
0101e1dc
05faf809
e7ef0119
0ffc001a
f6dcf301
01f7e3f4
3513080c
2df61b3d
f9ecc911
03e7f2f4
1319f304
edd5de0a
0ae5e50b
07fa1ffd
f508010b
fff41412
f7ebef08
0df6fdfe
020c06f3
f4030a04
d5fd27de
e7143312
05152dfd
121d04ee
e7fef013
f2f9f5fe
0a1714fa
0a06ff1e
0500f1eb
efedfb06
00f9e4e0
fd19f3f2
0d0f12fd
ec27e9f0
efef03ff
e2ebe2fe
f00a0102
fa01fdeb
ebe5f903
fcf00417
0bf20518
f501081b
f4e50c08
fcedfefb
f4f3fc0c
cce0fbce
fbe8eeff
d8f200fc
ede4f1f4
041aff08
0ffa19f4
f5e5e609
edf4fc00
eefb06f2
03e5f3ea
f20cdde9
f7f7fbf0
11f11711
dff20408
e1e2effa
16defbfa
00f5f9fb
f4e6dd16
0bf33d32
1afc060b
f10c1125
fae61a0b
3533ec10
f71bff0b
33f2ebda
ebe9fe14
0fe1f307
d41c2ef0
03f4fa26
fe2a0ade
fadcedf0
f912f41a
effdfae4
fde800de
e9e601f5
1ff0f2fd
0ae2f72a
fed7c807
e6290ede
01e51d04
eeeee521
fbed0bee
e6f4f003
f6fa20e7
1416f11e
ecf6fffa
e4c7f5fb
b22138fe
d9bee6d6
090ecefa
ee131de7
15f406fb
000be7ef
01fafbed
f93300ec
24e81607
f60f000d
0d0a24f8
16070e39
0505feeb
ebeef616
c7df09d2
3cf2ec13
e4feebf0
fcf701eb
0dfd1515
e41404e4
f4f9f721
e9fa1be3
0e13ed04
eff90009
21081507
0bf1f904
24eee50f
07f7e8f3
24160905
fce60a17
2ff2db31
d82205d0
f4fdfdf1
fee4101a
ffef08ea
f809de01
f61ff7be
fce90df8
24f1d6ea
0b11f23b
16c0e2e4
e6f1f4ee
04ecf7f1
f7ed1ef0
d40b1104
db06390e
e60a0a02
f807180c
4311df17
0723fb07
f7fffde9
3713f422
06d9e60c
eafaefec
f41d1be9
16f7fbfb
3c01effd
f026eff1
19c803fb
e20e02f4
28f6f1f8
e403e8ec
11240d0a
eeec01ee
0feafeed
ed1b0205
d9f137f0
20d3f128
0003160e
f8fced22
f40dfa1f
f3ab1208
0bcac6f9
f0310af0
c4f026e9
58feed08
eff0eb20
0508f70e
4724e9f6
e50703fe
f1da29e6
e5d31c0a
24fd03e5
2bf4e80f
e92f1707
06edd6fe
c8fc20d7
1f02f619
0500f403
07d5feeb
faf0113e
ef1ae4f4
fc2a0aef
e0e53de0
ffe8f5e9
06091efc
fdfb161b
d5fde601
2710ea0e
e2231ec8
cac21008
23f5e4d1
1c05f326
0f16f4f2
1710d419
e104fcca
180920ed
f413f9fe
193522db
fee619fa
1ad1ede6
bb15e1fb
d6d025fd
cad512e3
01d5e937
0807f5d3
2a18e2f5
12191dfb
ec10f907
0f0befe4
e500221a
01020c06
e8f71506
1a0a1304
e2200ff7
ebd1101b
f01403d4
c2e1fbd7
1407b2d4
ef3613dc
f0e103de
e22218e2
072a1bb9
eee60eea
eee5e505
08010ee2
e12900f0
fe00d0c4
e107f9ee
2cfa200f
ff07e10f
060606f4
f70d36e8
edd01127
2ee1cee5
e90a22f7
1001e40e
0914211d
07fb04dc
fb0d2507
dcc9f017
fcee0005
0207e1f1
dad4f809
df2308f5
e2f71bef
271f1719
e6eb1f01
cbf2dbd8
211d1bef
f4ff0705
dcfae8de
0700e4f4
edeedae3
f4f8d8e3
0bfe06f1
fa1f010d
f6fa1d0a
dce0ede2
f4e2fa0c
091df7e4
2b291820
0804eb11
00d9c8af
fc04de0d
130c15fb
f924f6f8
f1e70e07
28e4f104
e8e12028
dde309e4
f803ea0f
0619f7f9
161d0bf5
07eeeb03
e516dbeb
0b15f2c6
21e4d20b
1fead317
062811f7
d9f50e01
edf3dcc6
f6f404f0
dd0f161f
1df02823
f2031200
04ef0dfb
0508fd19
ddf9eef9
03f4e4fc
131c1a25
e63238f2
16f035f9
fc3cfaf7
e913ffed
fbef2606
f508f42b
c3f8fbf9
11f22619
ed21ee11
02fd30f7
18f80017
0e0a1819
fef2ee1b
ef0706fd
f2e5f3fa
e3c5d1ce
08f4012e
fae82c65
e0fffcde
1af4dff7
1cfb1c3a
faf5ee11
fbe006f8
250deef8
07fcec0b
1f1420f7
fd270417
1125070b
e51e0000
fff8ff0e
1829231e
fc1e2507
05f9090e
f807f40c
0802fdff
08fe1b15
0a080605
0ce1f5fd
f80afd0a
07010fff
e006f8e7
01e91403
293e190e
c71c25f4
02f1d5e1
fafff7f1
e60aecf8
12fef8f0
07160d0a
fde81004
24ed192d
1eed00ff
ed06f9ff
180ceff5
0c1a190c
f12011f8
d0fce4f4
f9f2fced
16e4fff9
f209e6ed
e4fcf0f5
d2f7f3f5
c5d5d9dd
0707f210
d3121514
1514ec33
faeafae5
072216e6
edf9fc14
ffec00ef
115ef1bb
f4db1226
212de423
0b1c4516
ea1cfe0a
0b0107ec
1af5ff04
f2fefe21
05fe12f4
e3d0fcf9
e10e08f6
eeebeac3
fc0d06e4
0cedeaf4
1a30f743
e70eeff2
edcc3dd0
f0e0e933
d3f3e4f9
f30621dc
edf7fcfc
0f08f3e0
07231b1e
fbe5feea
100a0f0a
0afe0f07
10f50a09
dff53fe7
01f4ca0f
11faf8ff
030f1ef9
f808ff20
00e9f624
1f030d00
e70104ef
e5e6da0f
fd03fdf0
f1e7e5f8
05dffac2
e11df3f4
15e23303
ea1f1617
caf7cce9
13c44732
15e910c8
dd04f205
ff08e500
f3010a07
ee00010e
0b020e22
06fc0104
f222f2f1
ff080b02
07e6c706
110716f1
091e160e
fd07f9f5
fce100f6
0b1ff3fa
ece50c10
fbfaf9ec
10f6dafa
1d17ffe3
f82b2304
0ef6fcde
f423d016
0ff212ef
0cfcf9f0
1b0df504
f3bef3d2
da03d07e
e9220dd0
cafa04f7
e4f4e006
ed0a01d7
eefffe01
ecf12503
12010713
e8d81b08
dcd7d312
ef05e3e3
e8034ede
fee9ebff
e713e4fb
38e1f0ea
ef08e40c
f6e80fe3
f7fddae8
0c0106e5
0a15f919
0ffe02e5
39eade0c
d27fe5db
fccfe7e8
af0f06ee
32fe1621
e7eafdd6
1001e128
0206bbe2
f3ff2edb
fbd922fa
f1f7f8db
04f2eb0a
c9ee1d03
0cfcfafb
f0ff0e01
f2ddffef
153ef204
f12125ec
00f31aff
f788c52c
f71d2012
0c08daf1
0700fb01
e515fbfc
fff3eed4
f0f3ef2e
1738dc2e
fff51bf0
fafadff4
130119fa
ba0f13f8
14e20301
0ae5fed2
0c011be4
06f7f506
fb00eaef
0bf94002
23fe05ee
f113f506
ebe41215
f521d8f5
f20cf905
2307faef
02f0eb1f
00f6f30b
0600de00
cefd1a14
26df0b2a
f03bd8e7
e1fb37ed
75c0f65e
0111cace
0ef4dbfd
0d183106
e5f8fcff
d0ee21c0
cbc2ee0f
e0cf2309
14261512
25dae31e
ecfee1d6
f1f830e8
0101f22e
15cc08fd
310ad643
072cfdd1
08fde200
e70512e2
e92d05c6
fe0610ff
dcf7270e
0be3de19
1423d5e8
c6d33b01
09f6f10d
14eef303
e9121df4
23dc0121
f433f71b
090201ee
fe040533
ed1f0bef
f50c2fec
e4f200ff
21d426f7
0b0ee246
db2b04f5
06fa2801
0f08ff20
1ffb0a0f
17b7f2fd
5218b928
15fee7d2
fa00f8f3
1a10f000
22faf010
f9111e16
1f08ef00
06130fe7
0406e8f1
f102f908
d9efe5fb
08edf6f6
faf7e904
0cdcf210
e50df021
08f225d4
d40d0937
ec1cfaee
ecf134fd
fdc6f30d
f7fde5ee
f6073202
f1e2fbcc
1504f3fa
fe181cf6
28f5051b
ecffd4e5
ffede7f9
09421cec
05f7efe1
f20d0518
f804e9f3
eefc3908
d70c24f9
eeed001c
e2fa210d
0d1ee6d1
d6fd02f3
0a27dee2
e42b36db
05f70bed
f7f3112b
ccfa09fc
30e91e22
164ae712
c8de26df
fce7fe01
1c1d08fc
e6eafd18
18dc0822
24f1dafc
00f7d706
fbfe12ef
020a1526
1dfeee0b
e21afae8
11f10ef0
e40ef5f4
d90bf6eb
09062a15
f2021503
ebf6f61f
dfe008d8
ddf10be9
13da152d
f3ef10fc
2210f924
dc22e9d1
feec2b03
0609f903
f6fa02fb
0648fceb
cfd723df
e4d5d5f4
eedd07e5
fdf8e707
010323ff
dbd3f021
f3f9f9ea
04cb162c
eee5dd16
2214e206
294e4902
eb25f705
c5f216d1
f4f805f6
fb1ae90f
090211dc
e612f81c
252100dd
d907f916
13f10905
0cebedef
0b02dd28
12fec606
f4f903f2
ffea06fc
eae1f3f6
f9fb1407
cefc15d9
f6f51316
dcdcf1d7
e8f5dfd6
dffdbb1d
e0e5f4c9
011d040a
eb132228
180ce8e5
e9faff28
f50a0efd
dafcebe1
eadb06db
f1112426
f1e8edf0
00fc02dd
eae5f2e0
04edd5e1
072407f3
e3dee4eb
fcec0ced
dbfd00e4
fbeb0cf0
dbf2e807
170b23e2
1215f1f6
fa29310a
02d8001b
f23a1c0d
11060c20
d7a7cd14
04101221
361ef9f1
20132c10
0df615f6
f7f70928
e7e8ed19
1bf53825
cfecff0b
f8e708e6
f8fdeefe
ddeafeef
f6f602f0
daeef2ee
f4d3dae2
0703f701
06f3daf8
2d07010c
1514f733
ea05fa13
30ed09f5
f72df71b
1df11d16
f7f5efe4
210203fd
03f0e1f9
f0f9f711
f9c7e701
fafe130b
d0c9210f
e6e806df
e3d9e110
dafa05e1
11c2d9e1
011c02f5
c1d6d6dd
164b37b6
f0edf710
e5e2e1f5
262d2adf
f12b1b25
03fd07ec
fef7e912
e50701fc
0501ded4
fbfefdfe
1d0de40d
f70f1ee9
210f0f15
2919130a
e5ca2e29
eecad607
0907f2f6
f4e81206
0e090814
fcf7f604
e0fbf5fb
0ff10ff3
f701fa15
1f1b07ed
200b1a11
ed030110
dfe201e8
feecd8f2
fbf6cec7
d8e20bee
f4e100ea
03d0d5d1
09f0e9ee
f401fe0b
03ff0305
0102f4e8
d4d5cb04
f5fefd12
1712daf0
040a1606
07e4edf5
f1fde8f6
eed8db01
22fff6e7
110fde20
daebe7e7
07fce5fe
ecf7f7ed
d3e4df03
f8dee9e3
f7f0fdfe
271a18ef
e71c00f9
eff5c6e2
03060ae6
e0f11a1c
dbe9ccde
01ddffd6
ddf9dbef
e602ebe3
eef528ed
f4e4e611
1cf01612
e5e5e316
cc14ccea
c4dbe0c6
08f7d5d7
f811dfc4
e702230d
e4e4f8fb
f3e5eff8
e7dcfa1c
18f705df
eafdf7ce
e3d9e6ea
0c1010d7
0af1fc11
e8f4f701
f3edf8df
06f2e3fc
e3d31924
011606d4
ec2a201a
e7f6e6dd
faecebf0
e9041820
f2d2f2e9
f5f4c8cc
dd2705e1
f0d5f1ff
101cf6fa
f208edfa
e401ece3
4e3228f1
f80b0109
fdf8ecdd
0efeeffc
d8f5faf1
08f2e9f3
ed08f7df
00ebf900
260ee1fb
0f08fb0b
e0f8ebf7
ecffdddd
1e2516f3
39ef05f1
b2d12b2d
f20405bd
ebe72021
1d0fea0a
e9eafb00
1701f911
1f0cf6f9
0d0e0f19
f410fa0a
08e5cafc
f72efcdd
fdfcfd07
01f4edf9
d0e8dbee
fdf30afa
0201ec16
f9030106
1c010ff7
12181726
fcf0fffc
d30511f8
15faddea
0eeb10e8
e3e6cbe1
f800f9dc
07161df4
1702212e
f1ed2a25
e6e3dbeb
052e3d36
e0e20305
0802f8ee
fb0dfbec
ed0713fa
f0e1f2f9
d302fd09
2fecd3e8
0631fa03
d7fefde0
f2d3f0e7
040602ff
1304fafb
0af1250e
f7edf40a
1be5e4e9
ebfd0e17
fd07f6f5
f6050a02
0c01f7f2
04f8f703
ff494938
181fe8f7
c0dcf0df
f9e1e6e8
f307def0
ef0b14de
06fcf6fc
fdf40414
2832000a
270a1f1c
03122915
f0dceffe
ef03f507
dfdb01dc
09d6c710
010107f7
fb07f2f5
12f2f400
0001e1fe
f80aeee2
1d0521f2
021d1814
fe0405fc
e2f7e9e2
eb240200
14f5f6ef
f0051b03
04d0e0e7
f5dfe8f5
04efe11d
090feae6
2c1405fa
ff03f52d
f5f007e8
1dfa0521
eb06fe05
05eefffd
020af200
0b0e1505
f1fc0300
0a05e6eb
e0d6ea19
f0e2f71c
d9f5d5d4
1610faed
e6eaf4e4
f3f0e7e8
19fefd0e
09e5deee
01f8f80b
c9dccfdb
cce2f7e0
f0fcbcd3
d3cbe5da
f2ded3e0
e6f407e3
c9e4deec
0edc0400
211bd1ea
f907f11b
150c03d8
292ff7f9
15f6e5e8
1809f1e3
edde0316
f4eee4ff
f9f616ef
fff10008
06f41108
0eeafc17
0e19f6ea
fefd05fb
ec0701f4
f6de0ef9
fcfeed1c
1afb08e5
0524fe09
cf1120e8
f112f40e
04e701fb
1bf5f502
0215fcfb
0d170818
f301fe02
fee4e4da
1403ff01
ef12ddf5
f7eeeae5
eff10c0b
d8e2e8f6
30cbef21
1714e81d
f2000606
d90111fd
08ea19f9
2fe3df31
1502060a
0809f4f3
06ea09f9
fe110e09
f7ed1b21
e9e901f1
1ed90c17
101ef011
ece40900
f6000d03
dee10605
0f0bfeec
00f8fe04
0013eaf5
100f03e0
f3fdf8ed
10fefef4
153516f8
fe3c0206
15e42b27
1501fb1a
d739f9e8
edf615e2
f6fce8da
daf5e0e6
f2e9fdf5
31e2db12
f406f006
e0e701e1
d8020104
fdd1fefb
1605eb08
02f7fb0f
07f7efdf
061cf30b
f51b2804
ecf8f502
f2ffd6dd
f7f0ea14
1df6ffed
f0f1212b
c2daeafb
dee2f0f9
07f2e4f3
201feef3
f3c7c7d4
3222f9f8
0a17fe40
f80120f6
ebeeed0a
c8d5c6f8
ebea03dd
0209f2eb
120b1024
f9e7f20f
1b0af1ed
0eff1207
e5d9dd03
f0f0fefd
06fdf507
e410070a
000ae6e4
150e25fa
da110c09
f4dfdada
120c2efa
f823f709
fb0513e9
f5ede6f3
e5fd00e6
1125e0f1
e1db07fb
1bf8030b
ebf11628
041615d3
dff0d4f4
0e03dff8
f7ed010d
d4f9ef06
0ff6fbed
dee3e907
f2ff16e5
e9f0ef03
e9f3ffdf
ec130c06
251209f8
221c1935
fcbebcee
1c13030b
112c0b18
1efff8fc
1a010003
f2ff0f05
ec04ef0c
0c230cf6
eddf06e9
f4eae2fc
1d1a11f7
d4ff1922
14f8dd06
fd2feee7
220b11ff
e904f403
fc1ffaf2
e3f2f3df
01f619fe
0df5f300
ef04f70a
f8df37f0
01fd10fb
f6ddfcda
f2ffe904
1c00100d
1d21e916
0a0e0ddc
c9182214
ebf615dd
dc4816cc
a9e41fc5
c6f80dbe
df3f3ce9
261ff8ca
0bebe9f9
ef0eb714
12e60108
1c05ddf1
ed2a250d
d9e612da
0d0afae9
021002f9
f9fdfade
1b1ffaf5
23221a15
000ffeff
e80211e1
0ae1f127
3b0fc31b
0214fa11
d71d1cf9
1dfde9b0
4b18ee14
1bcabee2
1d29e2e4
2234fde6
07f90f18
f3d2091a
19ecfd04
130608f6
29f2d308
eebddb16
1cf5eaed
2515d1e6
ff2adbe8
00efd7ec
2603e0f0
e710f909
fc0b09fa
d31ed6df
d4110ec7
f6062ae7
140ff310
ff0c0af8
2200d1ed
0c44da0b
08edf8fd
faf7011b
f2eb0410
fd1b0cea
0b052b0a
f6f9e2e7
08410abf
e6fb03df
f9ede8f5
1011e71b
19d7dfec
16000509
18d2e923
03f5f124
19e91124
eaf6c91a
e5132817
fa0df1ee
e7dfea06
11edfe0e
1cd9fe15
e839f0e7
f9d4eff0
defcebeb
371805f2
f4ff02fe
f30314fd
03200fff
e7d50d10
ed08d0dd
f8380012
00eafedb
e108efd9
e4e8f7cd
ef3a1e1d
f4edfff9
023203e8
ecf63cd8
0a33e603
fbfcf01d
12eff7dd
f3f40210
dae6f7f1
fdf3fff9
0b090a26
ff062b0f
effec9d0
0a09d8d3
d7d9d619
f416fc00
f61afcfe
0b012404
3bfde3e7
db0a2c2a
271c1ec5
e3f12ce4
e3e0f40f
0f12fff2
e2102324
d9fbebd7
241e0908
07f8f709
f7f8f9e3
07f208f6
fee8fbf6
f5000d2e
150210f1
f0f904f5
03e2fcfa
e0e1ebfa
10f7e705
e3f4dde4
1117ff15
daee02ef
fff6ddb2
ecdcf805
f0e60c42
f01df6fa
0e0304fe
15031616
bddbcec7
e1ce14d0
fdf9d2e9
f1df1cfa
f5e8e8ec
271f1709
e510dcd8
223107f5
ee1f2a05
dfd1210a
edf5ec00
0d0afc03
f0fe0a08
22230ffd
220d1a27
032cfa14
f3081afb
f0f4fcfa
02f2eee0
16fc03e2
ef2908eb
0ae5fa02
0a1502f5
fd02f8ff
23122c0f
0ff4f82b
10211708
ecedfaff
f00ef1f0
df011408
efe9fcf4
181502f2
ff311808
27070d1e
f509f717
efec2012
0808f5f8
f7faf00f
f3201a14
0e0c06f9
f80c0aee
0d131710
fb130508
e7091c06
201af2f9
0f062d24
2a02f0f7
fa051e0c
17fa0702
101ae303
fc001003
efedfce1
11261306
1cf30810
03100c19
0e0b07ee
1506231b
f0f5f511
17f7f8ff
36190a07
fcfc071f
04fcebfa
ee4cf5e5
f6e74c3e
f41407fe
120e2a21
fbf5f60e
0ce8e60c
21fbf5fb
e21cf1f5
07f41bf6
f5060bfe
0dd6141a
1827ed0b
f0e308f9
ef21f7ed
37f52205
2439f20f
090709f9
1009faff
0cf0f400
fa261a16
ee181420
daf40af5
eee40004
0408f4f6
01f7f6ef
f3e6e6f7
1803e905
e5e3fd2f
f0ec01e6
f4e5f72c
08ee04ff
d9f2ff14
12e904eb
f8211bf7
f3e7eb1b
f2d9f9f7
e9fa061f
20f014f5
df12fe25
efd000fe
1f28e512
da031ee9
f9e7edfe
eaf1eff9
23ffe5f8
2056fede
0121eefe
e6eef5f2
f6fbea03
ebfa1ae1
e7e40fef
def2f2fe
12f51404
f1261a00
eaed0a13
fbe9dce8
f11807f7
e8fe11f2
ee01f827
fddeedfa
d300dce9
1a05dff7
f1f9fded
eb1417ef
fadff708
f3f1e0e7
e3f7dfee
f5e015eb
fb0c14f2
ea0a0e2f
06ecfbdd
fc1e2a12
e3f308e3
4be2fb1d
2dfee4df
e201e2ec
fbf2e4e4
0b000418
fcdeea0d
09ec0703
e30b0dfd
f2f5182c
f211ffef
e0edf30f
0f0a0c00
08ff0812
1c01fd25
ea020305
0704ecea
e8f624e8
1505ebfe
1f17f813
edf8f00e
00f50a03
eaf70f03
ff0303e0
d903f9f4
dee5f1dd
ffe504ea
fc02f7de
0f14e4fa
020ef703
e00a02e6
dce1f8dd
110f1cf8
f1141a20
fcfd1f13
f102f6fe
05e1f0fc
1b1df0fa
eaed03ff
e4f30c06
030beaf8
fcfc060c
12f600fe
14f92032
fff6f219
fe1201ea
160b1b1c
fee7e80b
f10501f5
f5ecf301
f8faf2f7
f81d05eb
11fd2d19
fdeff826
eb0819f2
f0e31608
f9f1f1f5
f60409fa
e9081515
f11e24e1
ee0f2c01
01e72f23
0002f907
0a0e2a1c
0a06f417
1c1502e4
ff030502
0ffb0ff8
f3f4eb05
0acad1e4
0a03ee04
070f03fd
fb130efa
0be8250b
1c253114
f6253419
26071717
0d1afa0f
ff020dfe
1506120b
280b0b2e
1eff0c1c
020c1a28
06fdf80d
e20b02ee
05e91f10
0710f2ee
fb040ef5
edeeebef
09fde0eb
fe0f192d
01fef7cf
e4edf303
19312410
46310319
fc231023
11efe5f5
3b0ff503
e2f5e503
d8f9171a
dad902ed
0b0c1502
fced3421
111bf0d9
15f4f108
eff6e4e7
e6eccdbb
3118f223
dbeb060e
0e0fcdcc
fe0415f2
0af0e5fe
f4f50c17
100b0814
ff321102
e5fadcee
08011ced
2312ead2
b7de1b39
011535bc
d7fe01ff
3a1308ca
fd07e80d
daddd7d9
0a10d5b2
15252b19
1af61b22
cde3b911
152e0ac6
0203e0f7
1c1ef8f1
ead4dcf9
eb01ed02
2502ebf6
e10a00de
fee3d9e8
2b2cf904
09220518
ecff1b19
d3ccf905
163807eb
060310e7
efdb1c31
dee5c9f8
0b2119e2
d9f6f1eb
fddfd2dc
2d21ecfd
fe042c16
ed081c0d
dde305fb
fdf8dbc1
f828271d
fd050e0c
e40a02e9
fe1a25f3
fb2e04ec
13f4f80d
dcdeef11
fbfa110d
1de9283d
e6d7d7ff
69746e71
6d727078
666d6d7f
646b7076
71607176
79777675
7c70706d
6960615d
c2a881bd
b4a7cf90
b1c2c89e
b5a5b792
9bd28fa9
d4aac699
a8b3b6a7
c7a4cea4
e6020e07
171f1f04
f61a0315
0018f3e2
e30414e4
2ce8f4f5
fcfefb0b
00ebdd05
0a080708
38e5e911
fbfee209
3613fbf5
e13517f7
e007231b
0d2f03c5
19fef2e0
3603d308
fdf5e5eb
0f29112a
f30346f9
0ce7ee4c
daf2e7e0
f2dee9f3
1124ea09
e21b23f0
1ce5e222
1b010506
fd25edde
210f5443
1ad31ef3
082d0efa
1e023e66
20213cf5
bef6ea2f
b20006d8
000356da
0a06fa1e
0fe50007
042d341f
03f11a44
1013fa04
df16100b
18e5f101
02fef7f9
c9d4cbef
f91ffc00
ffe71d0b
f1180f01
e0d3fbfd
12fab9e8
e2e5e11f
0b0b00f3
07f50e38
260af7fd
f6e82b0e
eae70b0b
f0b1f901
fdfeeeff
0e18f8fd
fc1df70d
d2e30ee9
e5dc21fc
28dbb716
eadd00f6
f1defade
eb0224ef
e0c6f70e
061cdceb
f02d0ee7
12061109
02f3d610
1d01e1f5
d91f1004
0309ede5
0501e9ff
e80323fb
ece903fa
d1f5feba
09ef0915
1a23df06
2c2a4218
f4cbf106
08eaf9fc
e2d4f031
2a08071d
eed32f26
c2d4f716
ced2fc06
fc0dc3be
432c1ffc
efff03f7
effdfbf0
ddeceefb
d4f4f6dc
d0dfefe7
fb00f024
f2fa1a0b
0cfa2c09
fdfe001b
1804fffb
16141e1b
e3edfc03
edf0dbe7
18fb17fb
240c1b1a
def3e4f9
d7f0c9dc
d30a17bb
f711f91e
0ee310fa
d0f1e92b
09dfebec
0afbef08
0600f9f1
d32014f5
eddc0aeb
ebf1ec16
f8e9f8f2
acb3fce4
ddeffdbc
11ddff05
fef4fa16
e1e4f7fa
01e6d4e3
e1d80c0c
e3f8f4e7
d4fafbd9
fae501ef
e3c3b713
13f4fbf1
05e2f910
03eae619
01120429
e405f1fb
00d6f206
ff0edfe6
e7df1f03
d5f4fd01
fbf6f9f5
19132a21
0b11000d
1104f0e0
d8ed020d
e7c3d6fa
19e6ebf6
0f04e80b
21150508
000306fa
f4090af8
01daf300
03e3d1db
0df6f104
32252007
f2ccf21d
0508faf4
edf9e2ed
00072307
ebf2ed0a
06f5f9e9
defdff07
e6c6cde3
d0dacfd6
09102213
1011fe1b
2fffda11
2231f7e0
ceddfaf2
ea0601c6
f7330a1b
1d1e1804
062b351f
fe07d6ff
d6d8eddf
feedeceb
b1cfbfed
181fc9b1
d1e6ea05
efcefcf6
fcf4e4d7
dffdbae9
e2f4e2f9
1af60d07
20143821
ffe6091b
d70ed4ec
d2b8e7d3
0eddcb05
fceefefc
0405150d
0d1a320f
2412334e
f905c901
f331370e
0ff8fd0c
e6dfcdfb
deebc6e6
0600ddec
e21521fa
19fd00f4
011e0208
f7f3f911
ffe9d9ee
efcfd2e9
e7cec011
f9d7c6a7
2b160f20
f828faff
00effd17
0d17dcec
08f300e9
1b1be8ed
e1f62426
ea0d00de
080902ef
ded9331f
ded8bfe7
fc1c3627
f2e6e6fa
011f02f0
e7050ffe
e1f1e9de
00d0d6d2
0428f1e6
2109d8fc
0f2e10f8
06f4fef7
e5e0f606
e7e1d8fe
ed0b0bee
e9042412
e9eb02fc
ff121312
002002e7
161a0e01
12e2fbeb
0c00fe0d
ecec1e05
effce413
edf606ee
e6cdfd10
0cfbf613
12fc0a16
fcfcfd19
07f0fc15
fffb14f2
f1fd1015
d7f8e9f4
0204f7e8
d8100de1
dfde02fd
ecf7fbe9
e8f2fbed
e8f0d808
261111f5
04000f30
f000eaf9
fcffeb01
08f401f4
1ae0cbea
fa0dfc03
e5e60dec
0addfa0b
12f809ff
efdfe90b
0efdf100
fb0605f9
13110efe
ede0d7c3
0afa190d
0303f00d
fd06f1fe
14f9f801
1f391508
f7191b06
04f200ed
1cfeff18
0411090b
1813e109
200c0209
f7fdeae1
fafbf0e8
ea002a02
f0fb0b14
11170dff
efeffaf9
17e7d2d9
f103200f
f5f3f019
e5e0f1f5
1c1ad7c8
e71b2706
4ed21dfb
f820155d
0209fbe8
e2273a2a
17d1bedc
186427ea
e2b7e02d
e9e9c3c2
ea01e4ed
d42620f1
cbdf1521
fde8e3e3
e230201e
bec719f5
f6d501f8
0118fcd7
e3f112e9
180fea01
20fce6e0
f3180a18
e5fd1cfc
fbf31919
d100bdca
f7d8ede1
ed0b1b15
e7ed080b
defc11f4
01020df5
c2d53704
e9f017d6
34e70f29
030b160d
10080a22
f701dc0b
fb070de8
3c040011
07030e1d
f6f0f616
f325f6e5
08f83a09
0004d511
101e25f6
d423e4f7
e0c0fecd
200cf2dc
d723eedc
dde909dd
fbdce9e7
070203eb
0c08320d
02090020
e0fdfcea
f6ca1d04
a2d3d00e
04cd06e7
ec00fa0f
e3e017c6
dfdbe5fe
cde7bed1
eab4c9d7
dd1f0afc
ecce36e9
f10cee2b
cd2418f8
202b330a
1206061e
dc121b25
e2dda7b5
07d9aeea
1bf8050e
e6dc0d27
d910c5ed
021e3009
e99d1e24
fcf80115
fe011d3b
23030d2b
1d0b1b41
03ee141c
f3d5c90b
d8c6d3e0
d4e2d4c6
2fd1ffec
3358e428
12fc18f6
06f61c10
19eee625
fbf9262f
f4e30afd
00030100
030e1113
f8d3ee0a
0bf3cc0e
08f8d6e9
f81e04e8
d6db02fe
d0e7d0eb
0bd3f5e5
0d0e2512
d3f3e800
fefbe1fd
151f0e07
052c2610
ea041301
c8eef4d9
4002edf5
0217fe2a
d9fa0fef
0103450e
d2e41719
d7dafeb3
f30b0714
0f22d9db
18201a01
b90af6e5
00f7d4d6
00ece008
e20df2f3
1c17f9d5
0009f9fb
e6120f19
e3ca0102
0100e8e3
ea1e1bea
e8eae9d8
f41f18dd
db0226f6
200af90b
ecfb112c
13ddee23
15fd262c
0e0cf023
d90615ee
ecdd0305
f0f5fb01
f3f7f8fe
e6f00705
f9060cdd
1afa001b
292e1831
dbf9161b
04dadf08
fce707f5
54f7d306
d10de6dc
fbe01ffb
0546e0f0
fc2f60eb
ebd41c03
09fec1ef
2aecd4e5
fed7e1f8
06ef220b
c0e3e8f4
fa08fce0
d4fbf20f
ec0510e7
eeeeff05
ebe0e0f1
02ebf0f7
e4feefcc
f9efdbfc
03f81e49
e3f00104
1fe8031a
f038e9eb
f2e9ddf4
fcd1c6f8
0105f80a
110b1b0c
09f81ae9
0feae103
e9f1bee1
f7f8ccdf
135407c9
dddcf9f8
f6ead2e9
f5f015d0
e7ec1325
f608c002
05f9bade
f5d42400
000df6dc
02f810f7
f501e4f9
f8f519b5
eb01dbe8
e0db31ed
02e8f917
42dbeb21
e4f3db09
d3fa18e5
f5fd0ffd
f1f906f1
340dff15
effe08cb
e9fbf8ee
e7e5f909
e7ced7ec
1836e9f5
c72624dc
10eaf2e4
1eb53030
340cdb44
05e8fafb
16f7e405
0e08f723
e8f0fff7
eff6f50e
f6e2e3cf
0837f6e8
fc29f1ef
bee731a9
1f172622
0e05032a
111af3fd
0905fefb
2dec16e9
050dc924
19d5e6d5
16000c0f
25fc0b33
1429070a
2aff0213
0c0ceb03
e52006fd
173ffcdb
130122fe
08e3e5dc
fa000f01
f2e9def8
6e03172e
1247e821
f1cd02e8
e9150a06
efd7ec04
01e4d3fb
f607cbd9
230e0bfa
ec15e610
08f2f5e7
ddf0eafd
0dfce7dc
ddfdc3c3
0f2ddab9
03f5e7fb
f803e8f1
13cdf122
1cf8eb0e
facaff13
d9fabbd5
06f1f5bc
11f7f203
dbd2dc12
e9dcee05
d2f8ebf2
f0fdd8dd
cddae9de
fe20fb0e
e20318f9
1808ffdf
000a1516
1ae8d3e6
fc01f92c
28f71b0a
464b022f
d7141700
d71e32eb
0d02100d
160b180d
0cf1f412
2b19d7f2
21201e07
1a11070b
0dff3218
11e8ed31
022100f5
0409eefd
d1d0e5ee
f5e3ebf1
e8eef809
faeaebff
10090203
fa1a19ff
01ef0d0b
fd1916fd
f2e31003
0f0ad9fe
062d34f0
03364644
fdfc39ff
e9f7f9f9
dd02f202
eedee9dc
070315f7
fd051c07
f4eaf4f6
e602ff08
09faece6
e6e0fe37
13eaf1ef
26f62131
07f50538
e8f3fbda
e8ed01f3
15011a21
1210d722
1420f1e6
eb0216f8
1cfaf60b
f014eeec
dfeff5df
18f3cd28
d9f805cf
01f12718
cc07f507
1e2e0ad6
ecdae707
000904f6
edf8fd0d
fffe03f9
0dfa0cfc
fafceaf2
170410eb
041af814
1d1d1f07
d3030ff6
1bfae106
da23d7e8
feee2bd3
fff8f1b5
10eaff05
1812dd0a
f6312bfd
d5cc1405
c7bbdadf
e3ecd517
2314f8fb
20141336
fff605e0
f20f0afe
052a2403
08fa2414
3d2bfe1c
f52b390e
0bfad7d6
1d200f02
39220612
2b0f2c1c
e000282f
fa1216ed
011b160e
2e100bfd
0cf8e820
d9ffe4d7
25132a00
bc04480e
1bf101f1
22140b25
e201f902
12cfe8d6
d8c4f436
dfffe4f8
db002128
05f4f702
e8270ced
e92835e6
f4f1d206
01eaf3f1
ed00f5ee
48dff006
1228fc18
1c00f4eb
15121241
fbf4eb10
d4f91450
281122b5
09e2b450
13fbedf2
2718fcf9
01ebd902
1cd9f502
f1c91907
f9f10116
150cf6f6
d2181516
15e700cb
fe35f2ed
282a10ed
ff4e51f6
f8db291b
0c24f6e7
08303bf3
02ffdf08
fcfd06bf
132e3125
f71d0739
cdef07eb
25fef2f2
fd2cf9da
fc3eded4
ece8f4f2
fc06ede1
1bd0ef13
e8f9d9d0
fe0c0bf7
ff010407
e4f0f8f4
05cce6e1
20152319
17231c0e
32eff61a
d0ef0004
e90f31f2
0706010b
1d042d28
d10a20f2
1cd91538
3c290919
ed22fb0c
cdf0c7eb
05fa03d3
f7022b29
eb14f8f3
e0fa1be6
f8def5f5
0707f0f1
e5140f00
fef6f218
e9f4f0fc
f6f3e4dc
fa001302
00e3fbec
fa02e50c
edecfde2
14fefc0a
04fe1c06
fd000c21
eade04f8
faf5dbe6
d2cfddc1
d9e4d5dd
0b0cdadc
25fee423
d924fff6
dbb6d4d5
e3f3deeb
01f3dbed
fcf306fe
fe04fffa
04f1e1f0
f0ececef
2fe4ea2a
d904f50c
ebf904e0
d0f30bf2
dc34f9ed
e9b54200
0308f406
d328e7f4
f50b14d7
b9e20403
06ddedea
ecfa2dfc
15f8fd09
27e8f512
d2f9cfcd
f7f9fee9
171e1313
d6fb230f
d2b6f4c3
1008e701
f6fef0ff
2206e220
0d251afb
2019050a
ed03ee1c
f5202cfe
0c0b1915
e2f4f0db
1702e5f1
15041e29
02180907
f2f4cdfa
04e3edd7
05121e15
13eaf80c
f5d8f916
ede3d803
efe9ccff
ee0df0f5
fc030ff8
f4ebe00c
e2f806d7
f1eee700
d71409de
dafc12fe
f0d7f800
160de7fb
e606f209
e9d0edf9
c041f3b8
24e44c0b
fbe00b33
f0f9e6ea
1b460512
f80a54f7
0a031f3a
151a0411
0409fb11
f7413513
e6c54022
0af9e125
e70efcf9
f309fbec
f0e4fe1b
e5ced2e6
cade05d9
eae6e307
db111ef7
0edb010b
e80c1feb
f807eff8
eaf6e9d9
cd08fcd9
d706191e
f1f7d3c1
342505fe
1101ff28
ed1529ef
f71e1824
f2f01c0e
0ff9e6e0
e9d6d911
f5e29bd7
07fbf7f8
183e26ea
39ee3131
d4cbdb10
eae3f3f2
1402fb06
1c2dfb06
ff1e3cfd
fd070d13
2104110a
0b041ff8
330003d5
0215fb1c
22f406f5
d04214ef
1edbfbda
0109e62d
9ef2ff02
0faa4105
2d20e440
edc9d508
d6e3c0c1
3921020f
c91b1be3
dcff0d0c
07d8e2f2
fc041401
011f1afb
f8d5f509
e404f40a
141bf2d3
cde20501
09edd80a
f1d52000
1a11ebf8
020a01ed
fd011212
ebf60de3
0401f2e9
e2eafdf7
08f6e4c9
17120ff5
f804fc19
e9f909df
00f3e6ed
f6ec170c
111a100d
f815f3ce
e60efcf1
fffd0be6
fb181612
23e0130d
050bf409
f707f009
d5e8f107
2b0506ba
f30adbdc
e3ea15e6
f50a1d35
fbd3fc26
0cdfcddd
07f9d3ff
14dbe9e9
fc13f000
f50315e9
fdfa001a
3b06f20d
04070617
1e061012
1c0f081a
121c0e1e
fa111326
0a1df4f7
f0292dfa
1acbe70f
1bfbe41c
f93019fe
efe92e00
02f5da09
0409fdf1
171de5f2
2407e407
f80bdb02
1a130f1d
fd041c24
1e010afe
f30ef0fb
201ef2df
0fef0c40
e9060423
d3caf6e4
f0e3cbf4
f7fff403
1dee0c0a
03f6001d
bf09d6d9
321d0edb
080c1222
0dfee6f6
e9d1f1fd
031bf5e9
def1e1d8
06e70cfb
efe9f414
ffedfaf7
02fee101
df0e0fe6
0dd60106
03ff1907
0a00f702
f3f5f109
f7f3e6ec
f9f40afb
fddde8f1
0ee7d4c5
f400da03
25ebdced
f304ee12
edf10ae1
0f142a1e
23123818
f8faf13b
0dff0801
12130e19
01e8f8f9
14dbc2eb
ecfafaf7
220a33fc
26170c1b
f116f9f9
13e1f9e4
1501f821
0efc1a1c
2136ffff
e612fe0f
28f7fd03
fc05db27
2ef6041e
47200920
def60751
f6fdf5f6
0e23efdc
1f03f613
20f2011b
fdf8f81a
d5caf60a
13282641
eef3fd08
f904f1fb
e807f70a
3c20f5fe
05284535
31eaf132
0622fb24
ea010cf8
d1f3e7d4
d4dfdaf2
edf2e0be
1acfe6ed
100bd9f1
ddd3cc13
0fdcf7f0
fffbf10c
def6feed
f524400d
fc2606fd
eb01f8e5
02f8020a
000b00fd
fa0dee05
2ad2fe13
202a2027
f0f404ef
ef0f0403
e804e6e1
edfc15ba
fbe5fcf7
f2f0e71b
0a08ffec
fa221d0e
16dc0300
f4eacd05
020b1b0f
f813dde0
cf3e28e5
f7cf2c0c
e8fd0113
eeeefde9
eee02053
3306cdff
d723f4c8
d0dfdaf8
5b07bdce
e913f224
fbe71e04
f9d3d320
02edd90e
ff050ae2
200ffa0b
fd01f019
0e081a1d
051cfc08
00edf300
0332fabe
06d901fb
1fd3de59
fcf70206
0311f5e6
fafe1405
07f510f3
f8042117
2a0b0415
3400cdd8
e6f0ff08
15eaf71e
f8f206f7
b6d90d13
f8d7e7dd
08ea236c
e8ebb8d1
01db1fd2
3c33466e
e8105062
25311bff
ed2112e7
bd1d09d9
3f1336e9
24effcf5
fdd2f129
e5f304f6
e40c020a
1e1c06f2
fd09f703
0f04f3f5
f406ceeb
f90d29da
facfb5dc
0b0015f3
0132212d
20ef2937
ddf4f4fb
dcd42bab
f6d72c48
db010e00
17f41bed
f5261d1c
d5db13e5
d5fb180f
02e3ebf7
df0a3d47
091a29dc
010ae0c8
d5e3f1fc
0b0addd6
05fbeae8
bcc201f7
ebecfbd3
110b2812
fa05fe02
3617061a
f4260fff
f6f2eefe
f70619ec
0ddce9fa
d4ddd8e3
d3ebe8d5
feddf0e3
f6fefa14
dbe809e9
00ec200f
ec1edde6
fbde06e5
08050dfb
06d91906
f0fa1e03
f0022620
ff06e909
ec1c1204
e6031a14
ddeafcee
0cfa00fc
f9e8f106
f6f1d7f3
df0409e7
df0308e5
e9ee161a
f7effedb
e4fcf503
ffe5e1da
e711f7db
f70cf21a
2a0416f1
e3f6080b
02faf1f2
f70af8f5
ff111fcd
f91f2e1d
fb1201fd
f7fffefe
ebfbeb05
11fcf8f5
2c1c2feb
ef09f702
d5ecfbe1
eed8ffcc
eddcc6d0
121604ef
fe03f51d
07f91809
1af91c3b
160dfa1c
f9120d06
cab72312
03d4d9f7
0104f203
f9fddff0
e2f5f0f4
ea02fbfb
1d040801
f7fcf013
03f2fefb
0ae5f9fa
0408ee1b
14021f24
e2e61006
ecdaf6f1
cffffcde
e8d9efe9
eaf802e6
1be7fcf7
c5e8081f
e3dc01c4
f0f70311
e5e4f5f9
fcf00ceb
0e07041f
06f30805
e6eeeb12
07f8f404
01eb0701
08050102
0dea130c
fc0af316
e3f0ebda
d7f1f208
1ee10cec
fbe7df37
dd19f8e5
2421f8f3
1023341d
ea1b2039
df0105f2
d3011ef1
340e1c13
14350519
1a28fe10
e5f90ff8
01f7e9e8
310916fd
2a300104
0aec4342
10ebd10a
26081917
01e11810
e83200f0
1e182405
fd070f1f
0f0f0813
00ddfbfc
2cee1032
f9e5ea10
24f003e6
131c0b32
f1f2f905
f3160efc
02f71714
ff1702e7
ce1e20fd
f7e0d1e4
2e11e604
f0f2e3d3
1d06150a
0407051b
1a0b130b
4535012c
160ff31b
25260aef
12042633
00ff0ef8
ef2f2115
f40d06fa
1ef9eaf5
f817fdf1
f8d7ff10
19fad50e
d2140cf0
04d7fdf8
0c200f18
3df4ff1b
0b471b26
122223ec
fac7f71b
522a0708
e11d1501
07edd4cd
2242da0f
051722c3
c7c0f2ec
f1f7ccdd
e6ecf4e9
f8e90e0c
2e0dd5f4
0afdfe23
d1f9e0f5
1c14fef3
d2e419f6
e8c8e6fb
16f90bec
1d21e936
fff9fbe5
0423f8d5
070028e0
052cea20
0eef1f0f
3be6d23f
15342fe0
c70df21a
2a20d9a7
f2163fe4
1205cadf
162101fa
edf8e6f5
e6e70be3
20ebea10
182217fa
12f92308
0e03f518
fdeef80c
d307e9fc
4920e0f0
e50b0ef9
f9c2ccb2
08563b33
2013291e
03e81328
c4d5f103
bee8cce0
f1001ae4
060b0207
1d1e08fe
ea12d0f0
0cfa12d8
092715e9
dacb272d
fd1300f2
e202101c
f7f5d4de
0f0031f1
08eaf22b
0601f51e
dbec0ef0
d0faf00b
19f2e8db
fc0aea10
d107fafd
f707f0f7
f7e70905
d804f0e3
fcf906c7
14421d3c
071809ff
01ff0101
f5f20304
f3fadade
e324e1e3
ecea300f
e2cef706
f3f32610
ffe51025
cb1817eb
0a0928e2
05edd822
f2f0e8fb
4208dde4
4201c41f
d7f7d8f4
11e105ef
f9dad629
ea3f0df3
e121ded6
2fefa6b5
4ff6e82f
322cfa49
fa22e8ed
0506fbe7
07fbe509
00f9d71f
e110fbf2
dedb13dd
16f804e0
f3092601
1202effd
362df71c
07dfeded
13f202fc
fd09040e
c10fe7cd
e9d417db
e11a210d
eb0cf4fb
481e0511
f128fcea
1511fcda
2bee1747
0bd9d232
f80f0ae2
eb1313f4
18fef2e2
39dac800
d4efecf8
01e4d5de
ddf7ead6
d6d000f5
0b090d0c
f0dd1418
effffcf2
f2eeb9e8
0ff6e3d5
fc44e1e7
ee793f08
ef135ce6
d2dcea0f
0012f4db
da1224f6
dccf10e5
06fd260c
12ff0403
0cfff300
0dd5e335
2fd6c6e3
020dcac6
5d00cb0b
daecf9f4
0ef6e2f7
fb15dbf7
e1071a03
2010efe1
1d081419
f7f3ff36
0b1fdff1
fcf9efeb
dd06b7c3
04fc06d0
f7161402
23f50823
fb13f507
01de02df
dcfdf5ed
0114e3b7
f5f5fefc
0b1214e2
4828052d
d4d7f921
16eaf107
01edfb01
0aeced15
e5f6e2f4
180ee8ef
1b121207
1aef250b
01fb251c
0919f625
e1f8f5e6
f5f30be6
03232e09
2b05fffb
47160f4f
31332831
140af70d
5141180c
d1d3cb2f
d5021eeb
32ff140d
30210017
e82f27fc
ebe718f6
ebf102f7
d5e1e5df
e5dcedf0
02f80fee
11212227
dee7221a
d9f2dcd8
08e70ae7
0e0ecdf1
0a0e01df
fef3fcf9
27020e01
0904e636
18f201f3
fc15f101
090812ea
091b2113
2111f01a
fb03e70b
1d1c3a29
2b20143a
1826fb04
011923e9
502d282c
1531272e
ebe10420
fd04eaf4
0a17eefa
1e151414
05fb1018
111cfaef
f41220ef
0af2070e
2110e40d
14061be9
453c1e1d
f602e431
26050723
36110f31
07280d3b
21161d11
fa073b42
0b050806
2addee04
110f291e
ede7e317
00f0dadd
3111030b
03e8dd0d
ec35260e
e0ffe6f4
f5ef24df
f6f10519
f2f9f6e9
0c0111e7
22d70d2e
fc19e605
2c271a06
03160d0c
e3d8f6ec
180ffef1
0af7fce2
fb1fe90a
f4e907f1
f4f0f7f1
f1f2eaf8
1e180904
061b1d12
15fb292d
ed132810
06f00a39
1522ff0d
05fa0d10
09faf9f9
f7ebe0eb
020103ee
f1fdf8ef
f7060501
323023f9
04202a1b
53460820
1e20fb50
0e00e829
1ff81203
11fdf53e
1cfb171f
03fdeb05
0beef8e7
f1fbeef4
09efe7fc
fffaebf4
fa03faf7
f3ffe2df
ff2310f9
f6fcf409
e7fcf9f7
edf10fd7
e20d1e2e
16081211
16181318
13f817f6
150a1536
3067180e
ea14000f
f7cdf0cd
f7e8def5
09def20e
f108130f
1507ec22
2ec9fd10
3620ce2c
0f0410de
e5e2e0f1
fee4efe7
1332f6cf
14d3f0ef
21f51441
f40ff722
f7dfced8
1e30eb03
eec0e633
16fee400
e00b1238
