56574231
000ee2e8
00000020
00000000
000001b0
0000000e
aadc80c1
1228a452
59545247
e0bead92
80a10000
00800000
80000000
72008008
f95eefc4
a44880c1
8bd30929
a352c576
cd342407
00c24edd
3721c0bc
02224021
a08821da
8091a0ae
f22a80a1
00004023
00000000
00000000
80820000
55220700
beaaaaa1
a1089989
221122ba
801e0062
f93144d8
1c41122c
0730d990
00a21bcc
d47cbb93
bcc52b9a
02898931
bcbb3340
bcfc0062
834241b3
fbc09c29
9d990a21
00c28989
82354225
a19c9111
aa98ac49
bbc92a47
64a180f1
cb344aaa
5ab2a42c
9989ab84
00a20a0a
c9dac464
097c3987
d382ed2a
91288924
2a9080e1
900aacc2
80b0180c
52c78203
008242fa
ba0f68a9
810197aa
00000000
00000000
00000010
00000001
35408062
55536570
00003425
00000000
00000000
00000010
00000001
46208062
35527380
00009527
00000000
00000000
00000900
00000048
599280c1
00502446
26088000
2db47542
00c1d5bb
50d5526d
0000d475
cf000000
245aedf1
2fed00c1
812ef20c
ddca8ee4
b3ccdaad
80816752
a9185f85
c1accfab
25c21ccc
b8297b86
021a8081
a5b02aa0
6545224a
00707777
80a10000
99104380
ac10b1bc
1b1afedc
004003a8
000000a1
fc0ddf00
d2ec9f4a
509a6724
00c122c0
eeefed2e
8cc463ff
1c35c50a
2020248c
420200a1
26cc142a
02112147
9aa23c12
00f2ea23
398ab120
00000090
40899880
e5a19db1
224c00a2
0cf99429
00000000
d4590200
00a244db
b1121fda
abd30a8c
1acca18c
9109ca92
7fc68081
21d25970
6c9a957b
f4e7ade4
80c1434f
d05cab14
c16cf7e3
00080000
00000000
00000000
00000200
00000000
00020022
0000a200
00000000
000a000a
002a0002
02020002
02000000
00020000
00000aa0
200a0000
00002200
02200200
a0220000
02002000
00002000
4ea200a1
00409522
63080008
d6fffe3c
80c1c754
aadc1dca
004044d4
ff000000
5c27dcf0
afe500c1
6cd0055a
ba7c6df6
56504455
80a1a034
dedeedce
900ba9e9
052618b9
ca1aefda
a2a980a1
c1c43420
7fd11cda
0020fdc5
80a10800
dff9ad08
62aef0ad
0bac52a7
00c0bedc
00808081
b8af5200
a29b82fe
ac9a2421
80c1b99c
a642bc9a
8ee5cd50
0aa9d074
3004a39a
043380a1
6fc47635
aa9b99b7
424bb4ca
80a19a82
a1d41eed
00000060
fff32e00
34a1cecf
02108082
10889889
00000880
b43f9208
80a131c9
9a80020a
8cbccb4a
24c2cabf
6ce78c4a
a35400a2
00a22a9c
a1111aa0
0daa4015
80a189f2
abbab9ac
a5cbb961
56763514
00000040
430880a1
10803224
0a104420
acdbdccf
80a100a0
40080000
6c7767a6
9511ccec
db964cfd
da6f00c1
40dcbdfd
e2fedc2c
cdcf022d
00a1e22d
4cf20fde
ce6ca427
bf1cccd8
247947ed
b56280a1
00f04c9c
2c000000
4e8bdbb2
00c2aef3
8ca92449
0008b928
9b000000
7289d45f
a83b0082
924109c2
d89f2b09
11a42afc
00624339
28183700
998198c3
3ca69889
98afb47d
189a0082
4a210ca0
03642840
00f0cd9c
80a10008
a44ccb80
ddca6c44
d3ae67c5
00506602
008080c1
1ca2ee00
210a5177
4422cd9a
80c14a9c
95acdddd
fdefef46
aa2222dc
a9200abc
abab80a1
ba5563a4
09a2890f
ccb21c32
00623102
8aaaa12a
00000000
537ae308
d4c00a82
a10a8062
01b09993
000008a0
9ec72308
00a2d113
21921c92
1ac1818a
8a1a29a4
b53fc389
4ee280c1
414acd55
0d08a22d
d7a5e3bc
00a2a332
ab1a9010
b2ab14f3
8bca89ab
000000a0
c50080a1
5ac2565d
d57aab25
376d8554
80a100a0
19000000
d962af85
3bd421ac
4cefcacc
aaf480c1
a39cc151
1cd1551a
88949dd4
80c12b92
d34ca223
22e213cf
2a854022
c029ca43
242380a1
00804442
c9000000
8da9809c
00a2cfce
3503caca
00801475
80000000
89225aa1
571a80a1
05299a48
ac09654a
ceaaa021
00c1cccc
66fae1de
2d80087d
5d5dc393
02467552
54328061
0b724206
b08a26a6
80a0009a
00c10008
44444400
67740654
075b6054
00607435
080080c1
75264600
29132345
38839321
00c18022
55765236
65477555
92ac4e75
c20abea9
080a8081
cff92cab
9aa339cf
24229140
00812328
32b9f9df
80000040
abaa1900
0477d4ef
fb2b8081
57c9c0ae
00000020
fe8cca00
00e1b2ba
5d2554c2
7ae341cd
244082d9
23d4cc42
0a038081
b9cacf88
1119a111
caf8211a
808189cb
0a10aaa1
fabcc3c0
ccc90da9
00000090
22008081
f4dc9fd9
1a2b2773
53cdc99c
80a100a0
cc000000
c9adfeae
24353aa2
9dc83a10
baa98061
88200420
9d7668c7
ccbdfeab
80a11242
55013218
80daafea
9429aa90
91aca221
00000010
00000001
50648062
45453744
00004576
00000000
00000000
00000010
00000001
60d88062
73624a29
00009abd
00000000
00000000
00000900
00000048
092000c1
244820c4
ceaa0c90
e04ef008
80c00008
dedc0190
5395ffe2
fd234eb5
35f09acc
18128061
d0ab0800
33f5a09f
12992221
0081c222
c200ce8a
6a77a00f
a9b9aa8a
a9ca090a
81988081
9aab2a08
2a9aa999
fc5daa97
00a2cfff
072bacc8
08003825
12300000
00b09cb9
432080a1
42c3c4b0
ecb54d42
cc03a66a
8081442f
1141ccbb
c73dc390
0774b927
c4412244
9ecf80a1
d29dccd2
dac11aba
aedcb29c
0062b1c0
836bf2cb
b19da9c2
69b21281
0880d809
000000a2
2591c9dd
6ba5325a
579aba35
00a271c4
feaedc33
40008329
ca4c44a7
ae85a1ee
fb6800a2
7bd653ad
aeca5263
c9199bd9
00828abc
4b3510a2
7721959a
104b9499
948bcab8
532200a2
e0385fd6
00000000
a0213c10
0062011b
12bbadca
f29919a0
62525771
3bbcd650
44f680c1
adefdd9a
442a70a0
29345012
80812120
df4c67a2
2a8cdccb
ccab8b1b
0cdcecc9
91080082
9a910110
2caab89b
2082f3bb
80610080
473a0800
adfa5ad0
eb172220
54ea465b
524380c1
a9498844
0cc5555e
c2eecc2c
80a1fd28
d555bc23
c694056c
bca0bc75
26dfea9d
b47200e1
2d56d5ce
0000dbc4
00000000
00000008
0a22aa00
a0002aa2
02a00200
00000000
0a000000
0a000000
0000a02a
22a000a0
00000000
00000000
0020a002
20200000
a2020000
00000000
0002000a
00000000
02020000
00a2000a
a9a44c03
139b8429
ebf54b81
0000c051
000000f2
bc910295
2c8224c2
aec55094
80629d14
aaaca8bb
1aafa260
890942c2
a71cd0db
5ad60062
4579d637
ba427c94
afeaa91d
00a1a2dc
a540e3f0
95677250
acb41a56
47766526
673380a1
4024d542
00000000
3a038532
00a12882
c42a5445
f7fa7a24
d8d23d45
f68e4e20
212b80c1
96b92b99
5156fa6a
bcc8a220
808183b0
02431275
26a03142
848a1441
98521245
a30a0082
9b1830ba
0c9bb109
802bf882
00c10000
40dd0008
add90dfd
eccaccdd
44f154ce
09ad8061
832cabca
5701235c
c0bc0230
80c1df07
f822ce22
5926a11d
c84ca255
d9caa0bd
c10c80a1
9dc90bbb
26760094
16a93261
80c17525
8ef75267
0000d072
18d20800
469aa445
6a0580a1
5166c424
8434e040
17744539
80c17c4e
5c8156f2
e2e152dc
00ab41da
0dedc039
14940082
2aa2aa7c
90a0aa34
229b0a20
80a14204
146a5545
eccca92b
7e5dcbde
800840ca
08008081
492fad49
e2608a04
eda47a8c
0062ac78
8b99011c
a58711b6
09c0a96e
729e1b22
428f80a1
ab233e06
f0676546
492365d5
80a12d19
940a2c2a
44236642
45a8acfe
941a28a2
241180f1
3026a12d
00808000
c8b221aa
00a113d3
9a256224
60c83742
34e4aa9c
744cb062
88410082
948a9809
2937cc29
8221a812
80611334
00d1af22
24432653
b0a0a028
0ab8ac88
79260081
475c0544
cb807cb4
58bc2270
00a10000
2caa0000
ccc2afcc
410ee54b
4d24bc08
131380a1
0ee02930
8219fac2
2c475082
80613193
2eac221f
1742dff2
cbbd4241
0aedcdee
ab0a80a1
9ccb8b21
e55489c1
34c42b2f
80c1af00
7fbdc6cd
080090c8
ceb90000
cb42aa69
a42b80a1
46841d11
c4626ca5
04d18d4e
80a1a6f7
4b06146d
3f3fe808
7cd6a4cb
625a4b37
b0820062
313772d4
40130971
35419429
80c12003
01343213
ab9cba4a
d57ddedc
00004819
000000a1
1dd4642f
166434a5
5ec16674
00c1e450
56622554
4c0cd52a
6ffde09f
c264ced4
a98c80a1
2b118672
0818c242
1bcdc21d
80a192c0
0d0a2340
a0189cb2
eeafaa53
a08a14c3
132080c1
900c7d25
00800800
54449b92
8081356c
0a938bac
290614ce
dc2f8cbc
a2c0e202
54c40062
39892244
a92e7421
199019a8
80a1ab9e
32c282fe
9c9a9a9a
615574b2
13204654
00000010
00000001
72948082
b1145130
00004222
00000000
00000000
00000010
00000001
32c38062
754774d0
0000f697
00000000
00000000
00000900
00000048
902900a1
124aa435
a898a40a
c3567517
808176ed
badc7244
00b0a98a
45000000
1c2d1a12
eefe00a1
bc26c2cd
cc5caa2a
cac8bddc
00c1acac
a5673540
4a9264b3
61a5ba02
aa775458
8a9a00a1
43cc8ca9
2776cf6c
945a7774
80a12ac5
e99fec0b
afdecaff
beb9feef
00e0ed9c
080880a1
776b0008
a1bc6d75
234581a4
00c12261
44a4241a
8dffef36
daccd4dd
2aa0efcd
c9a88061
987ebe0b
ca1da8db
4e3ac9ec
808174a3
efbc1c83
224331f4
ccc22842
ee2b8852
ccdc80a1
342493cd
08008050
cefeed00
808124c8
31347722
42a97aa0
a0aabcba
ccca8d9a
ac2a80c1
abbccdda
24400455
3346722c
80a1384a
25331ab3
92320274
00000000
08008080
02200000
00000200
02a20aa0
a0200a00
00000a22
00000a0a
0a00020a
0a002002
a020a0a0
00aa0000
0a000a00
aa000002
22002020
00000000
0a0000a0
0000a020
2220a000
0a00aa20
202380c1
ac1bc820
df3dcbc2
5354cbd1
8062ac24
95241809
00101372
8a000000
198a08a8
37580082
a408bb2c
cb1bb229
a9989808
80c11aa0
a4ddccac
4915adcc
d6251444
97d27a7e
70ba80c1
ce32d5a6
64260282
91800265
00a220a1
21a88301
467423a2
43443352
00001342
000080a1
eddeff00
baa2aa42
1abd190b
80a1cce9
89b8a9fd
89caabb0
ffcebf0a
0520cdec
201980a1
1a273b0c
2432136a
052e2c02
80c143ae
229ad1cd
14223300
64566631
77453554
556580c1
42443544
00000820
64675500
80a1ac54
21c2eebc
c2128a21
42655545
65545719
5c4680a1
334102be
3208aaca
caefac19
808131dd
af190022
a01c44e9
48293464
0ca080c9
ae088061
8fcddad0
a41bfee2
dc761710
80c100e0
ee888000
41ecf2cf
2111242b
8a0bb110
ffcc00a1
debec20c
eddadefc
662575db
80a12a32
458709a9
10bb1474
14880001
84508246
8a898081
a9baabaa
549a9090
475562a7
80816675
23112940
00504422
76800000
81504387
229a80a1
2a236744
5434c123
23665455
00c12980
eddeae83
12abdffc
0c042a91
a8084522
01288081
55812980
cfdc2249
14d2fdcc
80a12248
ccac4924
fd0a2429
b340ddfb
08880cc8
000080a1
fb485200
2a46d6ed
9b39cb0a
80c158a1
eeeedc0d
fecdaced
cc40dccd
a22801c8
291a80c1
85c4edbf
89245273
c2dbab5a
80a1a10a
88312233
20182282
acbaba91
47668422
9c1a8081
57c39cc8
80808070
a2781200
80a1f881
42453992
48175122
0322824b
a2813030
8c1880e1
c9dcef9d
9aa9a89a
18d59118
80a1ca2d
4ca0b0ab
abca56d1
dab54fec
8dbccd5a
9ab380a1
beab08a2
e250fcd2
771ec70c
008280a0
a8000000
21a3a884
2cc9189e
acffcdcc
99fa00a2
a3199009
99920880
9ab18d25
80a19131
a4113241
2af76aca
12342bb4
f249e6c1
508400a1
8a14aa14
47110402
2ab150c0
00a1aa54
a149842d
00182aa0
cb000000
c43fed8f
0c820061
d94affac
ac9ccbac
30cabcdb
00a14ad2
dccbaaaa
1422048a
660d2409
4b957a06
900400a1
09658028
64252228
a07a5667
00a10208
89882120
d8ce8fdc
b218eddc
80b0aa92
000000a1
0550b200
fefd0fe1
2eea8acd
80c0e0a4
9dc0293e
31b6540a
79744556
24526605
281000a1
13a58c8a
000002a2
879aa81a
8061c90a
325a2674
a99129ba
aaaa210a
bf1a4680
19e480c1
ed6775a5
000000a0
ccd9cc00
80c11a25
943dc234
26646257
9b983341
abaa11ac
eccc80a1
5974468a
24312aa2
9546cf4a
00a1247a
cfa05034
479d24fe
5a1cd662
443456c8
ac4400a1
a58828c1
e15dda54
bcfe1dcc
80a188d0
84000000
88fe147a
30c11acb
54456664
e96e00a1
2cfacfff
4c45aca4
058a1991
00a1adaa
2ece9acb
88761736
da1aadc0
817296ce
00000010
00000001
50458062
23456577
00006222
00000000
00000000
00000010
00000001
a0aa8082
23baabdf
0000e980
00000000
00000000
00000900
00000048
d6aa00c1
502d2a36
dfdc612c
40d0ecf8
00a20000
d3a20000
fdbc9158
4358a1a8
cddda92a
cdde0082
0918b9dd
000ca111
ac446207
80a11cdc
5680d9bc
aecc4ca6
a04a13dc
fc234283
42c20082
11ab2a13
1ab04310
aab2188a
80c1fc29
eff43fdf
0880e0ce
74ce8008
9d2d5fec
1fda0062
ddcc2ac0
9b2b23a1
9b1a9bf2
00e2baca
3328cb21
d19a4042
452090dc
a18a4473
ac9080e1
229bac9a
ffa82d24
dcdc4d64
80a1ddcd
ffa91a23
7c1947e5
421652b5
00882064
000800a2
ccfe0d1c
28140ac1
21122322
00a1a408
aff64a4c
777448d6
1a721a64
45fbdded
7a3680a1
530750d9
23219218
1bb9a04a
00c255a9
c38aac20
981a1342
dd925244
37543aba
5a7200a2
c0affea3
08080000
1ccc9224
00a2fdea
dd6aa544
c6acbab8
def54d0c
c8dceeef
fe1a0082
ffecfa9d
360030dc
aca36193
80c1a939
55a529cc
9f432334
ecceffec
25ad0bec
223480e1
ff9c3255
5cfdffde
e03d30c6
00e28080
440d8800
5232a167
44565545
c2a9ab18
430a0082
c12bacb3
cfbb9bbd
428af9bc
80c1b934
e1244e89
a2a2a97e
ac9aa83a
8aa8c89c
c23600c1
536fc670
80002127
00000000
00000808
a202aa20
2a0420a0
220020a0
aa24a020
00000000
00a02000
02a2a000
000a202a
0000202a
220aaaa2
2022222a
aaaa0202
202a040a
02000000
2004aa20
20224020
a0ac00a2
00620a02
0ab90180
78c90481
0aa3db44
08009824
080000a2
455192c6
aa3bfc34
5407528c
80a15e66
565ee4df
7753a762
2ba55269
12c85e40
48100082
23b223a9
8101a09a
29010420
00a28f82
c22acdf4
91192044
45320832
a9009443
42a900c2
20235492
80008000
26752454
00626351
57f90934
25142133
38944329
1a1923a9
41c10062
365491a0
2393b851
3cc2c970
006210c1
41029822
85119218
02237591
11239142
ac4480a1
fca3c12b
93f2ad1c
00a1c20e
80628008
1fa00000
1040c915
8829a768
02118aa1
420e80a1
50aa1ad4
9bfc9cae
cd81edac
00f2a5a6
ec193ea1
00991a8d
891919ba
dd999a0a
ecdf0082
09a98ccb
19890182
902b1180
80a118a1
43343444
80087866
943c0080
77454ab2
724780a1
54030267
42254025
c0aa2314
00c19434
c65ddd74
66b2ea25
2cd04c06
4446fd4a
365200a1
04810a28
22eded42
41ae75d5
006244c5
88822422
42427c12
8ac2bd78
00000088
088000a2
2021a715
034692b5
56745573
80612088
085f589a
92763055
abdc02d8
721a10da
b63e80a1
d0f209d7
45408353
a022b831
80a152a9
c8c26527
545d3594
0c208444
e123ddad
12998082
98092222
08000008
88641137
80c1b90a
0043355f
7e574684
44a0a9dd
442094a2
13180062
29748392
a802ac22
1810cc54
80a1129a
28802409
542219ac
5643dc59
43a73862
244500a1
9dfdda5c
ce4c5a04
089aac1a
80c10800
a4ca0808
47e549ae
dd567035
dededeec
ebc480c1
9bab955f
02a0ccca
c0836a12
00a1bc8c
7207e4ee
0bccc556
322122a8
fb322455
cc2a00a1
dba0efad
acd2cb9f
b2c0a84c
80c1b414
425a2143
0000b8a1
34470008
8b2c4274
a9bf8061
cbfede94
9099a9ea
b11a909b
00a1aded
4149e2f1
c2941869
d474dca0
32025424
49940061
a40c9c48
76b5e991
ad0c5847
0062d0ca
d009adb8
7a020100
db9fcc94
8000b0eb
000000a2
9159dca7
03518cd0
ca0ccc00
006284cc
9ae64dee
99aa2dda
aa19dbad
9e0732b1
df0e00a2
dc0cfca4
19b329ab
a1399b21
80c1ca98
4494ddcf
40c6692c
dac0babd
9d2d7ba5
48df80c1
b8431235
00800008
17e2505f
80a19d65
ef8dfbd5
f7efeeaf
cf992a44
1cacad02
5cdb80a1
93cd9c23
1b4952a9
322207e4
80619c44
c08a9c9a
49ba8c92
cc33af88
edae2290
00000010
00000001
35558082
d342b350
00007349
00000000
00000000
00000010
00000001
40f58062
76753698
000004b6
00000000
00000000
00000900
00000048
00000000
00a00200
00000000
00000000
00000a00
0a000000
00000000
00000000
0a00000a
02a00000
00000000
2000000a
00002000
00000000
00a00200
00000200
00000000
00000000
000000e1
00000000
0b020000
a1a2c008
00a1a752
ef128a69
551ee24c
88a18dea
00f0adac
000000e1
bdf25e00
cedc5325
7854dde5
00a1da57
4ca43663
d04c0a23
ee72c31d
d3ada4cf
2aab80a1
d609aec0
a999cb5a
72ddac9a
808121c4
304a2445
3aa202d0
e42fca13
0bda0aff
0aa200a2
81bccb88
008000a8
1b82cc00
00a10976
f52dff0a
62a77bda
f00cdf6a
e08d74cd
81de80a1
ccdeed54
9cabc09c
82ccc4ba
00e1a27d
8f0a0b8a
90602af5
45565294
accdd24a
40c900c1
c6cca990
2d07710c
9050a403
00a100a0
72000000
2d755c67
55cbec0c
d3290846
226000a1
45665677
22ab5014
080c4406
80815a82
12191103
90952cff
8c812109
aa00ccbc
9a0000a2
982809a1
123040b2
8aaa9a10
008287b1
ab84c098
00a099c1
97000800
b3c4f511
bf0200a2
b9884013
219b8095
842a1119
00a2c1c4
9d7ba904
981b28c1
d8a6ac29
a850a4d5
08118082
26f11b19
8888a0bb
00808888
80c01800
c05eb136
ffeecdda
4440fffe
00500546
000000a1
76554700
dcdd2e04
0892cdce
00812644
9fcb4240
cccccbed
302893a2
42132385
234400c1
a3dafe4e
52156534
a2da4c44
80a12280
92033dda
101aaa00
2ab35088
0750a4a0
3a448081
90193282
00800098
50170a00
80c13207
c2aa9fd9
cdfacdcd
9042898a
80555508
bc0b80e1
99a42d05
43440232
aefb1b11
80819945
a2423024
b149b5fd
a9911aaa
2088a198
999180a1
baddfb1d
56272bc2
ccac2842
00a200b8
ee008080
615711ca
bcbcca2a
209ba218
dc1e80a1
56cbcba9
e3efac2a
54aaaab0
80e1cacc
03120291
9a25c0cf
1c232211
ca90adb0
08c00081
0a522755
aa4a8a28
cc402025
00e14727
06664954
00c05575
29000000
aafed458
c4740061
fcde465c
c11ac89c
04fe9bce
80812ce2
108ca823
2ab2a98b
c628a332
87167110
7cca00e1
9bd1c106
d2addb82
cd0d0b81
80a1d30c
24128298
5441229a
4a012499
00901c57
000080a1
12159800
89c29d77
5104bd41
00c18c45
2a23cc8d
27325428
fede81ac
c2cde95f
08aa80f1
d034201a
a3989bde
58052a09
00a128d4
53510524
ddddfeae
047c46ed
576236c3
21110082
88670701
80000010
73860200
80a10165
2862769b
c9b09cac
0a444204
21a121ad
cacc80a1
10615700
20acb809
4a040c9a
80c0999b
0439dffe
66d0fc11
ffeecccc
002350f4
828a00a1
6e765545
a4040ce2
a2211044
00c10020
56000000
44215762
103b9341
0118c10c
cd0180c0
9b0ac50d
94564af4
cf2154be
00a13003
25a9ba08
22e27d35
12011000
46412255
02000000
00000000
00000000
20000000
00000000
00200000
a000000a
000002a0
000a0000
00a00000
00000a00
20000000
20000a00
00000000
000a0000
00000000
000220a0
02000a00
08000081
08800000
44810000
1a4e5752
806148aa
aac81a13
a980a489
d729a0a9
00c09a9d
00008081
a1873000
2b900214
0aaace9c
00e1abd9
c84dacc4
d23555ac
cbc1afca
20a1132d
422180a1
4be1c429
4a0483a9
fcc3a341
8061c1a9
22544434
a009aa10
7734479a
adbc6a25
ffed00c1
50345664
80000030
ddd0ad00
0061da2e
662612be
a5600aa4
1cbcc1ba
744667da
455400a1
a1aca954
24400413
70951a0e
00c16c74
af5cbac5
ceaacced
14cbdccf
ee0ddc25
49cc80c1
218db4b4
c4455fc4
1a9d4a4d
80c100b0
80000000
5d44241d
5ae1d75e
906fe025
cccd80a1
3309b410
062a5ac3
009909f1
00e20dd0
a393b990
abe3415f
19c0929c
b8143d29
00000010
00000001
43038062
7b544564
00006503
00000000
00000000
00000010
00000001
29018062
e990127a
0000b508
00000000
00000000
00000900
00000048
000000e1
c3020008
fd4c5826
5c0255fd
806204a0
ba1d9889
80a90b73
98011190
89181812
c2238081
aaea443a
2bf7aa3a
003b9898
00a120b2
34025e77
0000aa4c
57840000
cd4cd684
a19c8081
1d69b3cc
0000ea20
b8010000
80c10ccf
d88cada2
22ba8a81
ce810894
cbab27f7
a28a80e1
570a9119
45445a14
591d2a20
80c19dd3
dc4d3985
fece8cd1
90a1289a
80088449
00808081
74440403
ccb03a32
75599129
00a19ce3
00000000
5aa2050a
dca76d8a
29464574
92298081
dc76a8a2
09892291
20a199a9
00c19a01
baa0aff2
0edca43d
910021c0
55655641
404400a1
420541a0
08088008
e4adac8a
8061fd88
b2baaccc
37654bf1
80000000
99980001
239900a1
a0aa024a
80008088
fe9746ac
00a1aad0
94aaaa0a
2390242a
08a0a043
a75dccc6
c0d280a0
cdc4bacf
7476ffdb
00011110
00a19001
40080000
a9420094
22ca8449
2deca57c
000000e1
fa010000
6fdaa53f
382de245
00a204ca
22391909
ab0042e5
d008a009
69b1174d
b48a80a1
8a9d4cda
9b21a2a2
42aae67a
00c19813
0ced005c
00002482
90030000
8e867baa
acb900a2
c74ba909
00005edb
900c0000
80c119ca
ffd55b45
4082e45e
bed99040
4225a9d2
825280c1
350dc119
cfdc54c2
59a0a2b9
80610645
a322027c
20853228
22ac3053
00007717
000080a1
39109001
acc33a85
acf1aa50
00a2094e
08000800
4e914203
946ac4b1
a909fadf
dfcc80c1
c1ece533
5244893a
4599a655
00c2c5df
ff0f8352
a8a1113a
9099458c
dececcbd
e2ff80c1
b34ca223
00000000
6ddca90c
80a142d2
4a0ac24c
1efea6b4
00000008
e01a6605
02118082
81829a19
18189808
04fc2097
80a11130
66ca0c00
8a56c29d
42a4db04
455dc357
b1ae8061
9a049a73
d7de4cf2
33331364
00a10008
2e0c0000
0425704a
64d8c27c
92ddb7c4
00000081
ce0d0000
1c12c528
d0dccfc0
80a1c20f
a6ce218a
1842d3da
8c010811
2828f22a
c59400a1
adc7225e
baa4e56a
12548575
00a1df0d
821aca42
00001532
190c0800
dfda2cde
ccca8081
e70ccdac
08005abc
31010800
80a1a911
276ed9bc
d4ba6fb4
c3e2554c
ddee7619
01c880a1
574ce155
07544885
40244074
80a13433
42054452
54d21a53
82896047
00000122
000880a1
5cc9b10d
75555726
26554b46
00c10d23
00000000
d60c950c
bc657f74
f2fedf94
422000c2
d7f1b5d6
aaac98da
b4ab90aa
00829900
29909382
dcc02c9a
b13ab83a
ff2d8091
442b8081
41441542
00000080
6a3e8f01
0082ed0a
aac9accb
09b9b7a9
08000000
83828a8a
305300f2
01229c90
12201210
06dd4012
80610021
11430112
b975f13a
2632438d
82328ab2
258200c1
054c0d76
dcdddd6e
7515c42a
00a10000
02090880
bf0f5ee9
0a54eefa
d7a7b43d
008000c1
c50a8000
05cc2b1b
6c567755
80a1dddd
4f00cccb
aa29aac9
9c228299
c39dddb1
56558061
8bda5761
debcdaaa
99cbdabd
00e1aa89
525725ba
0000a842
04040000
081a4453
adba00a1
0efcebdf
0080c70e
670c0008
00f25ae3
a129c3aa
0b82020b
cd9aa101
2231ac6d
0a8380a1
2dba32cb
9eb5a80a
2cceab53
8081cef3
84f9b254
75012318
9b22b9c3
0880cda8
000000a2
c2901109
9a1101a1
5fe2951b
80a1b273
00008000
b5764c84
8a966050
c29c9cbc
112c0082
09aea729
8aa99929
f1119d91
80a1102b
c15fd523
244cb235
c966baaa
dc3ddc8e
5c4300c1
5442840c
00080000
4efdaa0f
0082fcbd
3b91832a
214ce733
00000008
8b9a0308
34cc0082
c1cd8823
13901980
af692044
806188a0
98cda828
56fc2091
81afcc1a
ca991052
009b80a1
425946d8
f8cd0b42
3390100a
80810008
2a038000
9937b433
c0cfdd0c
7a3aa98e
00000010
00000001
20648062
6314775d
00007445
00000000
00000000
00000010
00000001
70748062
53243276
000059d6
00000000
00000000
00000900
00000048
c08480a1
20a444cc
93041412
63229a8b
80a11a72
2aafa0c2
88192492
ae0a990a
ca514a19
16f280a1
73edefbb
a9185693
09cba811
0082497a
1cff3ca8
9002101a
691d0108
2bb8a295
cab48081
fc7c1c24
0882c1f2
baaaba28
8081abb9
0bb29a9a
4762a430
b429993a
00cba819
2cc900c1
40a05501
daade9fb
2dc8accc
00c1ed87
d82a0d85
ecbedead
cc6adcdd
c1b9efce
89088081
9117a998
80acca49
13ccacc9
008234a8
15aaaa09
9b99cab8
a24832c8
af012253
41140082
aa7ec2ca
90010899
7ac11a39
00c25b2b
fcde47ca
a11fd419
b0819a13
5c3a2cca
0d9c8062
208014fb
02121882
3a4e1011
00a288a2
38c141b1
da3bef6c
80119289
8ab9800a
12cd8081
a0202984
900a1801
77aa6b54
80a18870
0b229890
b2cca9aa
55072422
dd890110
cafa00c1
b9aa4dc0
e7fd4024
dd4dc055
8081aaca
810a9899
aa01c1ad
f9de9aa0
89547512
dddc80a1
acaba8dc
2422a498
05aaaa2b
8061a974
2dab0aeb
0ab0cc92
3418a198
94761c30
248480a1
7220eb4d
0a42a016
45aca000
80c14444
02ff0dca
a218c04e
7521228a
8c1cf292
c41080a1
ef2849a8
db2a9ff4
bacbeecc
80c100b9
574cfda1
c9125926
98a11119
28949342
99090082
3a375490
99a8ab29
3203a9ac
80a11232
cfeeeea9
945bdcb1
22545424
91310a44
bdaa8061
b04534b8
909aa2ef
553492ca
00c14441
48a090aa
835262c5
255ec552
8444a0fe
9a1a8061
a5649548
831990a1
ff0dca00
8081f76b
57582776
a9baaabc
a30aa09b
48aa09aa
48a28061
09a252aa
01221991
4edd062c
80c1ccfa
8aa50cdb
a85ca334
fea9bcba
9b9ca8d0
eca180a1
4f465734
7773c4e2
a2681137
008222c4
34010810
0b293134
bcfcffce
099ac800
082280a1
c9a20c9b
545788cc
4a246656
80a14566
92a53153
85455648
1f19414a
025204ed
a88980c1
cad1bcb8
aca8a228
84212df4
80a16aaf
390a18b4
12c10dce
72201420
6dbd044d
a8fe80c1
6646c9eb
da9d4474
9e9811da
80a159b4
32b15442
1004a94d
7ca11111
a9fc9e4c
dcb08061
527cf22b
3021aa65
22221211
00611120
9ca44042
4475c68a
0933a021
82ca442a
9ccc80c0
a54e0acc
e293cfdb
0d157c24
00a1d441
8312808d
65273720
becd0a67
0cb0a0bb
a8a200a1
44090224
59a025c7
0389a8a5
0000a1b0
00000200
20000000
00002200
00002a00
02000000
0a02020a
00aa020a
a00a00a0
00000000
0000a20a
00000000
2a000020
000000a0
0aa20000
a0a000a0
0a200a02
02a0a000
8081aa02
80000000
80800000
ce704cd1
dc0cef0c
ac4a80e1
ca143c02
cdaca7ac
0594d5dc
00a2ab3b
34a01899
b0a29205
1aaccf89
caa60daa
184900a2
8321001a
a895d3c2
ffcebb71
0082890a
d1810919
ba7999f7
1a18a40a
22b107fa
64548061
99102067
91ac8919
15a0981b
80a10477
8204ba4d
aaaa9550
fe000098
5a66a1c9
d05400c1
dff348cb
5602d50b
47aa5c55
80814b25
cdaccc21
a38adfcc
a91c4210
9a778789
440300c1
ee3a2102
7de2d1fd
8e54da07
80c1b678
2ee77a22
a300db54
91cc1b29
81ccce91
39a180e1
569d4502
54aa74ea
1b50254a
80a1dcbc
89c328cc
dff42e2c
0a02d249
8dea91a8
a0a08081
4ca22038
9a2d1925
245ac7c8
80a12026
85b23dd8
30939154
cc425549
9c32faaf
242a80a1
917429c0
10a0b2eb
acae1a44
80c1c2be
dd999382
de8a109a
2445a9a2
7289ad21
a93b80c1
576266ea
449080a8
ce0f482c
0062acfd
8aa01218
dfe9ae2a
00000000
00080008
00000000
0200a000
000aa200
a000a002
000000a0
00000a22
20020200
00000000
000200a2
a02a0000
2000aa0a
00000002
200220a0
00002002
2aa0a000
0222000a
022a0020
0a00a222
00000010
00000001
76448062
07525645
00007056
00000000
00000000
00000010
00000001
7e4c8082
8391b03b
0000b0fc
00000000
00000000
00000900
00000048
4c4400a2
122214fe
a72102a1
2416ff7b
80a1ca44
547704b2
543524ee
dd463053
a53654d5
ca2380a1
56175550
b92b44cd
08ba9899
00a20000
97a08800
3100da4c
04480211
15ba112a
454580a1
000010ed
c5ac0080
0469ffde
00c26dcc
7c54cca1
aa9a812c
2109a998
294abcc9
256680c1
fc1b2d65
c4c39ede
a82d7557
00a2adad
98980929
00088088
fcd48208
2aa84168
48a18081
ca8031a9
7d41f4fd
0000883e
80a10008
41dda99e
4a044450
ff4ec2aa
ba22f0ba
aba90082
219a90ab
e3507316
48a199cf
00c21584
ef0e2364
c9443814
28910889
00800023
06000062
b1593475
24455323
49a44a34
80612245
00371aa3
00800008
14cac96f
0112dd2a
f62400e1
6de1eedd
34d5ccdd
c4c50dbd
0062465e
abaa9cb9
b5bbca9b
df9d2263
ca922aba
aa0b8081
002108a8
0f800800
a15da409
80a19201
a38cb932
98ddaacd
f0defeda
00000080
081a0062
8ad98620
281ab8a1
804cf3a2
80818013
9c14902c
84bcb772
010221ba
c280acb8
2b298061
69c986a2
d9722596
00baa90d
00620000
07588908
112048e2
ba988a88
43ecb99f
e77100c1
880050ac
425d0000
47c5cfee
80616424
ca4c5c14
652094cf
a0d93352
310a202a
922380a1
5668a4ad
676768a7
4cc16267
8061c144
4db19119
00088802
bfdc8f00
9180fdaa
12220062
7ca41320
4520a027
80004884
00a10000
9a50a2c9
200243c1
76e5ef00
dd65a5a2
54e580c0
499bc1dc
501595fb
39c49c43
00a02622
a5ea2f0d
56600dcc
f0accd74
200ca00a
069080e0
a1b34471
49a9c0bc
6b562200
80c1dc34
80118009
00080800
5975d0fd
22507668
4fcb00c2
0d8965dc
ddbdbaac
4242d1de
80a1142a
02555395
f4ec2d8b
74364242
c176da44
180100e2
00998281
02000000
01cb8d72
00822445
ab233154
75b1ab9b
c0ba4932
00080880
219580c1
aab1cd91
6429d44a
d20f762d
80615434
c4fc3804
64560a46
04091372
944da549
365100a1
e2df5898
1b706a02
00220220
80a10000
5edb0808
9cac42d1
9d2aa1d8
3afabdfd
74b40082
80004044
00810800
80910019
80818211
fa4da210
efaafa9c
a109cbfc
caac0900
c30980a1
caa00ddf
0494bcac
bbdd927a
8081a292
aa8910a2
080000a9
24130a00
971a0243
2a328081
cd9f9cc5
fd0d43cd
8008a0fd
80620080
1b8aa989
00199919
7c0e1d18
0099392c
bd4c80c1
9fcba3bc
ba0cdec8
c04c24c1
80c120bd
3c0db119
7c712c44
abdcad9c
080800a0
090880c1
797c4f00
18c44845
4de44499
80c1dd34
40647fca
00800880
a5ad9c52
9bc90800
0cb000c2
08a5fd43
34232299
08ca3b11
80a18094
1d333381
c010ccb4
2a8309a1
ecef224b
a00080a1
00281814
08880000
fa4da38e
80a1ab9b
8999cc9a
141bf93c
f009b844
00088088
c10b80a1
a0aaacbb
fd0081aa
51c99ab9
00c10002
ddcd903a
cd93cbde
fefff9af
d409daab
dead8081
b8acfeef
991210cc
809a9818
80818000
ca000888
a389b82a
cca89a09
1bdfecbd
ba990062
0000a099
002c0000
19f8b40d
00f2a8b3
e515459a
19011830
3d819989
01b892ac
99e880a1
ab209cc0
59dab2c2
074ad56a
00a24605
9a99a282
00000098
b7580900
9109c2c9
ba448081
b1aea33b
fa7075a2
0800c0c4
00e20000
b1930a3b
3bc0024a
ad9751a8
9280c92b
214980a1
b9e55ead
4ce9c47f
acd32e24
0062040a
9a076001
bbfb9cad
001098a2
80000001
8e0880c1
5d6af556
8a202834
adbcd3ac
80e154b1
a053ca47
00008000
45544018
24a42490
089900a2
68c703aa
22d1dc20
45223012
80a1b940
1a5847a4
c9ee1349
b88b2009
e9021ea9
00180082
009908a0
01000808
faac0435
00c2a120
a12c9029
52911bbc
40367626
08800000
00000010
00000001
42748082
4a2a869c
0000c523
00000000
00000000
00000010
00000001
72758062
32532934
00004ab3
00000000
00000000
00000900
00000048
2cac8081
21c21a92
dfa04475
2db234da
80a1c414
5755a07a
a93b4451
cc0329b9
8a2dd81b
4ac280c1
dedec49d
c9eadeff
9d840549
80a1a423
affc4e5a
3383eee0
0a4c3445
edb32dea
ecce80e1
3444d5fd
cdda2064
8bd4e1cd
00a225a2
21401440
123292a9
11923328
93413676
4dac80a1
a3414396
e6bf1f5a
4230ad2f
80a1a142
39c21171
76a54a42
d0ef4e21
accc02dd
cccc80c1
9a0167ca
733ca6da
cc2a3de7
80a1ddba
8da67e2a
ce28dfa9
96affde1
e0a70eea
a8790062
1a1bd29a
99baaa9a
9d159391
00c2b86b
b1bc2daa
2dfec12d
b80bbcda
12251292
5b4000c2
cdca8ca6
02242ab1
7cdc953a
00624996
b528cee3
0371a990
dd1c0199
9bcda0aa
830980a1
f2c82ec0
0cd4762c
ba930abb
80a1b3c1
d9ba2011
1cc0174c
8f34ffce
4464e440
243d80a1
24a94cb9
e725c4c9
0aa1ac4f
80a14224
9e2c1924
0a9790a6
9b2c1bcb
99dc65b0
2c2a8081
02aa23ad
aa142211
f599bf99
80a18020
d5cc59c2
92707422
75828acc
0dadeb10
718c80a1
0289fe4f
cb5d2291
842409ec
80c14527
a1ef5f44
391228d2
67b6ba98
342d5d47
263280a1
dedd6954
c1ffbdec
094f567b
00621525
01010919
91a84903
26276208
a0999f75
11910082
c9a88222
9c4d032b
c130feef
0082ba80
12228169
9ad0a200
a7ad2dac
9aaa7404
119900a2
8ccdc992
4422143a
efcd9a9c
8061dcec
bedeca9e
312115f9
58fefa26
241432e2
9b2a0082
32a9a891
8889ba1a
ea5a1198
0082c3af
12210a43
00231a13
bbdcfc8f
54112212
71770082
bdcaba30
21011100
0a0a9200
80a112ad
51674490
183c2404
00000008
80008080
aa000000
0a00a00a
000caa2a
aa0a0a0a
00000000
000aa00a
04222200
0a22a000
a0a00202
a20a0000
00a02aa0
02aa0aa0
02002000
00002020
00aaa202
00400002
00000000
020a0020
deff80a1
16aa49ee
84542ac8
47dea69d
00625475
a9dbac20
28108a99
ad298211
da62ef18
eea10062
5b98b2aa
a99819b1
442aa441
80c11279
ef993c0d
babcefdd
530280cc
cccfd2ae
a20b80a1
fed96e42
5ca4078a
4e3d8d58
80c1ec7c
1921cdc5
a5feaa22
a49549a9
bc0c1aeb
99b90062
f9d43bc9
2f2941d4
15232b9a
00a24eb2
81bbdccd
f3e4e443
b842add3
38129021
013200a2
afe4e324
1452a59d
14eab539
80619291
bdb0f9aa
8eec982d
872fed84
754275b6
34230082
36571399
b91a0a52
590544ba
80a1cc40
0b4346fe
34441190
dd0dce14
d14dbcdc
c3b98081
46744445
89cba90a
4437018b
80a1aaca
ccecdbbe
359311b1
c3afa7f2
8ee04252
220100a2
15399123
daa47e98
c44c3e11
00a2a8c0
338a9919
521449cd
2da3f68d
467ca530
b0a100a2
5ac80abb
058249cb
202c19fc
00e21ab0
a02da993
ccf4565e
9cd91a8b
99a40a52
a29f80a1
c34084e8
b9ac3bc4
acddb2dd
80a1ac16
cccaa06b
baad536f
258abdda
156c1a4d
103900c2
d29dd1c4
91dc4acf
9a8aa4a8
00825a99
abfcab6c
18019ce2
32100002
8cc45f0f
cebc80a1
0f5cab0f
edfc653c
5445fa91
00625644
dfd9de10
40acc352
dbff52c5
329229ca
2da980a1
54e64ac1
fe4578a3
6755cff2
80c16165
4121aa23
fccecd11
8565f5cf
2b13146a
dc8980a1
ca4524b5
5445a274
3adc2d32
80f142e1
ed0d4189
251ca210
4b044059
472dd120
5adc80a1
4af609de
20bac93c
f35a4494
00c22145
0b55cbb1
cca73ccb
10aa114a
b6011029
a24100c2
bc33a25b
1080819a
eda78c12
0082cd3e
8abac9bf
19da52c0
a0001ab9
96343182
943100a2
b1114cc1
32282311
56753644
80a1a959
e0cbcddd
fd8fdcac
ac8eea90
191ae44b
ba0c8062
241209c9
3a457424
01a299ab
0082a9aa
c8cbbbcc
42fb0ebe
3a144523
491211a9
00000010
00000001
75578062
77654047
00006767
00000000
00000000
00000010
00000001
41bb8082
b7210842
0000612b
00000000
00000000
00000900
00000048
23a00062
30129119
eb2a858c
a18060b4
008284cf
4f139b42
211a21ff
9bcc2c93
98ba55a4
000880c1
27228000
cab8cd67
660c54d4
00a21440
cd491424
01940f55
33a49122
520c5a45
76e980a1
ac63c65c
b410cd04
c994a375
00a2cd5f
7710caf8
1d094235
1aba049b
37c89a91
664780a1
ba2caa6d
0080c09c
cc2e0000
8082eeed
42b12398
9892013a
2a392101
1211a9f8
396100a2
ca9eaaaa
f50c9abb
08946bc0
80c1dc09
4774e53b
8415436a
75c7545a
c2564446
924c0082
381349b2
bccc183b
78c743cc
00e23057
00008088
569df2ae
4435385a
cc3a2382
eade00a2
110bc18a
4654c49b
4dd9576a
00c29aee
1b089112
759755be
3229a29b
8bc90989
9aaa8081
4d875223
807ac3c0
2cc44032
80a10d49
ccecf9db
b0eea9aa
00800000
8494ccde
b9500062
99cc0a9a
acabb98c
213ef13a
8081cac9
93a120be
78feccce
a46b4627
fcbf984c
2cd800c2
ca2ad935
c3c9b28b
51a5775c
00a22a12
124999c4
f21199b2
29aecbcc
00191312
000080c1
62640800
d13a8d25
45147edd
00a29c24
e73e9c0a
0ba14bf9
44a4a463
2ecc3a12
f65400a2
a4943d3d
b10c035b
1bc43bcc
00629309
67491618
240960a3
03204125
0b982309
f2180082
a25032ae
0000202a
29920000
00a2c913
35744427
dbcb8d65
434c04a9
32145486
254480c1
e44bce62
145563cd
4fdf4554
0062eae4
14656437
2092128a
c23eca42
320890a9
89da80c1
45c1f9df
a38efa6c
da99cd39
80a12855
00800000
4aa17a47
2dbec4e9
eedeeec5
dfbb80c1
72cdd73a
4548a44a
4ea455d5
80e1abc2
2d4dddc1
5401cad9
c955cd54
12778ae9
655300f2
bc040ac9
a8b02155
2221d0cd
80c14335
04124342
10c3ca1e
00000008
abdc5c76
42c300a2
02ba4c3a
accc2c31
44b876c5
80c1ab1c
559a3632
f6dffcdd
0b3b9e65
25c54cdc
6c980062
21920ad0
ba893913
f9edff9f
00621001
2aa1053a
aaa4b922
a9754226
00339a18
000880a1
ccfd8000
41b44aee
55735562
00625426
32bc1181
4e98c880
edaffd0a
acfcebef
0c950062
674615a1
84505573
b80b4828
80a11399
40c41956
9c9a4255
91dcdaac
84645745
9aa080a1
251efc08
900058d2
c9ac8080
80c1c19b
04d0dd4b
dfcacc39
1dc9f28e
a338d95c
38800082
01229c80
2309901a
fefc2f10
006292ac
1a258a9a
b19ccd3d
62afddbc
28282bb0
748b0062
caea0391
231247f9
efba0d72
0082d0bd
00080800
1ca8aa1b
367c67da
dbcbac40
2a998062
b9e8f710
b2682a29
14353132
00a20c32
3fb9f465
fdeabffd
ac264b91
4d264183
26db80a1
bb64674c
55fccc95
e9774434
00a22ec6
33652047
20241b29
00808008
4739b1db
945200a2
a15c9830
a8cb0ca9
a737864e
00a24003
a94b9874
dd11b293
19b62d55
a25925a9
daae00c1
cddadfac
40ccf2ae
6a525696
8061ac98
b1bc8211
cd2a449b
c8cffacf
a808831c
000080a1
00198000
9c91a090
9bcdd509
8061dfcc
1dfed18d
0acefaec
cc7a82c9
fbabfcfc
ddcf80a1
1c9cc2ba
e3bc1de4
f95ca74d
80e10ecf
ecd59ecb
f5dba6ed
f5ea0228
6b4c5d3d
a48a0082
90d2d9a5
00801832
20f90880
00c244a9
93b709ba
1b0c0ad6
4fd6a799
c592ae79
c4e400c2
5b1380b2
71dd20cc
842d1c3d
008241aa
22980120
1bb9aa0c
f00fceab
422234c9
18410082
018291ab
3cfacc09
90308910
80a10829
00000800
544a00e4
9d4acfc4
2cb04309
1b210062
a17ab754
ca843fab
20152331
00a27151
dc203de7
b04cb8a4
cacbc9a9
4584a3ac
27730082
c909aa12
ff2ea189
543480c9
80828d6b
01764908
a0991100
00000088
a9110981
59da80a1
b8a4c26d
f9437895
9d7325a3
00629e76
91a015b4
3c7a9699
db414721
741692ee
00000010
00000001
41448062
745a1265
00004425
00000000
00000000
00000010
00000001
72648062
28533132
00001cc3
00000000
00000000
00000900
00000048
a6de80c1
2052e6ce
ea1d17fc
2a31c011
80815cde
1d2274f4
c0983a03
cc859b09
d47cc19a
e94b0082
b049ff42
9a309b31
28321411
008204cf
f18bc45e
3881a111
a21c0101
1989ad4a
420200a2
4b914e99
bcbb29a0
13d0aaef
80c13394
b85ca448
ad8598cb
afa35530
cb0bda4d
babb0062
129ab0ab
16081cab
e41afe8c
0082354c
11881033
499a9a90
92efabb9
81808ac9
281980a1
126f98a2
4ae19cc4
dd5a39a2
80e1909b
c0d0bbcb
89d1dbac
ec6c5435
5255e5ef
08100062
44563202
90082048
21dbff99
00e13c36
edcee5fa
902ee22a
1b57891e
6a524bde
ea1f80a1
a5bedbec
43808231
f95f2933
80c12108
3c882325
baacbc8b
ff4dc4c9
c44b45e4
cd1e8081
ca00cc9d
72a537cd
9cca14a0
80e1a9ad
cb1a19ca
d9cac849
9da1fdec
22a4dc19
1a5080c1
40abaa8a
fba2d05d
cca2ed6d
80c10490
cd0c3244
3555d4c5
1e2cb2ad
bbde0bfe
3cc180c1
55b164de
d2454402
f8deea6f
80a19ca1
5fe01ac5
0bd2efea
ef4aa554
4746cee2
23aa8061
42a4dc7d
984b8102
09cdcbcb
80a1aeec
32011c09
c1aca01a
fdcd20ac
944de6de
9aa18061
bc35c502
fdff5417
8a4265ae
80c1900a
ca4c4544
4410e2df
edde4443
1a3155df
b51180c1
fe6e9251
dbdcec4c
5013aa9c
8081cda4
a39aec9d
5402ab49
664534c0
aa98a17f
22bc80e1
0ace5512
a81ac9fe
dc024c54
00a2cdad
12b91bca
ba9cbc49
9c157689
b2a2eedf
18018082
00013911
12020180
95bdbd30
80825917
8919a9bb
9a999132
1394920f
3822931c
c22a00a2
048a2998
21989131
bc4c4b37
808122d1
81ad9679
dffacbaf
912420aa
93435224
10200062
281131a3
90190888
8672d499
80c19009
a4ca9ccc
cdaa8c9d
215c572c
19ccca9c
9aaa00a1
46cedbba
87a60faf
bdf2ce0c
00c12dd9
044e99d0
0cda7d55
a4d0cc8e
a92ab074
32518081
42d5ca3c
c4477a8a
c49b8a0a
00a1510a
add2bac6
4477eb07
dc650244
c04ce2db
a36280a1
a9023b44
cb10c23a
c782811b
80a186ad
b04c46d0
38a145aa
27929902
0bce8658
522280c1
a422ac45
c00dce19
fece90ed
80c13aef
bc9112c2
513a95cb
dc9d4ad2
8c625cb7
b0990062
1512cbaa
9a9a1a2c
8190fc1e
00a20164
21032148
12a02112
c8fe4d2d
1232b9ab
11100062
df329012
11a1c93f
9d9a1999
00620bb8
9a88adba
112009aa
1bc09c88
90775547
bc1a0082
a9225345
a0ab08a0
74a44499
80a12ac9
66bcdc83
251a9bca
bfa96244
ff9889fd
cd2180e1
8da2a0a9
81809baa
3bd5ad19
80612367
899a005c
92bff0cd
29c11aa9
322218b2
b42180c0
d20d155a
ba6da056
cc210373
00a1aaa9
45aaab9a
44ba7623
a42a2653
02ac022c
652780e0
4cd95c54
41c954fb
55e063ed
0081c00a
140f0098
af29c5af
aaa0aca0
8028a020
82248061
4d72c5ea
d93cd922
0ac44baa
00a1ac89
1c2e640a
ee0d661f
75dffeef
0f2f5d5e
93d10062
1b80ca14
a299aa00
ae1320a9
80c13b2f
1404f20a
23445d59
0e2d4422
00e53c7c
121d80c1
52593acb
d2eea919
95de1a7c
0082fb3d
18991bac
17ccaba1
85216223
ac8a8cb2
919a00c2
d811a18b
efab0229
ca41b0db
00a2cb94
2022994b
c9928311
137019bc
2211cbab
322100a2
ace18204
d38b3b5d
dcfc3cca
80611999
27770513
aa098c70
4bb9e19a
dacbcfa2
238a80a1
66415447
a91baa91
ecddcfc9
80a12dcc
6844571c
29183a84
5b0467c2
eccccd10
244980a1
44544575
21111222
4022a42a
80a1c513
c0b44c0d
ac1c4498
2cb23804
b107c595
0b7b8081
8aca0ce8
88c72dcf
02ae9d8f
8081ccec
9a0c8aac
a1a01f3c
29fcb2c4
24ad14bc
bac800a2
0f12a219
cad48e58
0c9a0de9
00a24023
6f1a9023
b9f64499
90128012
b002233a
00000010
00000001
65768062
6a557556
00007647
00000000
00000000
00000010
00000001
b9a88062
ebe9eead
0000fb92
00000000
00000000
00000900
00000048
a4208082
34920309
a034939a
19820112
00a214bf
93311a60
647526ab
cc000844
00133440
904400a2
d48b11a8
52c19b39
5411f3ce
00a24234
0a1199bb
4e850b12
21b932d1
a9de6ea7
fd0f0062
af9bbcab
3346d1f8
814a91a9
80c1d853
2d34c8cd
ddd9dc1c
cccd7665
d1afb8ce
1cb900a2
454514cb
adcb6257
9993d0ab
80c1c129
ee5d1657
cc8e5cfb
9cbaa0cc
5422929a
802a00c2
73e3d52d
d94b9c44
4149024b
8081abb3
1da900ba
7811a2f4
532a4411
909c1cbc
21a90062
90576147
9cbcb12d
0a8562dd
80a14938
023341bb
11a0a222
2ca0a0a2
eecacfaa
c99a80c1
9181999a
408429dd
f6bddc2c
80c14476
71677625
ddedcdcc
2842a954
0ba83900
350f80e0
bc55cc44
ce4244ce
b20c7ca6
806150a9
db1181a1
132229a2
13e2ff45
8a891919
56a500a1
848012aa
7a652840
090a1099
00a19c47
484426fe
38ff4f57
92eefc6f
2dcc48b0
8cde0062
1cd90ab9
b07ce904
c2111daa
00821ea8
b32b8992
11a1319c
28ba1a11
12109cf5
00220062
81988099
f5350411
38eab53f
00821989
088911a2
ab908008
f4a58948
19f06a2f
a0210062
9763af8c
b74c5810
213a611b
80618312
0a82a134
176227ca
c8bd194c
2ad4aeda
b84c80a1
cfd661d9
1dbda24c
9774dde2
80a15542
7426c191
efcdcd55
2012f1de
14550102
218100a2
11318124
1a91422c
66438489
80c16667
c4552a45
b0658d76
327c7754
0b49c6de
b9a90082
cc374a94
30bb2499
dfbc9cca
80a1e3df
19adb855
adc41fa2
ca525c05
1dda1849
399480c1
a21caa94
d20edb1e
a0cfde3a
00c234fe
4cb0946c
2829b104
1d215db6
44a1fb0b
55620062
ac326763
23b23a12
bb01a9a0
80c175c7
17fe0db8
65096776
cdfbdf3b
a32438a3
fb3d00a2
45494680
c44349b3
801a1223
8062bb19
7ba2aa20
82099b2d
14822890
9c3822b8
45cb80c1
aa243c5a
0cfd4fc5
22cc4639
80814ab1
e73d37c0
dfac499a
6812b081
372165c4
226680a1
a22d9a45
e0b1adda
b3d06a77
80c1ccaa
9a09a11c
2133ccbb
fd515054
7c75917b
aee780a1
dd24c95c
6036c9ad
aa34db23
0062eb2a
6712a1bc
08005123
8aa92ac1
c21c8a99
454400c2
7745b511
12546467
10129219
80e18a8a
2b800ab1
552a9250
28447346
d8b88920
058480c1
e81e0a5c
20b29843
d942d2ed
00a2f0cc
65576565
aca5ac6b
1d0b4948
1aa0b88c
75800062
514246a1
91912244
91921c29
00621aea
19c2a9b8
01374006
a978f2d2
293a23c9
01b80062
23181281
a440bb73
655fa454
00a2ad21
938cdb0c
444a1565
17799554
6c26387a
58960082
9d3b3bb4
75f13aa2
544bc4bb
00625025
1e689245
c3c8b0cc
a035a755
675262b9
b2d300c2
47c99f35
21452644
2328149a
00a2cdd4
a9850d9b
9a70a864
dabddeac
42641444
dcbc00a2
a2e0bdef
412531a2
19989a32
80c10b12
5acaca02
1a44ac95
9d655656
209cffc9
0acc80a1
dcdd9bea
92fccddf
1a35a0bd
80a1e00c
0023090a
cb1c0a09
c1dd9ede
aaacfcef
bb9c00a2
cbdca1cc
1309ebad
133457a6
80c1323e
b5d5a254
e721c2b5
6cb5dd52
a20422da
ce6080c1
abccd4cc
14c0ee0f
f562045d
00822d9e
73887b48
b4098942
0012a199
45491913
c58500a2
c2175bad
a8c0aaf8
4465d7cd
80a16344
c94c8ae1
5ef992d2
3280ccb1
42cc2111
a2df00e1
552ba552
cedcee8e
55e368da
80e149ca
9c90b935
a2143822
c8574d14
dc9dda5d
802b80a1
a98a9809
0c823dca
ed6cfda2
00825119
8b099000
aab8ab99
47b32ca9
23aabca3
556680c1
75472543
ed2dc44c
908a1adc
00a20a2a
41445856
4b675294
b93dc194
a534c280
38280062
075a064a
a8316026
18910080
0062bcaa
78c20120
20e2aeba
c8eec93b
9b34cd22
00000010
00000001
a8748062
57242644
00001545
00000000
00000000
00000010
00000001
62758062
63535aa0
00000f73
00000000
00000000
00000900
00000048
cf4000c2
ccbd92ee
199b0194
8202bc1b
00a2ab00
13a35402
9928591a
22babccc
af9d3a93
64dd00a2
b008edbf
18019a2b
ac189212
00823c9b
07b9cdbf
41232038
09230222
55104c3b
38230062
df2c891a
aca9deef
181122ef
80a19019
213c4514
914488fc
9c984392
bb4b44cc
a1980082
d97e1429
12cbbb9c
0a08aa39
00c18091
e3dfff4f
642154cd
26005cdb
0550ec5f
749c00a1
54c15602
ea1c3cef
fda24d73
008232d6
ffaacd30
3329ccd8
44822254
914241b0
c92c00a2
7581469a
422334a3
31840a19
00a24b84
72e65bc1
4bfd2ddc
b28ba0da
8243da89
8f1400c2
ade3efdb
00322243
bcc34811
00a2daa2
a19cd24c
849965bd
92b006c0
cdfded4f
19020082
2a399a94
aab94a9a
22302f19
80c1bb0d
a2deeced
1acc353f
ff96f8d4
cd72a55c
149200a2
afa12201
42dc4bcf
c1afeaec
00a24834
0f3e3213
cccc985d
0e8144b2
9ba32b10
20200000
aa000000
000200a0
0000a020
00000000
0a04c200
2000000a
0a00220a
20200200
a0a20000
0202a000
0020aa0c
02020000
00000a0a
0022aa22
a020a2aa
0a00002a
000a0000
008880c1
00000080
a3580000
fdbd1e55
0082ce0d
82a02914
001a318a
c20fa890
bb9cb2a8
eade80a1
9448addf
bd9ab394
7a125edc
80c19417
18421130
f0b65d22
4f289ac4
2448d20b
21080082
c8f62a0c
044db0c0
c2a988c2
0062aaa2
ae392f80
da422cff
11a19bbb
a512a882
137b80c1
ea4bd739
deddddca
caa6dedd
80a1acda
18ceae0e
9ef99b9a
213123dd
fdd1d040
cefa0082
ddcccfa1
43428439
81b1ca29
00c21ac9
baacd9a9
a121b2dd
32f04ef4
39c328e4
dbd980a1
b34ab39c
58c77b8a
b34e0a51
00c294cd
0b19acb9
169140ea
f42ec69e
322d948d
9c4300a2
5c92a2a0
69ae78de
d4e992e4
80c12923
452e2234
ad2f201e
1252dd54
8e47fd72
d26880a1
fb2d5796
ae2474db
251994d4
80c132af
8cde4499
1ec21df2
9dcac24b
ee522cb7
32960082
7124abd8
08c0ac03
af120ba0
0082c2b3
c900aa8b
1000ba8c
44890809
c93ffc94
904b80a1
6201f2fc
00088cc4
80000800
00000000
0a2000a0
0a00aa00
200aaa2a
040000aa
20a00000
0000020a
200aaaac
0a2a0a02
00002c00
00000a22
00a0aa00
a00200aa
a000a022
20200000
000a022a
0a0a22a0
0a002a00
00c1a222
e0ef9fe2
972adf42
ef6e2443
ab615565
aaab00a2
922b9914
8bcb91cc
65970d90
00829044
3bdad022
0101a109
ba447236
9b1b89be
e0ee80a1
45c6ba3d
81a00a9b
a2cdd32c
80c1c745
d2e2609b
cadabd9a
568de2cf
9ca95545
75b40082
92fe4621
dc0c9803
24444812
00c2a832
b4418520
cc49fc6e
53a69cbd
ada34c04
abdc80c1
da8dc51c
c3b291e0
fe5da041
80c1c0cc
cd2255ac
12edadcc
3e9a833b
74a442ef
47c980a1
3da1424d
81e9ccde
db0bcd11
00c142ca
e6ed61d6
de7f2546
9facccd2
0ddcebfd
eeee80c1
dacc1c4d
40549224
d24aa555
80c1ffff
223e84ed
0993dde1
e6ac8913
bd4f6e44
a9ac00a2
98b02a90
bed94018
c9fa0bfd
80a19294
822d449e
ca6422e9
854c0a0a
44545673
aaa980a1
758a830d
16ecb9ee
11feecff
8082473c
08011021
39999a91
9afc9d9a
111109c9
434380a1
bc0e5c29
126389c9
ec6c5235
8062ed9f
cf21c9ed
8a0033f1
12919991
12089189
104380c1
cd24e8fd
2a13dcdb
bdc51a9a
80a10f21
77d2dfbd
8aa95825
b4645304
ee9ba729
25a90082
03caba76
22229180
49238322
80c1311b
ad68bb50
8840a3ff
8adcfeff
485530d1
ffc080e1
6b7755f2
5534b8cc
84421424
00629c21
77a9ab9a
d1fe3a46
80ba9a28
803301a9
af098061
2263d9fc
2aa19b2b
bb527421
80811123
22a4ba11
30994675
9c28ba92
485214dd
00000010
00000001
77738062
67406704
00005546
00000000
00000000
00000010
00000001
db0a8062
fd08ac08
00009cb9
00000000
00000000
00000900
00000048
5cb600a2
314455ff
cd34b49a
a1cc46c9
80e19d41
0008bf55
b4090800
9adc5e42
c70d6a56
512b00a2
48ca4741
00a8b11c
34000000
80a11928
a7770726
ad531262
65e2ef9a
625795be
77460062
26225022
74ca115c
9aa04132
80e1aa9a
df1c4aa1
6576c5bd
0000e1e4
4b048000
aa5c80c1
47ae4ac0
ae4a1085
45a1c58e
80a11e40
000000d0
ea311b00
cfeeacce
ba4db9cc
13e380a1
92785525
12bc41fd
21029180
80a14ac6
efdd6c45
43451ac2
0288a034
ca1b5146
1c4400a1
00800880
4c262286
67a5ac66
80615f05
8b13caa8
ac29a74a
08000800
2520a100
4a4380a1
45d1ccdf
8b922991
9100cabc
80810120
15189901
ff1d2274
ac53a4db
2328889a
304380a1
eccf02c1
294081a9
08000000
80614001
acb20a02
9da220b3
85e521f9
9e9802a9
002080e1
a0080000
80a8890a
ddd0efcc
00e1a9cb
dd0a04c0
51332a55
dccdb42a
efae0cc9
48418081
22b0421b
fa824a42
0ca9aabf
80c1c70b
08000dfa
99840808
c8e4467d
22d025ae
a80a0082
2320039b
00103fc2
19800800
8081a020
9fbf5839
a43beeca
8aaca5ab
22bdf0c0
182a8081
81dc8aa1
caa3efbe
44520631
80613a91
afdc8ab1
e2380e22
00882466
17020000
65398061
4b989017
66a00291
aacd71a7
8081c2ea
00000050
abc02100
eccaefac
3432dcad
155280a1
190a2108
62435529
a1eb4c57
00a2111a
340cc29d
8348cb3a
6775360a
22824a25
29b280e1
80000000
a490120a
355d570a
006295dd
21790255
dd952da2
000000a8
eccecf00
4afd80a1
ad001aa6
dcee2b02
375634d2
80c12877
d521adca
91bcaa29
25a0af2f
d2aab04b
0a9b0062
cdbb7212
8c2a76c8
00080000
80a1900a
2692ca14
4dfcb4a2
5f21add3
7444fcae
00a080a1
25000088
a0447486
de3c3b40
00625336
d9ac890b
a2753292
b4ba18a6
43122072
884b8081
bab98954
a29aa98a
a2cacd0a
80f1578c
00801392
cc088008
9aacc80d
a340ec0a
94418061
a59ceb2f
80a0399e
2a800000
8061ddaa
9d249aba
e108ecaf
b99ab81a
a8da5082
dd4b00f1
2234a914
a461cc50
8a253522
80a1a450
decca909
89ccfd8d
800055c2
c2090080
0bbc8081
aa290480
7254c712
2a09db12
80a1a992
00000810
65144408
54a24957
9ccb6467
951500e1
dd2bcc64
dc0c02fe
ac50e52d
80a116cc
2472212c
dabc0149
20aee9ac
068755a4
5af680a1
88808000
574ca002
c6dd05d4
0082e101
72343234
6094334c
08808010
ab9a9908
d8dd80a1
cc5d9c45
262d4323
cb14b26b
80e167da
c94755c4
820188ac
0d0da953
aaa252a2
95108062
61074739
031b8389
88080000
80629a89
98122328
a132a129
74322522
111a121a
00c080c1
ed008008
1622a1aa
cd5f6776
80a1c38a
1a53a48d
1de46287
fac4afec
ac11c89f
e4cc80c0
0ec9061d
d2762503
d7cab40d
8061d46d
00082ad1
128a0000
92b9aaac
2f91a45a
fd9c00a1
4cedbfdf
08c0cafb
67808000
00a16262
deef8e14
1c0e5605
6542cce9
10ab2db4
a90a00a2
10200191
592b8000
11d91c70
00e22199
8c018311
849b0dc8
0000d2f8
0b020800
923f0062
e68d11ba
d0a4cb92
3599fddc
80810999
080008b0
54472200
32cca211
c03f218f
c28b0062
9901a2a8
473a56f8
94039113
80619252
55b48c2b
a1281a51
a2ba9020
4700800a
545600c1
80000080
d67a4e85
fa2410ce
8061245c
854ba7a1
430fc718
008080c0
a90ca900
1dc08081
93220892
814cf22a
9acaab9a
80c192c9
29a20941
9229aa22
4ccf8a4a
0aab32d4
26028061
2c342dcc
a7aaca13
00008000
80819a01
8c41919b
8377c2b9
9a024b6a
fb745407
00200081
0f080800
10acfdfc
22c1798d
80a11274
33521412
59eddcaa
1a90c20c
fd9ecdc0
00000010
00000001
11738062
37125423
0000191c
00000000
00000000
00000010
00000001
23e68062
32435f03
00000c33
00000000
00000000
00000900
00000048
a8c90082
ddb0cb1d
cdccfa8c
aca83ae2
0082371a
b3cf0a2b
b1dc9dcc
ab193ba8
1d9aa2a1
feff0082
3dc8aac1
1329cb87
299a80aa
00a2cb3c
de2c991c
1280dfe9
0c811111
ed194b25
c9df0082
89ffcecc
a9dd11cb
44801c9a
00624fc9
253a1598
a14609fd
203bc14b
a0a9b610
0aa00082
8bc1aa98
b9bfac22
c0a97193
00a234bf
9441a8d9
c992b329
bfc9a8a2
8331cfea
004380c1
24350d22
9ea54ae0
06dfce75
00a21682
c0ddaefa
24984814
b25ba243
1014b8cd
241080c1
71a52456
3ccab44c
d0cb50a2
80e1ec4a
dd6df2da
519bc43d
24132053
d4a2cb80
be5c0062
d8cfd8ce
20121220
3b915712
80c18920
4d98bc89
eeadbb86
66071b6a
ac95c3dc
13bd00a2
8c1aa02a
1249ccb2
beafdfeb
0082cdce
11affffc
5a2a4aa0
d1c0311a
212fb449
90918062
ca9a9018
c19d4fcc
4ab82382
00a22812
ce3a9813
3ac05e1f
22482cc2
ca1a2c3d
065280a1
a3cc795c
fefdddce
48cac54e
00629191
15c81002
9a2b9567
2c108898
ab21ddc8
67df80c1
90247c14
aaa2c342
2adecc8b
80a1f85d
5409ccee
c989de40
ecc420ad
34ffdb92
9aac00a2
109304b3
fbcd3381
21c3ed0e
80c1cc9d
4202eeee
36cc1c45
c5d05dc2
ad4f4ad4
acda80f1
15a809dd
eefa5bc2
dc02c9da
00629924
19901110
e80cd100
ea69ae0b
3213fd9c
181100a2
ca15dc89
12bb215a
ccfc4d19
808132bb
c99fb640
f4eaaa8b
4aa33220
89b03ad0
121200c1
767de5c8
25022539
ca6d273a
80a15d64
0bd640fe
1dcbada0
250192cb
7d280422
c57180c1
1d279477
0ab9a9aa
5d59c2a3
80c1a185
28c2141d
addd50ad
6d7ac65b
fe7fd84f
2ba400a2
a2aaab10
021a151a
abfbc3cf
00a2cdcc
0cccc9cd
94c2d92a
2c901ac0
28a75944
89108082
1c000818
aa1bf292
a9019b2a
00c22121
cd1b2201
dd9bedd7
a4d9c5af
b20a83c8
dfc900a2
de9b26fe
98334425
a22a9aaa
00a21a19
16122892
13098076
7629bccb
f9df2b42
17c200a2
94bcdc3e
ac308052
bd29a481
00c269dc
26ecaf8d
90008a0a
440a9919
19abab1c
21920062
ff3a2c05
b920ffff
5062a89a
00a2bcaa
a68feeca
90a07ab5
cbca2221
2a240388
cb1b0062
7a4787b0
a99bf550
1a02bac9
00620212
bfdebc18
a01a43c8
a8191a02
03517185
8ebb80a1
3562e5d1
ddd86998
d4faef8d
0000a118
20c02002
22c0c002
20200200
00a200a0
20000000
a22a0c02
aa20a020
020020a0
00000020
a000000a
02400a22
2002000a
a020aa0a
22ac0000
00a00200
0000a0a0
02200004
000022aa
02000020
2aac2200
22022200
0a000a00
20200000
4a002000
0020aa00
020a0aa2
0000000a
a0200a00
2aa0000a
a2a0a0a2
00202202
2a0a0000
0220a22c
c0caaa2a
a2a0002a
000002a0
a0a02002
040aa0c0
020a0a02
2a20022a
0fef80c1
8243c1dd
55c2bb4a
92bca479
00a1a255
fdfadc2f
3d053afd
53c0a2a1
a6341907
efa080f1
0ccba3cc
92898cc1
81134991
80a1c120
a9bd5a7c
1343a546
d2b80a0a
9c4c2fb9
a09a0082
9084821a
32bb4238
33ba96ad
00620799
cb589442
0801d349
692721aa
da9d1c14
adfa80a1
f940eb8c
ca7afc5e
e474db71
00a2fe75
21800051
01cca599
e49ec19e
1990ea8f
51ca80a1
e24ca4c0
54e7697a
ff257f8a
00008da9
200aa00a
00aa0a00
00020204
20000020
0a000000
a000aaa0
aa0aa02a
0000a2aa
00000a0a
0a00000a
42a00000
2a000200
200020a0
aa0a0000
20aa2000
a0400220
00000020
00c2aaaa
00800000
80080008
309c842a
dddfdd5d
11ca0062
a2100c23
8cd2532a
abfcafeb
00a2a89a
33acc099
9901a449
cd3accc0
a5673aa2
957d80c1
a42262b1
cdc2d5d4
ed9dadde
00820134
cb9b0998
fcbcc1a4
8ada91cf
9ac0bcb4
00000010
00000001
56758062
00763576
00000536
00000000
00000000
00000010
00000001
a2b88082
00bfc8d9
0000019b
00000000
00000000
00000900
00000048
842c80c1
cac01967
42cd4355
4a62fccf
80c1c943
398084dc
4186ba14
93fe6a66
ca9d1132
048080f1
5ba4dc3a
a26c66a9
00ab2b00
00a18000
00800000
6c770000
d2d50d84
003cf2ee
000080a1
fc550408
ae2a20a0
2b53b0f5
8081a421
39accdaa
24029ba5
aa2a2a92
a10730cb
30ae80a1
b8008944
af913413
212ba01c
00c1198b
56677655
00800073
00080800
a8810000
9a1880c1
bbccdc9c
00000821
2f4a0600
00c1d1dc
2c2770c5
e514cf9a
b2e1ff78
eb947d56
4abf00a1
aeee0a39
70dc46fb
2840a2ec
80a131a4
a440c992
aacfbda0
da1c1cd4
000880de
00000081
00080000
77bae8cf
2acc0759
80a100cc
88000800
41a4908a
557523a2
43a1c84b
c26400e1
5a4563a0
c1adce43
adcfd920
808125fd
31604286
ba28992a
021192a8
effedfaa
47f40081
00cc3cc8
00000080
00090000
8061cafc
df4a3442
00a9c20a
0c800000
5675a1c0
501980a1
5a3a2df3
ec4ab2b6
6995b5cc
8061d78a
49667ece
e2226529
98b9204e
b2a11af3
5f920062
ab0ce443
180408cc
088ba820
80618008
80000800
389c0000
fa4c9de5
004940ca
080000e1
4d510680
c2c1fffc
04c9c430
806140a4
109829a2
a5733b01
a01a2309
aa81299a
1d0500a1
cc04104a
5ef6a2ab
d2542940
80a0242d
e0fefe5d
9009011a
01011900
255a9901
92240061
f7372c45
0000009c
ecf90d00
00c1e80a
1545b5cd
252cfc8d
2c5c4204
0e77d6ed
f37300a1
a03522cb
5cc6a24d
04404445
00a12220
4ca26095
cf964a47
c5742df6
0000002a
000000a1
00080008
002c2442
ec25dfa0
80a108a8
09000000
8321a182
8d2a4715
1a6255d4
cbc28081
42424ae6
3899ccfe
a0ac2b13
00a171b3
44bbe07e
0eee26cc
a5c810ca
4729bf6b
520400e1
08b50a41
00000000
00000000
00e1f0a1
552c45dd
008dc9cb
0f008000
3fd50a32
e54d80c1
03ad5bdf
52a220aa
00c90450
00a1e31d
955c9ec2
ee5361da
4664fa6c
eadea8ac
3fda8061
004002a9
9e763542
001ab352
00c10000
00008000
2c2a8000
ebaa0cdd
001cf15c
000000e1
75af0c08
01930ef2
c0da49ad
00a142ac
2ba0c393
52ce14c0
51444005
307c6624
e50900a1
2198044b
d830bca8
93595d8a
00a192ef
42c9aa68
00000047
00000000
a1da0000
a00c80c0
f51f20dc
001090bc
bcb00e00
80a170e4
a2daaad8
acca2aaa
cab21aca
f68b020a
741f00a1
9cfecece
9a2eaa28
9cc08074
80a134c4
a3554f12
932aab20
9c9cca09
000000a0
00800081
80000000
8fd4c59c
8cdc14ad
80a18059
09880080
add01930
67db41fc
339e6691
22da80a1
1bda2026
e22df42c
15aeca20
80a1c418
a975c243
2bda659c
4c175ce9
cb1aacb1
ef4a8081
00ceffdc
00880080
00008000
00822c22
2883a199
00644047
09088080
44891180
73d900a1
0d7c4655
024500cd
a41840c2
00a1814c
addd5453
e2ccccdd
ab574424
ad8ecc8c
9c0400c1
a0298ad2
bd4424df
00cae11c
00c18000
00000008
93910800
fe5da444
8009e2de
88800082
01110000
92033422
f2b19c6a
00a2a910
9bb9c11c
6f04b242
a1033c6c
41bc192a
10928082
9129a0b1
a7918911
9891b199
00a112a9
adc174fc
008800e2
00080000
24d60008
ca4880e1
264020c9
00000005
d7b70900
0082c952
532dc749
13a0a99c
09a20189
f989baa9
d76e80a1
48ced04b
bc442013
b24c29b0
80a1d2ad
4ef560ac
98942dbc
b3402b46
00800058
00008081
08000000
8cadc8a8
9a04d1f8
00628041
02000000
2aa37428
bd324112
8a2223a0
a9ff0062
9a321881
05392ab9
ef9a1a81
00a241f1
bcfcac20
29881218
08a0a1b1
1577b399
0a5880e1
00cc9075
00000000
00808008
8081a345
28f11a8a
0052939f
88000880
ca4814a9
00000010
00000001
12528062
24219251
00005527
00000000
00000000
00000010
00000001
22f28062
29314d12
00001c11
00000000
00000000
00000900
00000048
b8d40082
4062f068
10204353
a2caaa99
80a18342
168e1653
de0dd6c4
dfcaaccb
9cf6cce8
84dc00a2
5902731b
33ca52c2
c8544223
00c2f5ea
dfbcfdda
0242dec3
d82d2229
29f0efc7
b23200c2
2610c22a
ea5b2629
14f85d23
00a23f44
8610ccff
03b99cab
43052154
ce4eb045
89fd80c1
1493ab16
702d32f8
cbfcdeae
80a124df
ed2b9da0
aca7e3ca
5a1f9dc5
c53c01b4
542200a2
ccecee5c
fddfeedd
992d95ac
0062dcac
5180b641
4cd4b0df
aca94409
1980a1ba
211980a1
9f513ac4
9b08ecbc
243db21c
00a259cc
ccd4091a
bc3a1240
11a290cc
7da829a9
953e0062
a9ba32cd
11909088
8d5f2c0e
80a100e8
e90d7465
2c15733d
644a44fb
d2c1cccf
243f80c1
62564555
d92cba45
865459a5
00a20cd2
55020981
ca434244
48a0c95a
fba9adbb
211300c2
25c91919
a7c4252a
4774165a
00a21a91
a10b9011
4434d71d
2cb35991
acc98a9a
cedd0062
9c781534
30bddd22
00a22100
0082aa99
d2b8b81c
89bb4bad
74a089aa
f88fbf94
ef8b0082
99a0b1cf
abb11caa
ab23901a
0082cb9a
bba21c18
3122022a
d1089011
94847dfc
cacb80a1
fcd81250
a6036759
08c35462
80815445
19c29b57
fffe2e54
4410caec
a9794027
c8ab00c1
dc29620a
4762c5df
55da5842
80817766
01bbdc7b
44231025
82a36c22
b8893198
a20d00c1
2b441bda
10acd0de
a3bf0422
00c2ad03
03a44b11
6fdab131
10981394
581c12cb
99b40082
d74aacca
9c9989c8
319fcaba
00821cb4
3393b591
447a4415
110331e1
704ea220
bac100a2
ca0831c0
aa998928
f37d2da2
80a1e8ce
dd66794d
3beacb2f
636af7fd
f2cfcec2
234000a2
9b108b08
bbcbcc9b
5744128a
0062a07a
769b8cb9
12d95311
7204939c
679ab0ed
944900a2
b9081998
af154981
7180a0c9
80a18921
70cacc88
ddfb4ec6
4c10ec9b
deac27ef
cb0800a2
fe1d059b
243a9291
b88a8b01
00a2b912
a5c4922b
13c98572
442099ca
aa990c81
a10e0062
18009ced
922ba210
a8234214
00a270c1
67449083
9a9a6545
43aaa9aa
b9922a9b
122c0082
de3c22c3
9cacdefd
05c0aadf
00622cb8
861b99b0
994544b8
5127ca1b
02290652
2c0b80c1
6553a4c0
c4cf0c44
dac272b6
80a1090e
ecbb2df4
03421cdf
eddd9c4c
b030dccb
bb8980c1
9474dda1
54429654
ccef5f55
006253e4
eaff0cac
0a282c33
41221582
d103ae00
c15f80a1
b1ede09c
4cdbc8fd
a21cdda5
0062cce2
ffddafca
1a9ab089
043340c2
b2a9b01a
c98a0082
fcb59dad
12310200
ddc4b30d
80a1bc9d
fc49dcca
acfaded1
0d1c5cfa
dddc8a8c
dcf100c1
0cc4ccee
568ab5ca
0cc7d2a7
80c1dd5e
a3ccddcb
9d52caa4
1951dcef
9894b2ca
9a310082
e2909908
08a0ccf4
348b4290
00621122
e2820111
b0ac7c02
081a1192
ab5203c0
a14d0062
297afc42
9a2939ad
2822bda8
006244ca
8fb032a2
ddcc1df1
a2a8b8ca
ad99e07d
19278062
1823ca2b
81591247
a2ab9999
00a2b019
ec32ca4c
abcbec4f
c9a429cb
aaa12d34
35dc00e2
cd155bca
9e9deccd
9c94d9fd
00a29538
71d5441c
a4545126
abe98a4f
03505a21
211300a2
a44dfa32
2dce4b49
0cb8fdec
00a2dca9
a9a020a3
313c8211
eeed8a9a
80aadcef
38aa00a2
d42fb9a3
41421481
cfde4b82
00a2a1f2
9fdcaccc
eaaedef9
564ca5fd
243161d3
1c9200e2
b3981989
9800a298
d14dfd8c
0082dd1d
fdabdf91
9202c11a
8a0a0049
a81214cb
b7ca00a2
32346354
99820009
a8ba0919
0062acc8
4a449002
253229c0
70bdd29b
889412d9
38cb80a1
23fc9acc
982aa943
2c3ac542
80a1a12a
240aa43b
55eca44f
ddd45ccc
ec10277c
02900062
2ba81a01
93ba2e93
1fcb75bd
80a11918
1dac8cc0
0adc74cd
37f21452
8af0af3d
00000010
00000001
46578062
43547542
00007567
00000000
00000000
00000010
00000001
af1c8062
cadcdba9
0000dbcb
00000000
00000000
00000900
00000048
7b2a8060
2ed6c1be
005e64a7
0d525a97
00c10ddf
aca0a9ca
a92a944a
7e8a09a9
a56cea27
197480a0
255b9db4
9ec55d22
45aec44c
80c03ac1
b15a1bc5
6abb42b5
4b444bf4
2b354334
99a080a1
22980a02
b5290800
d0290ac4
80a176c4
43633a61
44bdb442
41125461
0a215447
01180082
722ca401
aa8a2821
20219281
8061aba9
50c111ec
24a53923
aa1b6137
c96c4211
cdfd80a1
4a444434
d00e2954
0abda5dd
80c00de4
6fef4141
dea0edc0
96beadec
c2d34dc4
02a28061
0301a2ab
00088120
7caed599
80c0fad7
eb3abcc4
d063daeb
dff2ad9f
2133403c
532980c0
b1dcbc59
7e0de45f
6b565cb9
80a15523
28232081
a1191aa0
c12d9ddc
f67198b4
835a80a1
ca9a9ac2
222cc015
9485aefc
80a1dc7a
45edccbd
fc418ec4
ddfdeffd
bac9c982
4fc500a1
565df320
d9657257
a45edaa6
8061c28e
4abcb183
365ca454
44a26748
8a924a2b
ecf480a1
de408d46
9a2f1998
cc473cc4
00c2e86f
2b22a82a
a902b033
45a98929
0a267211
2ade80a1
cdccebdb
c0dc08df
97444446
006276c1
18a94985
c929102a
05ca920a
93677986
163d8061
689d77ce
41ba29e1
0190829e
00a1ca8c
782652cf
8dfc9e77
daaa8ad4
cc22d424
8c9b00a1
38544abc
dd542770
f450b8dc
00614e0d
229dcafa
4248a8a4
b4e48922
00002502
eaae00c1
6de212de
2632c1d9
6752542a
80817857
1e345c27
78374a26
9292da84
c52c9944
064a80a1
cdd8aedf
abab902a
4bcbe3ac
8061c1a4
29519377
891521ee
3e02812a
ace0a022
abbc80a1
cb3a9ca4
74aca52c
da419492
80a165ce
3a085205
430302cc
015048c8
9fcd38c2
ade400a1
43ede5bc
8802ca66
0bcfd077
00a1082b
dd82addb
7ef2e749
020ea498
d0a21ecc
a6300081
c4c75dab
0f9aaa5a
cbba723d
00a1f8f3
e5c0330d
c44753ed
daacca7e
e42ffea4
27e380a1
454263c2
4b4873fc
1c541bc6
80c12f51
9c2c8dd6
41d4bddd
6e392444
d1dffecb
764900c1
f5afaf75
02a7549e
dce3034d
80a1f46f
424a33c9
d3193a38
d1c9fddf
99002610
aad700e1
2b9f4976
cadd6df5
2e4d66a4
00816a84
71222300
a2420f57
91a3dee4
2a520002
a9088061
066cf0aa
1abc68a0
9a11ccbc
00c109ad
5dece1bf
42aad1c5
14cbcac0
3a43235a
a1cc8081
90449bfc
6147579a
91120076
00624a92
4ab489c5
6bbb8c92
120129ca
fb3f8d92
cc4580a1
c9c3ac2a
99abaaa9
14ad7c9a
80e1edcb
cddbaaab
cabd0dda
cdcddcfa
a441c4dc
1ab380c1
14ac5b1a
fd3bd543
cda0f4dc
80c198ed
c2bdc1ab
3044a4aa
2cf154d4
7ca543e5
98bf80a1
2cc922cf
2e479c52
acdecaad
80a199e8
c8320002
e322cb8c
236a0572
382c9bec
541480a1
a0bcc2a9
d01cd142
aaac01c9
00629769
914a0772
b419a434
19022549
914bb100
a9d98081
10dca8f2
9bea080c
ccaddbd8
80e1bcc3
01cccdbd
a0208508
4fabaaab
d5ddede1
929900c1
15dddd24
9ca6773d
57bad44c
80e16526
bdbc4845
5ca289aa
53a2b092
52656457
21128062
89891012
1a4b9981
11292a7a
00a2d921
94229387
25c3a9a2
c2b434cc
9a00c988
914880c1
2ca65bb0
5513f5dc
ba049c12
80a1fc44
ac101dc4
6e81411d
95929e6a
51fbf3d5
6e6a80e1
748d5094
6b43a253
824501a8
80a1955d
51e2aafa
c3efbca1
40d418dd
ceca7d43
89a100a2
49c9a8ca
0aa11199
17444489
00a17b01
20aabbd4
5cc6dafe
eacfff0d
f04ecdfd
c11c80a1
d8cd00bd
b47a2647
c5411a59
80c1ec0d
cc9ac901
a30220ad
de4ee22c
ccdfeefe
ab8780a1
70b0cccc
272cb81a
5225aa26
00821ca8
11211013
0c922491
42320313
b4679dbc
456580c1
54ef6f44
cd1c0aa2
0ce242ac
00a2fcdd
742773cc
cacaccbd
c9ceaa9b
859dac11
00000010
00000001
82038062
43421062
00005767
00000000
00000000
00000010
00000001
34f78082
28415d20
00004f27
00000000
00000000
00000900
00000048
dcad80a1
db41a182
e22baacc
d2dfd26f
00c2444a
29910999
ac904aaa
cd31a219
d953cfd2
2cc280a1
7922cca2
ccdbadc4
5bacaa10
00824324
ca811022
a00aa83f
32ab18ab
9adca8ba
b12800a2
aa93ab0a
65c0a901
4cd28c6e
0062fc4e
103112f5
34160899
c34cab22
c15cffe0
142200a2
d41b2912
fcef4aa2
cb2a6a59
00a2c1c4
92422268
f0e472ac
425256aa
421228b0
443400c2
55f7f53d
b1cdbd5e
d4da4cc2
80a18c51
659d0aee
9c416744
64d69dc0
54525615
de2b00c1
2aef2c90
650425e8
ed5e4755
8081dffe
65938cff
99477126
b4aacc9b
a2034329
131480a1
ef2b805a
99a81a10
50c58ca6
00a13292
e4cfb12b
0d2c52ce
771deddc
6e672640
9a9280a1
5054ccca
1191ca9a
ed505576
806192fc
54aa0cb9
cfea2cc4
8a1a36ef
21444632
9a1b80a1
129a0991
12d11a22
8931759a
80a11980
51420280
89dc0cbc
e3dfca4b
ceca924a
44a300a1
ddcaddcd
46ecddfd
04cc5576
00a12465
0a18ac8a
4728cadc
df545456
7de692ff
07ca00e1
aadd8a62
000d04aa
a13a1545
00e1a11c
dfdc81a3
1422cdfb
75454443
abbdca56
aa8280a1
02a9a91a
acde1400
374a4527
80812d57
b8dfdfaf
08cf82a2
cacc0401
0b91ca24
09a88081
cfb77223
dc21f08e
0cdbd08c
80a1aedc
adbccdd2
ca39b2a9
00b6bf09
899b9852
aaa98081
6a81af97
edac2353
a1a2cc0d
80a12894
8442c0ff
23536525
0be3de02
32bc6a67
39928081
db245a55
8cb9c93a
bb2da5a9
00c1efee
564cec9c
a477a8a3
b22a0e70
28d1159a
670800a1
ba4f470f
bdeeadcc
2e00aae2
00a1008a
02cd64d8
de1fc077
80000080
00008880
aa020000
02422a22
00000000
0a000000
0000a200
a20220aa
00002220
a20a0aaa
02202002
02000000
2a000000
000a0002
0a0020a0
00002000
20222002
2a200400
020a0200
0020aa02
20020000
a00a0204
a0200200
2c00222a
000000a0
200a2a20
a220a000
0200a000
02a0aa20
20000000
2a0a0020
00240000
22aaaa00
00000202
0202a002
00000aa0
2a000a00
02200000
080080a1
08000000
6da30000
a1ec52ff
80e1828c
69d574c2
ccbb1ae2
a59a0ac0
a42c1458
92aa00a2
957f279a
82cb92ff
c219aa1c
80a1341b
a320ef4e
5204980b
52cdbe93
2aa35ce5
aa128081
4cb77192
ccfa9dc2
cacf0180
80811dcc
2fbbe476
40c0a4dc
162feb32
caa06aa4
05288081
d79a0c2c
ca9c9dfc
aeb22cdc
80a1d920
9df5370d
03416392
bc1bcdd1
c93a9dda
99c10082
c3894ccc
21280332
e1b2790b
80a180c0
ca030168
00a53540
dc3570a5
aab99ec1
13ab8061
aa0174a3
ac4a2532
9fededbb
8061a3e8
ac222811
2c40cada
a330ecff
2adcd29e
9b8a80a1
8a300322
c4cb9ae1
badf2bb2
00c1a8a9
342f0458
affc6af2
dcadfee4
a624ddca
cfec00c1
4e78a225
5574ad07
fe995a25
8081e1a2
c51bb33f
00f948cd
acbb2a99
84b419b8
ee3580a1
a621dfde
00e84c99
2aa00920
80a1dc04
9ebccc89
4aa4ebba
151db343
edacabf8
99a000f2
bbbab930
ec5400a3
ed5dd5d9
80a175d5
ba8e047c
ab5a54d8
5e8c5618
4c697776
bccc00a2
5409bc88
14c7be29
42baecfd
00c29841
19b891ca
7349de21
c0cbca42
92412a10
21898062
ec7a7110
003211c6
1951bcc9
008291db
8c023834
9bbbbcc4
4299b3c9
a17423b2
efae80c1
15329254
55344542
8cecee54
80a138a4
375a5730
44adbafd
21539288
8c1de5ab
a9ca0082
fffdbe99
232180b8
91225134
80c1224a
cc491c15
66d9efcd
63571a33
ff6b2cb6
a9df00a2
9b283421
093202a8
cbaaa919
80a1aac9
75051cdc
e10a4ac7
c3cdd900
cefdba0d
9cd580c1
59cdb94c
23a12895
56547730
80c142b8
bb5a2445
dedcd2fe
dac9feef
ccd4c9cd
00000010
00000001
44578062
53043034
00006547
00000000
00000000
00000010
00000001
bdef8082
e98cc8bd
0000ecce
00000000
00000000
00000900
00000048
931100a2
1aa41809
12fa0d42
09a12231
00a18011
84c045a8
dd00cb54
46cf5e32
4004664a
080000a1
00000088
040a8000
f46147ac
80c1dd0a
2032329a
3045a01a
47ae9a42
a9acd6fa
aa0800a2
912a0108
19aa989a
548accba
00626457
aaaacb74
aabec9bd
019229b3
50901091
6bbb80a1
eeacce47
0800c0cc
08080088
00628000
bbbd0d04
729222ed
a0b98972
a02a0321
91918062
65179013
80913052
83229a09
80c12230
564bf54c
3ef0215a
a94ca3c1
674522a2
9a7a80a1
aa0118a9
aa2a9a9a
652434cd
80a100ba
00000080
00000880
7ca57502
2a266525
ba308081
26799211
9ac8bcdf
aa504a11
80811afa
784645a5
12449410
80881aaa
c107258b
12f08081
08199a20
00a88a09
08129189
80a02982
3217d15e
a9cb9959
09900100
10099100
190280e0
5f10a54a
94a1a41d
a0c54522
00c1d130
efa7242c
927262dc
09cc0080
02d9a244
c39c80c1
a7284899
9cc5626e
c2adb9d2
80a1cdcd
982929d3
45ab1baa
bcec9ce0
f0cadcbb
000000c1
08008800
cd0e0000
577bc2c7
80a175c6
d6425a38
5247646d
cf5db467
abdcfdfd
0aad80a1
dba9aeaa
4113e45f
b421caa4
80a17431
dcdacc74
0aaac22b
0aa0cbc2
bb8b9099
83990061
2e902d5a
0100f0ae
00088008
80810000
a67a5404
a741a11b
02435144
22311c22
91398081
1a6829ae
145bd046
fcdaaaab
0062bfa9
31454222
f4dbfa0e
182009ef
80022908
c82c8061
ba024844
abc373a2
a950a2f7
80a19041
00888800
00008000
8565cb09
a32fea40
8aea00a2
9b0a9082
8b98c9b9
c9aecf92
00a24440
3a011839
124a9328
990ab838
652756c2
245400a2
a2b84451
ba0d0143
34124234
80617433
849fc376
b0db2825
00800000
00008080
ab8d80a1
228a4dcd
2cd9b520
30566534
00a29cfc
229419ba
16544376
50255461
cd205444
b53d00c1
fde7aedd
a9a442ef
c19a00cc
0081672a
a0087477
c48f24aa
a9984aca
c0c9ccfb
088000a1
80800000
ec000000
44dcea8c
8081caa7
acbaca9c
0a0a00a9
3a00bac9
a9ab8d74
010100c1
0d574758
59218575
50080909
00e1fb66
cc2298f8
00cb0a98
20003012
0a040922
e49c80c0
0aaa116f
01904056
01009000
80a09000
43c5f10f
0411e314
2544e952
992be4aa
00b800c1
b406bc4f
4902902a
404a0120
00a122ea
cc027454
6d6cc7ba
2d1203aa
dc32ca4b
cc9c80a1
80008918
b0097a08
aa2ba1a0
80e0d0aa
20009200
00019011
1545570e
d5ff4f6e
388b80a1
010bc321
99c299a2
6ac2bfc7
00820365
09980909
9111ba91
43601644
e12facba
65fc80e1
0ddd4a04
9a9ddcdc
2a89b009
80a1acca
04adddfd
60d344a0
80080008
08808080
23090062
c9754417
2a409091
ada91808
80a12328
d2fd09d9
033e84f1
a26a9ac3
dfbeaca1
12b800a2
be301332
a1ecfdce
98089892
00c12100
2a24bd5a
ae46a8a5
47fe2dad
106a3665
00088081
80008000
25040000
3f1742a2
00a2fcac
a084192c
20892341
ee2c1209
24edfcde
a77280a1
be886aaa
9dc8b8e4
290e2113
00c18df6
a0c1ce47
2a2c4a24
148105d9
ca25c9a8
017600a1
2c26719a
8000e04c
80880880
80a10000
ac08a903
4a6463b1
6cae44c5
8c884df5
2c5e80a1
ce6c3421
a3840ce2
67490512
00c130ed
22043211
e106b72d
8a0a93dd
0019a0c9
259a80a0
9992a92a
cedd34b6
301304f0
80a03154
00900190
00000991
25746907
942c4b76
29a300c1
89404444
aa229018
5dec2d25
00a21274
00001110
90980110
3489aacb
afc51e18
cb5580a1
a885091c
777104aa
a8aba81a
80c1ccac
ac2b05ba
685788c1
00088000
80008800
d20d80c1
b35675a4
1accccb9
ddda9b22
0062c256
1ea31928
2325b557
cdba8949
b4cbda8a
00000010
00000001
28258082
14183722
00000471
00000000
00000000
00000010
00000001
21f28082
91214488
00000a53
00000000
00000000
00000900
00000048
090c0082
b4d8cffa
c0912bac
09924289
00828120
4293ab8c
01504755
d2991010
4192157d
4dfe80c1
c556cdd6
5bd9646b
32490cb5
00620662
8a8a182a
1898caa1
de338113
13cdfa3d
43230062
1dfe3d42
1a821ae5
a223e21b
00a2891b
d37ec5b2
9edccc2f
0ac0cee4
8e842cc9
b45500e2
ef24de64
0984e162
0dcb08a0
0062addd
c3cde0fe
0aaad12a
c9460901
d8a98da8
c55980a1
40445602
3a649460
cfa9ec51
0062d8ee
1c9b0198
efcfdd9a
9b90a9dc
190a0a22
cce980a1
12ddcdbd
bcca98d0
700376de
80a1af85
df8adac5
2436128c
3444032a
1c034421
f5f98081
cb2f3a21
12242144
bac3ca5d
80a1ccff
4c03371c
aca2fc96
167db22c
224a859a
c55280a1
d32dd27e
67209400
7ec66be3
00822db0
cf030bb3
c072ed97
2ab29b13
aea29d04
01990082
b3412301
4c7dc6ac
c9abf45f
00624044
f2002011
267dfa6d
5018148a
02992029
21128062
0993a909
2a021110
929acb98
00e2bfdc
ccaaeced
4923abba
50481345
d8cfeed1
3a420082
ccaacaaa
ffca90be
d995ccdf
0062c2ac
d193bdcb
9bf95333
04dac040
35574413
1b140082
0edeaa2a
59da95d9
9c019ca8
80a1f1bb
446de2cc
2a2c4596
bdccdfeb
a154c499
992a0062
0b9764b9
a89adb7a
21b9a95b
80e13544
addbda6c
da2b18ca
fefc4ddc
da0da52b
cded80c1
394b9d93
0239cac9
34a6aeab
80a19c71
31549852
cdacce8f
944dc0f1
d225adba
b86c00c1
fcaee74e
decddfcd
5ae70edc
80c14417
90ec9caa
52dfd53a
ca0b10d2
9a250acc
adc080a1
8cfabeec
34665446
91f49d4a
80e13f2f
d850eef5
5305aaad
dc167e84
22542c55
705480e1
bd556af7
b66ed094
408dd4ad
008245e5
20032111
83243bc2
c31fbb10
cfffafed
ddfc80c1
6bdad42e
1c608da6
81ccccff
00c2b521
443a4322
d9a46dea
a0fba99f
a949da91
2b0400a2
29343905
88874c03
b9123cc1
00c2b945
b94ca25a
b5bad65d
26b9288b
42f5729d
120100a2
c74ca4bb
bafb50af
4b18aaa8
00c24fa2
5ceccad6
44440eda
5b1d3343
bce47afc
5b3680c1
94b2ea67
6cd48a59
ef12dc92
80a1d15d
932ca8cd
c413beac
dccf4458
aad0ccec
081180a1
4a265442
fe44ca41
edcffcad
8081cced
a0a88ac8
a42c2a19
b17794bb
e3190143
234080a1
b5420a0d
cddecdaa
cebccdd9
00a2fcdd
99a118aa
28992212
4cf65c93
99a81a15
119800c2
cc81ac11
80acc82b
866fc6ba
80c138ee
c57cdc45
245bd559
2db9985c
32b0b8c0
3e288061
0feba3ed
741ac49c
43736184
80a12da2
5ca430d4
ac0dd022
cb85cfcc
3dba29a6
c5828062
90cd957f
99000911
a1208112
00a28831
bf221222
c0679ec6
942d9222
50bb139c
ecec80a1
526bc419
4ac26812
8f82549d
0062c28c
019c219a
acdfb3be
aa72b8a4
b95dd026
d44c80a1
b8d11cbf
64674209
0c023a96
8081eca4
a28ad80e
77d448ab
56024904
34c142a0
734280a1
cdedad26
ccdd9ddc
c4bb929c
80a12419
8c0fc244
9013eff4
45048131
cbcc4155
b3ae80c1
6394259b
cdbd1d26
2d96cc01
80a1d771
2ca2222a
c629ec98
ccee544d
ccea1eff
998980a1
cc31a421
1c46e2ce
6aa2dacc
80c11287
b9cbcd5d
9abdda44
ff018daa
a198fedd
aa1a80a1
4453b1e2
f0cfedcc
9814c4de
80c1ed2d
2c8ad22a
785592dc
efed2a56
cddde9ff
cbec80a1
fdcb9c11
254423d2
041bda3b
80a124db
cadc7b1c
ecada220
dccb11c9
0c26d1cc
99d980a1
ecaa2a25
da9adcec
ade20cc0
8081743e
d4aa0a47
cdff9f8f
08000800
00808808
2a020000
a0220a2c
2a00000a
aaa2a020
0000aa0c
02220002
20000aaa
000a0aa2
2aa22000
20020000
aa000000
20a00022
022a20a0
0000aa02
0a0a0224
40c20022
a0a00a0a
200000a0
00000010
00000001
45558082
45744754
00004043
00000000
00000000
00000010
00000001
adbc8062
ddda9feb
0000c8c9
00000000
00000000
00000900
00000048
ca028081
81eb23cf
cab4befa
9ac9a910
80a19772
62674673
1231d065
8ab1c02c
06b1c13b
555380c1
27417445
153a5765
1a241aaa
80a12992
adb13903
0574ddd1
54815349
446741c1
0b4580c1
08000829
69c68008
fc3ddc44
80a1edef
fdd471b0
edd40bef
ca18acb0
508692bb
527780a1
b5b82c72
66424344
d1c94926
80c14fef
72d1c4ee
cdafa856
dbdadfec
2aaca019
19900062
21b011d0
23b24022
08807014
00c10000
c20adffd
0a3bb105
c82ac09a
652ad78d
7ecd00c1
5ada5100
e65a4887
a7629c2d
80c17c2c
2552a101
dcb76de4
921a9a50
0ab92ac9
3acc00a1
45de04cf
a2342ad3
9caec540
00c1feea
00ddfc2f
10800000
2ed5240c
cec42c25
8aaa00c1
8a50cbaa
e57de67c
a6320003
8081cc4d
10121181
a4944c93
0a1b29a1
42bf571f
a9f980a1
12aaa9a9
14309331
9bb43908
80e009a0
0e3a464a
3254cdf4
00c3dd3d
20900090
571300a2
18446676
2219c109
c89e9bc2
00c282a2
22505571
aa9c2330
294cb821
23b323cb
06228062
2511434a
80492775
a0132aa0
80c12100
8827ad47
e5136663
27cd1552
0bab6cd8
bdf880e1
8000504c
d24d0000
2c011cd9
00a23940
a2acba33
741924a1
ddaa1255
b808cbcd
29c90082
225ba190
cdef8cc2
4765eff8
00c14768
9ffec3fd
2c4c35cc
ceeffdce
aaacbddc
cddd80a1
914993e4
bcfb2a0c
0808a85c
80810880
802474bc
5cf0c43e
45b694c4
d4c44d74
234a00c2
dbd8befe
92b9c14c
248902a0
80a189aa
3b60b557
729290c1
4ff8214e
5141a3b3
123680a1
d07ec677
01244104
dddecc1b
80a192ee
20c30829
08000088
ecc44fec
b1440b44
da2200c1
b052acb8
149f4558
15190675
80614d40
2058a882
aa9cc910
9c932cc1
1ff45aca
4ae400a1
3caca560
2a422dc1
ff490bd0
00a17a04
c9701595
d022c269
80c12a8a
80080900
d13a0062
0ca42a8d
b9feab18
22409ab4
80a10a92
589cdcd6
adf2bd0a
021c2452
1bcaf32d
dd9000a2
db19dedc
a8f3eecf
42d9b98d
80c18ec0
adfee8de
b9adffe1
da0924b8
921ad00e
74148081
80006873
31230000
14421424
80c01009
cc9efddf
5ee73b54
44303b57
dac3dc91
02188081
23209202
d24b2c98
dc84929c
00c1f55c
2d980278
2a4524da
1cb8a156
0a989421
ca9580c0
044db270
30eb00e9
000159c5
00c22011
a9cd89bc
234776c4
bc351644
3231bb8c
324400c2
35657356
cb21ac20
15dc43cd
80a1aac8
cdf395ce
5371731f
1dca04dc
30609334
a9aa0062
894f9b17
91c21fbd
98afb18a
00a236be
70013324
80080000
1acb1139
25465210
102000a2
41909193
55762677
00dccdcd
00c2dccc
34bdeaa8
c1242228
44419522
25743605
004c00a2
244a1193
44467235
74467764
00624cc1
c96ac367
bf4ad73a
1009b9aa
88000000
445380a1
42854a92
32757556
4f25a401
0082accf
1634cdbb
91297572
0124840a
40223442
8e9a0062
ddccfeea
42c4beeb
b8101331
80819219
dbdc7a21
0334ccb6
67d30bb9
36454524
5a5280c1
00005055
0c450000
072d4557
0082654c
747c0a19
251aa843
11832202
314b1a92
b8ab00a2
af859bda
d33d2d1c
2ec9482c
80a1f236
e3434dc7
261944bf
20585a80
a356440e
ceb980a1
0d576b50
1a69d8c2
0800b0c4
80a10000
422b944a
00e3cb0e
a442d043
f8deaf22
b1cc0062
12a1ccff
18941918
c12dc310
80e114ba
adc65acc
cfc1d1bd
b29dd8d8
554bc4ab
86c580a1
76a4671d
cce8ccde
f75cbdc4
80c1842d
20a04449
80080800
fec66ddb
eceed9af
dccd80e1
fa4d0b9b
422cdca4
4b802652
80c12a11
4368c642
0e4a3cc5
feddefef
71d1ab0f
2a1a80a1
cfcddabc
2e54ecc8
ddc9bddc
80a1afed
5155f0d4
dccb2c22
18eab2bc
00888000
00000010
00000001
29a28082
76481174
00002243
00000000
00000000
00000010
00000001
12f38062
23002472
00009775
00000000
00000000
00000900
00000048
c1cc00c1
2cd2cdca
ee522024
fddffecf
00a1cddd
0347ddee
41c4245a
ab398144
a2669de2
124680e0
d650ee5c
dd222554
d2efecbe
80611d94
8823c9b0
adcaab2c
fbadcaaa
00cbc0bc
442400a1
00a54c25
42c02254
7d2ba048
00c1f325
8ef6629e
25258d4a
f5c25253
55ec6fdf
422600c1
b64fef50
c0ec7bc6
c254acb0
00c1ddcd
a44665ad
1fe6552c
5c44d729
9cca67c2
a42200a1
7ffbe500
2a0513ca
fbedad10
00a1c52e
adaecec2
fffdfaff
cb4dfbee
ca25bcc8
a00a80e1
46501674
2ca0928a
9dbbcc9a
8081d4a2
61266722
298ce44a
a8198ba8
985a9bba
a5f280a1
9dc0634c
02044801
8be45d5c
00a14226
b8534ce7
c21dce90
00000080
00000000
a0a00000
00002202
02202000
02aa000a
0000a202
0aaa0000
00020a00
02aa02aa
00200000
000a0000
0a0000a0
00020a0a
00220000
0000a002
0a2a0002
020aa200
020a02a2
00002020
64ea0061
29cc465c
3a72054a
d4450fb7
00a10532
a3ab2438
14e08cdd
062242c5
0cf967da
aa2a00a1
90aacfce
218aaaa3
f58a4dc0
80a1c547
aa1dcd64
30228c02
bc950b91
9217df96
254500c1
758c4023
542aaa9a
fd3f6abc
00a1cdef
cc4430d4
4c9ac24d
cffeefeb
4264d9d2
04450081
5402c12a
60ed6b25
1404ef35
00814465
91338a00
24c7120a
6ccc1812
2a428cc2
ddb200a1
c22bde96
28cefbff
4afaaaa2
8081eec0
469b670d
310a2cfb
12aa143b
42a391d0
43a08081
93364b17
bbb1d1c0
c4bad7a2
80e1ca5b
ad249d3d
ab44dd50
24080c41
a7ef06ab
944c00a2
e2a0d51f
41912222
de6ac71d
80814b4c
7a0a34cd
7fb44cba
c26c00a0
f5419859
4a6a80a1
24c55df5
251b030b
79a353be
80a1c821
a5bda4aa
d2aeb34a
5ac74c22
9d066a57
108980a1
d5ab0a0a
fd41eb93
ff5ffa4c
80c11631
ae156530
25562fc7
4c9ec75b
50e340ce
ca8c00a1
05ee5cd0
14050df9
cadfca1d
00a1ac9a
2af2ddca
825a9272
a0bdadda
62575ce4
42bc8081
c4ccc029
0990749c
a1333234
80813081
10c0baac
2211b81a
cc192112
bfcdcbaf
dcc080a1
8b1a925a
97b19b02
2be69e39
00a2fdae
565cfbc9
92a81c14
bc1b9a29
a129c2c0
3a9a00a2
cec47394
b8cbab1c
40090899
80a19483
2ffefe6b
c52e9d07
4a6962a4
2caa2ff1
249580a1
3514005e
ebcdcfbe
0a2b1015
00a1cad1
dfffeeaf
cd3a2cd3
921a40fc
a01320b9
a91a80a1
46413405
0a0010a9
145ac8aa
00c14715
5ee4777e
666a0547
a5554cd2
f5452d4c
2fad8061
f80deeca
12041aba
caa09b57
80e1242a
25488451
2ad1899d
15459555
a4d5cfd9
31bc0082
80908809
49112911
4c49daa2
00829c7f
b08bbfd9
412b40bb
cac98092
994bab19
995300c2
2d80b182
603f7eaf
0cfcd608
80824355
002d2111
8a2d4b5f
499828a8
18912a29
03418061
217055ac
faac2fb2
4d57266d
80a1bab1
0da02438
ab90b910
61a1aa9a
cccfccc2
adcc00a1
b44ada92
e19a332a
29474dfd
00c15800
0aeca244
6413ddbf
3c607657
cfd2ad3d
cef980a1
9a0cca9c
2bbab1ca
ca22ad26
80c1fecf
945232fd
3542ac0d
f96a0ec3
2a30c9eb
904180a1
3509ca03
f3da4f85
d42c356f
80c12199
a5421a03
faf1ad1b
dddd5ddd
4575c79e
1c0a80a1
d0c4a4a1
18dddf5d
f1a74ec5
80a14364
9074c692
bbba3c8c
acf01c9b
24a88991
432300a2
132748c9
9890897a
99a98881
80a13a13
474ac8da
cccaaca1
a8a09cac
90d02543
cbab80a1
c09cd954
44880210
8cc5c633
0062557d
40001131
1aaaa231
68331423
bb258f2e
a8800082
1fa8030c
357be2a3
cfdff2cf
80a1c9ec
58f00eed
3cc28094
fccece11
7dedc730
02db80a1
af482343
efcdfbc6
fedb1fe4
00a25345
20343342
bda34de2
c30efdd9
82918b0c
00000010
00000001
50238062
47366632
00005646
00000000
00000000
00000010
00000001
e00c8062
efaeddb9
0000f8de
00000000
00000000
00000900
00000048
c21900a1
bb004208
a0099a20
e0040ef0
80c00900
39c0090a
23e5a1ea
69434332
cbd26f64
aa0700a1
3822cc4e
021a208a
0da95f25
00c1daa0
c412098c
0a01f4e8
2b209198
90cac400
354a00a1
934b3ada
24443ec2
42604656
80815777
fddb1f25
8000f0cd
bcac8000
3154ca99
ca4b80a1
a9fccecc
cdd00c23
3b91d04c
80a1a990
724025ca
342cb266
120642a4
51142d24
565380c1
45745247
a2419a53
d5650c99
80c15774
8befddcd
199230d9
bcd09c10
0080b080
000800c1
00224cd5
8ded92bd
485c52c8
80a1af00
eb2fdc10
45ac90ac
05344434
abcaca63
a22980e1
50227488
8200badb
b323bc8a
80a12030
8ecc9229
467305c0
80890880
0aa90288
c5a000e1
70d4467d
08800000
5824028a
00a19a3a
42113289
c45a8c25
ecc49fdc
24aa8a21
434800a1
37205e26
25577224
84e5bda2
00c19acd
b5c3aca0
79452423
e060ccc6
a9a23a40
aafc0081
79721524
bc741415
d1c57bcf
80610988
83a28080
3345914a
9fdfb92a
9c4015e9
574d00e1
06551a8b
01e5455d
3259a566
80c1a343
12ec3f28
13829eac
c9544641
3522826c
54810062
f6622d26
9000755b
08088889
80810118
0ab65209
00000022
c7320000
ab9a441b
b1ab80a1
43a72c88
4fbec067
2d9adcf0
00a2acdc
3991aa1a
c9901924
7654949c
28015566
02848081
82a21775
6477340a
a054c335
00e122a5
a125309b
dccedb5c
acc25def
0000a02d
000000c1
457e9240
25423452
77de8702
80a165dc
21808556
a34632a2
cfed2441
c0211ac1
aa0c80a1
1074242a
a1aa8a89
c3489d03
00a1d2cc
abe55a4f
2a0cd4da
bbdca82a
215370a4
1a3000a1
d01ccca0
00000080
ed804c13
808126fe
b54412b0
4b9a092f
bb4ebda4
c9a92c21
471c80c1
aa666447
25a9842a
dbcadadc
80a12980
1c43a132
54191476
c3da9148
aaa0c86e
244100c1
d05ca025
77aa044a
f0245fe5
80610000
bb8a0000
9cca2edd
a4188832
fd7ba862
edff8081
1ba0cffc
1c928a04
4a00c473
8081baa4
4a14a33c
29a02241
4a52c957
dbca0429
abcc80c1
dfc58d02
9000c25a
ca990889
80a0aaab
b660aefb
1090606d
a4be0110
c9a2a295
a80a00a1
a995aec9
51331207
0aa05864
00a1ca9a
0effa2ba
1540a9ec
c7dd4324
4c100cec
abe80061
225e09a4
620446ec
8c860484
00c1e07e
480ca451
82a2128c
8ffdea2c
0800f0dc
800000a1
420dd485
e0002164
57fa46ad
00c15c73
cdd44fd4
ccce8f2a
8dac1cae
ffdcafcb
c0ae80a1
6a756292
b8990ba9
d2592c25
80c1b9a0
98d8a02d
246df253
441a940a
0cacea2d
4aba8081
a07099a5
80000800
a1749c24
00a21152
16989099
04466724
33044631
12081982
ebbe80c1
31abccde
c50bac81
5d637564
80a14aa0
af23cca2
bbefea2d
62c1953a
a834fa46
546200a1
de306082
c1eff4de
40475354
80c18880
baa98000
a9e20bda
ed00811a
dccfedcf
da2480a1
4a348c4c
512a3b80
0b8f3437
00a23442
cfeb0c29
9298eeee
a9022222
a2131a9a
145b80a1
24094da5
2802457c
bb024222
80a1ac91
846acdc2
00007041
40c00000
31ad30b4
4cc580c1
73435918
50ae64b5
171cb552
80c142c4
1cd10435
60b205dd
7565b706
c25c7654
19a98062
90a083ad
a9922890
59ada30c
80c191f9
c9811818
c2290828
bff28080
0000f0a9
800000c1
506c0341
6355a009
b2eef223
8061cf6a
3235a1e4
14352ca8
47674045
afc22970
fd3c80a1
a020ddaa
00242121
11177249
80c1cd42
ccdedcdd
d202cfc2
9a998809
81289a90
5c2400a1
e05acfd4
00000800
a0102029
00810390
a4022801
4228a4cf
23a8c4a8
a8a91ca0
babe80a0
ee151cb6
4deff35f
f042f270
80c02054
9f2c1923
d26fe554
39c1033d
5dac603d
00000010
00000001
20048082
34292235
00004057
00000000
00000000
00000010
00000001
12e28062
85801444
0000b375
00000000
00000000
00000900
00000048
af4c80c0
5f7a45e4
adbef556
ae45cef0
00a1d506
f520455c
2ad24cae
a01bc090
4c121420
dfd20081
9030d2bc
01b0bd8a
40122a10
00a1afc3
5099c22d
12045246
d5cca920
20155dfc
9aa08061
b9c1ab99
60cd1228
03d29f32
80a11f0a
c0ca481e
2b9c64c1
9e3ec0bc
1442d2fa
544180c1
8ac1aa92
cd2de7cd
c480322a
80c1542a
db2b2ab4
d0b044dc
efdfd2d2
ecbce1ff
ffdf80a1
c5f7caf5
dfeb0aa0
c2eeb98f
80818246
cffeccaf
dbaf99f9
124ac3ff
a1121a41
0aaa80c1
5fa4a917
38a44158
91099201
80a14eaa
dccacffb
9ab19158
a20abb8a
a4ccc521
588c0082
449cb44b
00008890
203af700
80613a2c
4b13a9e2
a209aff1
35e51316
430145a5
d5c280c1
ba8ed55e
3b821a03
ee55ce47
80a19c5a
a911ad22
a5292208
d732ab8d
353bc54b
88410082
39228201
52cd78ed
80ef97df
00a22222
a68e2121
0c0f243d
201409c3
b9421008
8a9a00a2
90caaa0a
32b44fec
30931100
80a11819
465caad2
3a21c7b5
9b520566
ec540935
eac38081
bccb4d8f
28a80692
f0a20ccc
00a2c4d7
7cc9cba5
a128cdb6
b4238a98
dc99dcc7
a99d0062
d1a09b02
49a5942b
22f749e2
00627125
a35f9593
1a24b0cd
9b559c81
aa3adc73
283200a2
66ad0542
84bc94ed
d7add63c
00e2574e
19029952
61da1b92
56ef1dd9
414351ee
301200a2
349d459d
1de3efbd
a43c2446
00a1d92b
1acd5902
5d0a23e5
045a1487
aa930aed
ca3a00a1
d41aca8a
02280104
acdadd8b
8081c70a
13443357
409bc10b
98898890
2a1111aa
dd0a00e1
dffacdef
aa2510c8
2cac9d2c
80610ad1
a01aaab8
22828aaa
c86565ca
f1ffbe50
f14280e1
e18dc37d
8cd4400b
29330335
80a12b22
be140a35
c6662ff7
dc42dd66
0377b749
9b3280c1
25243b92
22a24492
ef5e55de
80a11020
ecab2a9a
ff9ee62d
4ea444e3
1c96cec7
00000000
022002aa
002a00aa
20020aa0
00000222
20aa00a0
00000222
20200000
00a00202
00a00000
0000020a
a0022020
0000aa00
00000200
0aa00000
aaa2a0a2
20000000
000020a0
88008061
00000000
1d510000
a74ea4a2
00826bfb
a41aaaa1
589c43a9
2efc8cc4
9949edc4
4aa28081
590fb724
aaab22c2
1164d73a
00629459
89089911
552fd298
f5382ef0
5811231e
801400a2
e67cca32
6acaa29d
9b1989a5
00a2b099
c2a13a21
9ecfff69
8a2201e0
742da41a
cfe400c2
d8e4bebe
88405aa4
845ac995
80629192
19809191
92463902
28989039
a70daa91
3bb08062
c439dc89
9aa80019
f3750011
00c2b11e
4ea5678c
2920d2b6
55ab3acb
a2aaa839
8b6700a1
58c20cc0
74e7298c
9cc04aac
80a1dd12
57439221
f5de927d
aca4cd61
c966a4a9
10120062
9aaa819a
888899ba
cd5d67df
80811022
9f9b9911
ff42341a
129aa9ca
2bc8cc44
b8ac80a1
fc9ede70
4c56f45c
54d65cf4
0062458e
34bd8429
a49c77cd
cdbc22cc
d8129b14
3c8500a2
7b264dc5
80c82c85
ea8ba02a
00c2da43
dc22df42
2441ef31
4e174310
b5d69ed7
a56f0082
4acacabc
8a0a09b2
53e2adaf
80c1aa21
b15ceadc
12c4dd0b
9c000c41
855dcffc
40a40082
f8cb4b42
c01250fc
c0095572
00620310
09a1995a
a002a421
9c0f2309
9018ddfa
cd8a80c1
64d4e4dc
ccfdcd72
dcdd7025
80c1354b
eb75f53c
3019a53c
55e5ada8
553855a0
914a80c1
cd4644db
02839c21
9c32aa2a
80811f24
76e44ac9
aac27e47
c0abb1cd
cd46c019
b89380c1
6df5ee50
6520940a
4c26cd51
80a104fb
cab81189
d4af55ac
80080000
00000000
0a200000
a2002000
00a00200
a000a22a
00000000
aa000002
20a2a2aa
aa0020aa
02002202
20000000
02a0a0a0
a20aa0a0
000aa20a
0000a0a0
aa00a0aa
000a2c00
0ca00000
0020a0a2
00000010
00000001
56258062
75062467
00004075
00000000
00000000
00000010
00000001
ecae8062
ca0badfc
0000b0fc
00000000
00000000
00000900
00000048
91100082
80989908
aabc80ca
e9dfcdaf
80c19bca
de2eea93
72e3aedc
bad29d49
a9ca0189
18b800a2
00003234
900c0800
bc1a0aa9
00a2f9ad
56bba8cc
caaa7754
82d9dcdc
55ffbcac
d76b80c1
08807077
a4900000
54283232
80a1a064
250b30d8
a90c8829
46753aa2
4d5d54de
2cfe80a1
21910024
cc0c0301
0000c1ac
00c20000
3db3898a
44170632
bba01846
b1baa900
19c90082
c2574002
dc990bac
000800a9
00810800
a909b0a0
faaaada1
284ca7ed
ac43cc4a
1b038061
3449233c
148e051f
89a08a2c
00a18a80
0ef68cde
00800800
b4adac0a
1ac46dfd
2a318061
dc6b5788
d9008909
310554cb
00a1440c
60774862
80088080
0991889a
02b3aa08
449a00a1
52235198
d720c42c
012c4828
00c14d18
22f56dda
89202212
b09c018a
00888000
0c8500c1
7f21aa05
44a3bdb4
81bcc010
00a132dc
0a0c72cf
a9a052c4
c8baca41
00000800
032280a1
1c1d2442
c5fdddde
592a46a8
00828283
cab11929
1aecac3f
08ac0dac
18890809
a02200c2
88809118
55890880
04655187
80a16502
d9825377
b3ed9b04
99c9ac2b
40afe556
fb2000e1
80000170
20020880
56452224
80812665
2cba889a
ca1198c8
0dadb01e
40babcf8
721500c1
42244254
56459642
00885725
80610808
8a1dda02
eb2b4bb0
abba2add
68f922a0
a5d400c1
3ad535fe
9808c2ac
8808a0d9
00a10800
bebb0a1a
abecc4df
04dee306
cb452eff
dd4980f1
acbc3bca
464255ca
1220013a
80a12211
157b0654
00080000
21d20a8d
3ad24289
c0890062
ac192810
93722542
c88b8278
80c198dc
0011a08a
88000808
8b009102
6257a5aa
24748081
e60cbd34
180ce240
119c078c
80c1cff8
02489cfa
1da24549
cdcd82ef
88808000
9c8a80a1
c904a14d
5a1625c6
cf4d9419
00c27d42
569ab953
ac647447
a8b939b3
00080000
102a80a1
b68c9ac9
0a094526
9989a802
0082cdf2
9474abd0
cb8a2919
90adfb9b
12900119
41430082
00000094
bb0c0880
a0ffefce
0062da3c
1b1be2dd
cbbc9ac2
81ce9cef
19112304
cfd380a1
0000c022
18810000
b8191011
808109a9
a14122a1
acb9a11a
8b3aa9c1
bf09320a
f90d80a1
aaaaa9cd
291491a9
00882484
80618808
c10db88a
fb2ba9da
acaab88e
3f9218b3
efcd00c1
4ac443a9
2cc229a3
8008d02c
80e00088
0ab0112c
b446449d
f4c2f905
6a76396e
4a128081
b01df210
a0492b28
981a912c
00a190aa
cc18aa33
00000800
3df6430b
44daf23a
a83a00a1
9bc5ee22
445ed364
d666547c
80812c11
900802a1
00008000
a9abccca
fa9fcca1
01cb00a2
92542225
73466544
c454ad35
00e25655
34755666
11101241
41044412
08000000
9c0e80c1
aa906552
b4714aa0
5ac59853
8062c667
11511673
aa98888a
20803492
80000808
a99a8081
44a299ba
d1546444
2b1cb279
80a1bff2
f231edcc
eba948a3
24eef2de
31344434
9da980a1
0000ccdc
9a010000
3daef39c
80a1fe8a
1024e1cd
afcfdc8e
01f7efef
eca58262
89cc80a1
0080a8d9
ca900000
fda1ba9a
00f2a9cb
5a2311a9
3040a8a2
62bc1239
25a909c5
5c0a80a1
90921bc5
24359211
00007447
80c10000
1fcdc28c
6c8fdcc9
104295e2
19d241d9
b2c68081
42f9cd99
832c1345
8000b0b2
80a10080
2a9a8321
4aebb0cf
bcc9dc84
68edc22a
299480c1
f94ce013
4a14ea3b
daadcc55
00c20acd
21131015
00000008
55590501
67654623
59478082
10132090
90209190
92238a08
00c12929
00485efb
00000000
00002a2a
04285881
4c5600c1
62954585
2add2adc
f1474ed7
8061c066
12cadf59
22221801
a00aaa34
08800000
c50200a1
66dca42d
447ff574
bae1de45
00a1d975
cc151f2a
75d9da6e
c0cf5758
00000000
00000010
00000001
00538082
17412449
00007832
00000000
00000000
00000010
00000001
01718082
92900222
0000a228
00000000
00000000
00000900
00000048
ff6680c1
d4ce4bc7
2bed9d36
a550ba9a
80a1192b
45429a02
5cb24a41
2f4014a8
7ec26bf6
42f180c1
65d807de
c05b56de
dda49c45
00826f76
4aa23ed9
222134ca
7d151011
a00f72dc
e03c80a1
e44d24ca
ddbded70
49bebbcc
80a12667
01bc9c5d
c9a91aa4
58f2843c
c1b27678
a90a80c1
ba49c0a8
584fb43a
2395ade2
00822b58
88008ab0
91199980
fdf01e2a
bbbcb18c
c3c28081
585c5d67
2c435792
2949d30c
00a29fa2
28921989
0c011820
0ef6590a
a201eb62
281900a2
0199b9ba
3bba93bb
876fd8a2
80a179f0
054cc985
7cbdb651
9ad762cf
0926505d
a47980c1
b2a01b8d
0cdac14c
a9a3880a
00c229ca
b8099a98
808099ab
33a4aa08
19c7b38d
104f0082
18a012a9
82398910
527b4bcb
80c1abb1
cb2dabaa
3f69305a
d2a1a405
2d4d72b4
22c00082
cca90820
b84c4e7c
339bacf9
00c22840
7f492191
92c53e6d
cc092922
23401848
5a5180a1
ec4f41b0
2bdcceef
132aa9b2
80e1422a
fcee0cc4
bbe8dddd
ac30c41a
49330490
bdcb80a1
740bdc0b
12608a87
9db92a01
80a1d4a4
acd92d9c
a44055b2
21b5cc30
fdaed1c6
e26f80a1
ece92c99
5815aa22
8040150b
806119ca
a9aaaa80
edff4e44
2564abec
0bf0af34
dc4200c1
ca92dcad
94ccc859
d70cab6c
80a1b976
33228918
99892244
55bb0890
cabcef4d
88ab80a1
cccc2290
0a8130df
cb46a2ca
00c1ac1c
eba2ce36
fadefffb
4331c4e9
bc55d41c
cb8c80a1
37628434
38a02549
7cf65980
80812316
040e074c
42ada0fd
9424cfab
284c2265
3ddc8081
dc0cda96
24508334
71307518
00a1d12b
ddb8ac3e
8c5ae9c4
3423a40a
fd8fef60
efff00a1
fd1aaefa
dedcddb9
dab05ed8
00a1c088
44c0a2ad
9ccdec4e
903539dd
defefeef
babb80c1
9100a9aa
14018180
24522367
00a1a1aa
c2c4842b
089b6720
caacda5d
25a0cceb
994a00a2
229f043a
21fce427
99a1823b
80c1a8a3
a7c56051
d9606f3d
b44dc2c6
2c3ea984
995a00a2
c413c09f
9041bc2d
e4000998
80824f13
c2a00b1c
20210992
ae141091
006a7d9d
59f580a1
5a6c69a5
34a07a6f
2ac4ba56
8061bcab
91aba818
a99a2bfb
ce3a01a9
55a4ccfe
246500c1
4748fcac
09ac2361
0520ea4d
80a1554b
0a802211
081042aa
df02b6c8
c0bad9fe
ed4d00c1
c4eb33f0
fd9a1cd9
a4cc8dcd
00006777
0020000a
0000002a
02200aa0
2aa0002a
000a0000
00000a02
a0002002
22000000
00000a0a
00000020
000a000a
0c0aa0aa
a0a00002
aa000000
00a00000
0020200a
00202200
808102a0
00000000
88000000
aa4aa42b
d1717d9c
a2d380c1
cea22b4c
5348d2c5
2ddad650
80a1007c
1daa9993
60dbf2cc
388fdc8d
aabad253
941c80c1
42554cd1
cc2ccee6
1fd3a042
00622341
e4aa199a
9a5c7ce2
40b201aa
194a01c9
7c3680e0
dbecc9c1
452959b2
edddefbf
00a1eecc
4357aacc
21eadf3a
342c9081
c1ceb05a
da9a80c0
f5eeba4e
194c9562
d0643645
00a15cc0
43990a25
c9aa6585
44060898
a2ffbe28
9a1a8061
3411b3cc
5124ce4d
2d470234
8081e27a
944912df
92249a0c
e21d983a
00f2cffc
01398081
a9125cbb
c404af99
412b915c
80a133b5
13424264
c2482c20
1c09b21b
6df1eedd
965780a1
f1d41d6f
dec02acd
0aaae0bc
80a1c49a
bb976080
8ad1180c
44938032
2090a180
801000a2
2579b0c4
29a892a9
21aaa0a0
00e12082
fc1ccd84
742fe664
c103add8
4a51471a
1a4b8081
a98aca84
0321a008
593fd533
80a109c0
dc654ce5
baa49cec
d972c4de
c01d6221
cc5300c1
45856496
da0e8544
70a26668
0062de42
ed080801
4d4689d2
74859bba
19b81c23
22b880a1
b61ba149
cb05d02a
3ea4fe70
80a12012
dc524513
44c18b17
cd1c8828
548867de
00000010
00000001
56758062
06744444
00004525
00000000
00000000
00000010
00000001
fffe8062
8cfbde1e
0000cbad
00000000
00000000
00000900
00000048
295400a2
c9ba6476
10c9aaaa
921ba912
0062a0c2
88b1b229
aabac177
0b116955
a91c9aac
999080c1
1fd89803
66d3be3c
885480ea
00e18008
9d5e0608
4425eedd
6732d477
c62f2c26
422100a2
49762443
9bb47626
442524b0
00c26446
21322265
57641588
584a7564
a9001dfd
20008082
c08b9a23
899892ac
24262311
00a20447
3a323563
000800b9
27580808
29118404
12110062
79e2b34b
132aad37
9bc02c9a
00a1c29a
7412e223
d88750e0
20abd00b
a72c4134
caf48081
0a90b21a
28330089
90a89099
80c10922
aba808aa
244410bc
a0aa80f2
08800002
808000a1
2470a0d4
aa190301
4acbccba
80a1c4a2
90a01a9c
44b0aa80
9df1cdac
419546c0
ed5180a1
af0cd14c
0220f4a5
123500b1
80c1dd4d
12feefdd
3ad24409
298419a0
a2d55fce
82da8061
00220001
0e000080
a94edf2a
80c1d82a
aacbcdcb
a4922330
2ce9210d
effcefda
adcc00a2
bac2bcef
24d2114c
62377534
00c298ab
43599148
a0084efb
1c4394cc
8818c292
dcaa80a1
e1acb51f
da02a36d
00e11cdd
00c20000
67500808
a98a62a6
a21922aa
2416502a
476600c2
ad0c7154
d09a9aaa
b8103188
00a22cac
3b1294a8
16a3d911
49137554
a93801b3
b22a00c2
baa82c00
88bcb018
54242193
00a24647
31022379
80080020
34120408
90200134
18ac80a1
6890940a
4534ab07
212344c5
80c1cb40
46ca54d1
cc5c1986
a31dcce0
4f4f4ac2
e9ee80c1
4b8d8430
329823e2
d573b419
0062aa22
819a90ab
51aff2ca
a89aa9cb
00000022
0d8080e1
bff0d9cd
01002022
2edc82aa
0062dd25
81aab9a9
261244a9
06af32f3
11a0b01d
2aa380c1
09232cd4
50555672
62dd1a9a
00a23b24
829bbb99
93229244
91211244
54626527
184080a1
0089c199
05008008
5425b657
00822c44
24a2cb9a
c9121319
9aaaa9bc
934a67d9
ce2480c1
dd9a52f4
d20dcfcc
6d466559
80c186cd
7ec550b5
efddbac4
dcedafdc
5aa421cc
92a380c1
53ed3019
11306687
809b1920
80a18000
a4c18c00
ac9a7663
cce2cedc
d04a8940
420880a1
41a75146
5747054c
c0218664
008238b9
77442412
88917157
a2ac2001
00111103
978a80a1
42466765
98411345
d13aaa0b
8081b5bd
4a0567c5
0880009c
a6438100
c0cc5a29
65aa00a1
40872a52
9b5d8251
d2dda020
80a102f5
a54025a4
da2f4e52
cb2129dd
3f5fd5ac
525f80c1
2cdc3328
d29cca3b
db909b8c
80c1ca0a
820cd980
d412d716
8009aa40
00000001
020800c1
d0d40654
229ecbec
6a4da7c0
00c2aed4
009cc9a0
98210000
9578a539
043a2253
446300c1
ba754df6
8a831cae
4db0068d
80c1d19c
5575d6cb
5c476356
8c9cd09c
ddfde3ac
fc0c8081
08ceab0d
0a008000
fac89fbd
0062c2cc
b0101310
1ca208aa
a11099a2
d47b0582
aedc00a2
33c2bffd
02442443
0190882b
00828eac
88aafccf
2352478a
94ba9a1a
06801839
554400a2
ddab2444
11c8dfff
88554323
80c10000
2dfe0708
2344add4
74961b10
2a6c4576
b2390062
19bb90ac
24700aaa
76302335
00a21007
31913549
550622a1
2cc78225
89c89479
21a000a2
529c9213
33422191
6c30ac81
80e17835
e12dacb1
808800bd
dbd38808
090a0ddf
add98081
dbc52a91
7cf9a25c
190499a7
80a1cb90
d2624980
a45a8010
4ba553eb
cccb9a74
f3ab8081
147ae730
320324c2
cb022c67
00c1a9a0
3482c98a
dfcf8bf4
b08dc9e2
800000d0
04008061
3da71779
a8031810
0cdaa14c
80c16fb8
1d2ed8c4
92c0eddc
ad412732
4099a942
857500e1
2ab56561
6971cd55
a2c4cccd
80a1c57a
3924b4dd
41a080c2
422213aa
edf042fa
925880a1
88004900
0a000000
dfa82bb8
0082b29c
980a1899
91990329
24180129
ef8caa10
00000010
00000001
81378082
13b22354
00001a44
00000000
00000000
00000010
00000001
02708082
a1000342
0000b279
00000000
00000000
00000900
00000048
2a918081
cf222299
c90cd750
72f0877d
80e12aac
abadadd1
3c95bbca
60acc550
fa6caee7
fb3600a1
2fc8a22d
fd74fca5
a2faa06e
00a1b45e
fcd22e2c
7efaca28
2f60b0a6
c020cd9c
239c00a1
fd074cc0
2aa1053d
c0aa1aab
80a0c08b
927c92ce
aaa1b9b0
6b5c9210
ddccc62a
b0198080
20495529
efc5a9a1
d31acfdc
80c0e931
51121413
0c604d22
2b03e3f5
3db1cc4e
ed9480c0
d7e35f1f
0ac43dd5
ddaa4903
80c1a9d9
524a9543
167cd992
a1034ab4
952aaaac
4ba880c1
afd8e48f
943bcd08
a1154bc1
0062c10b
992bcb83
0aa64899
02288158
f4218d88
2a1c00a2
a222aa91
21090121
dbc7398a
80a1ca7c
7af8874f
880cecd3
adcc1011
4eeade0c
aa4180a1
54c2944c
cbc3583b
c7d49fbf
80a14c83
92b9c82a
fc392b22
0dc434bb
355549ca
cb1600c1
efeac94d
42d5d72f
d6444fd0
80a12a58
5959a1b2
c0fcf560
cf224349
aca18494
045a00c1
dd053aab
52dff67d
ec5a8ea6
80611652
f42d2a98
aadc2ecd
1de19ccc
29a9c10a
ba818061
4ed98a80
a15becc6
af001219
8081faba
9dff20ab
b463a3ab
21bd300c
fd2420c7
874d80c1
c8c86ae8
28022238
aba2aa99
8080b31a
9b99b970
2112c3cc
e0afb029
ab4395a9
263a8060
76b7aa57
52cbadcb
4c115ed7
80c0a000
a4201102
124b003a
ecd91f43
7c2662c5
fd0580c0
d3ad99ac
ced9bd01
762cb964
80811dc4
299a8122
3ca2931c
d53fcfca
100b51fd
8cb080a1
dab00dbc
a2323a23
4db5259c
00a1f042
d02cccc5
ccbecb00
fa3fdfd5
231ac1fd
8ea400c1
c55cefe2
0cdfe34a
adacb9e0
00a1adc3
19ccdbca
c75cddc5
551b8132
8cccca4c
aa830061
2303cfee
42032342
cd0200b9
00a1a8c8
0133840a
4a554544
a8dbfecc
29420422
22b00081
b9cd0c91
cf8a0cda
abcaacff
0061c442
eafbcc2c
decc2cab
b2aceaae
89209024
232a8081
b4219012
0280271c
92a9a821
8081240c
41c942a8
bcc07fd2
ada31800
a952abc6
ab3580a1
4dc4c262
b86acb17
da09029a
80c1e74d
d33c4c3d
2132cc3c
df260181
c44df873
52ed00c1
cc258ffd
cc0bb299
88c2cddd
80a08522
21453429
3234c250
54559b10
66476035
656780a0
ddea9e65
619df3ef
d420cec6
80a0200a
90999c2b
0201b033
3cbe160a
aefbeedc
c19180c0
15624c12
ccdccc4a
0eef1ccc
00a1ede0
0ceedcde
20abc2ec
da802cd6
202ac4af
9dd000a1
1ed2409c
09b0a92c
0ed22202
80c0f432
e30defdb
fecd9d01
d6499dd2
c9ccdd0d
1ebb00a1
c64cddec
caaeebaa
53ca44f2
0061cb65
68e8a22d
2759ccd9
00000000
00000000
00000000
0a000000
000a0020
000a0200
00000000
20000000
00200000
00000000
00000000
00000000
0000a000
00000000
0a000a00
0000a000
0000a000
00000000
00000000
00000a20
952200a1
fedcaa4a
2262e751
50c442ca
00c1a014
bc41a14a
a07a955a
a41382aa
02fe465c
199d0081
c2287cf4
ccea2aad
21aacbbc
00a10dca
eabcada4
0b12558e
b5eecdac
ace26cfe
dd9c80c0
664f5744
0ded4ced
2614d195
80a1c0ef
b47fb5a0
1012c2de
1cc10012
9c918a90
845400e1
bed5ae54
ab540376
cbdcd00b
80c040cd
a0dcfeec
73db1540
c44dbec0
f53ddc4b
419e80c0
205346e0
cedcecd0
de04fd6a
80f1dc19
21c5521c
2cd6522d
40018243
4ca1a001
a12100a2
f47efee1
8ba309ea
2a9a811a
00a28010
a8a1089a
213ca341
a219a9c2
7fdec309
b8b28082
19098101
21912019
535fb929
80c109d4
f2135ed5
a4934cac
21898808
a8aabb1c
10a100a1
19128a89
10a2a080
04750604
00a18a30
0224a080
d0eeee0f
2081ba8a
ab32a418
8ad800a1
99aa0c21
1191baab
1b4374dc
80c09000
32d6ddac
ede9eede
1799ec0e
cc9ddd66
00000010
00000001
54428082
20424341
00007222
00000000
00000000
00000010
00000001
eeea8062
c0dcdcf9
0000eabc
00000000
00000000
00000900
00000048
44720081
9a5a5a91
43acabaa
637c8c13
8080915a
6937a4e9
4203113b
22cc1d92
9bfcc02a
35220081
b0003458
a01a4cfe
40a80aaa
00e1ba02
0000c01c
2ca20000
43c0dcba
c7022a92
2a5e80a1
44abcad4
23c32240
98214674
80c11a9a
4ecddd89
4766b5c2
d0286575
a23c252c
2cb080a1
42b52284
ac089066
dabfbbc0
8061a8bd
290118f0
2cf58218
8000c842
4ac10000
a9820062
a999aba9
d2a9ef89
9a1193cd
0081ba98
48021328
090a9120
d44dcf90
5b4a25da
f00480a0
fcc64efe
31020450
2c232412
80c0b951
a99a99a9
62ca277d
49910110
c2413044
003800c1
00080000
09192022
1224acaa
80c03744
5b604eec
dc2d01a0
4aafe12d
221431e4
2c2100a1
810ef402
bcc24a0c
28ccdace
00a18910
2c08a800
495ab324
02009aa9
49d2076b
01f080c0
cc241092
69351540
00000099
00e1eba1
20a2acca
57220020
cad47c99
cb0c009a
81a20062
90302764
27181900
41177555
80c11500
95c43659
03025768
44a089ab
a22550b5
1c8180a1
cde19292
0b79b767
c31a9080
808149b1
08004007
92a00000
80fb019a
5441a11a
17578062
89886162
810109a1
00001110
00a10880
71c53723
d21cde25
d0916520
53e5399d
0a2200a1
e0adcf14
cc909a01
e535a08c
00816329
82a090f0
821aa829
00009029
42650000
099880a1
b9ac9009
66773999
21215324
00c10101
99a8404c
aaab09b8
c7756bbc
26355a4d
67410061
40e22abc
2ca8a02a
704a25a0
00a1b7a5
54556654
aeed547c
922009c4
aaaa0a00
10028081
00000800
bea14a38
a199baa9
80817511
f1d07b2a
10a2188a
22189118
80889008
a2000061
aaa778ac
257c9820
c4428aa1
80a00020
02b91ba9
c6432cb4
a9193066
c715aa92
907a8060
9b001100
e92a0fea
09000000
00a11265
0890aa90
6d8a8808
611cf0c4
0a800818
ab980062
90c0cecb
a2120108
b2dbaa0f
00e18a81
dcc51322
cdf0dfdf
ac129238
80eed18c
249a00a1
4fc35524
62a41ee9
42102222
80613ac4
00809029
f1af0000
cda918ac
72dcca8a
e0518061
1189d1ce
502544a4
a8799657
00a18888
cacabd08
dedc0bc9
2acc840f
8a38c2b4
0a0000c1
475c9290
454472c5
8ed55454
80a0dd2a
39045500
374dc244
000170c7
4b620010
cdb900e1
401442a4
ee0ccf30
09b9da50
80c15585
0a244304
000281a9
64924722
a588a1b5
c23e00a1
ddcdeacc
2a8144f1
6706689a
80817a47
99c0aba8
83773bd4
c99b9a19
5300929a
089280e1
00008880
0cc039a0
224045d4
00627c12
482ad767
9a989999
a9921aca
10011228
dd2280f1
9cbdabed
a2ca9a28
b040a223
80c11091
29a81a11
d02a9dd3
80a2ac91
50677ba5
02788081
429008a9
b0002ba1
00000000
00a2d529
22a2924a
9f212233
c9c8c0b3
09b0a998
22228061
00415750
c0109211
e0effdad
80610919
a2409ab4
0a205cc9
8219c28a
7922344a
83018061
0ba05531
31b5fb10
22332364
80815642
80007825
191b8000
01802cca
dd030998
ec9e0062
1212d1ef
11110010
11b10b9a
80a11100
c6152f04
20a11a2a
bacbb901
993998a0
aa9880a1
0d2214bb
2822e40b
1dbf9a92
0081c0d9
4524904a
0c5dc224
0000d0cc
cfaa0080
da2c80a1
aacca1bc
7ddfe609
aa816aa6
80c1990a
48200281
9baa9a9c
676cc519
22185991
34390082
27775195
00119870
20910101
80a19922
88c1acac
7a2453c5
1188a1aa
219ad023
10958061
00000000
619fb42a
b529cbd5
80a1af32
d8cfdcd0
11a19a90
8a9a1042
222221a1
d04300f1
a4cfd54d
efe80d4c
519aaa2c
8061baa0
8aaa9989
5a90841c
22919aaa
ff204a16
20f300a1
0a2aa442
60c41509
08000000
8081b64d
21a4288a
91009021
e29dc47a
24031121
00000010
00000001
80138062
52219071
00004925
00000000
00000000
00000010
00000001
11618062
b0880271
0000125b
00000000
00000000
00000900
00000048
ffee00c1
dadd67a5
10dca2a6
2c92cbdc
8061a2dd
13447644
eaacac0a
1a3822b8
59b9cedd
fd4a8081
82aa37ca
a0aa8b29
c2184203
80816941
4411ca1c
3044caa1
48b7999a
10479faf
aed500a1
ad7d972c
20a447cf
11a20023
8080acba
c04bdbef
cccafc0d
5130ddcc
c02f19a2
aacb0061
2cf44aaa
06223235
c49ba87a
80802210
74671923
0a6c3166
2003aacc
c0999da2
a55400a0
a5757a52
ecdefe50
ff0d4fda
80a1ffdf
04a1ac1a
6f9a1d46
19a9d093
1a0c1832
92a980a1
0c454120
1c1dbcf5
2042a4a1
80a1d829
c9cc040a
04808a8a
39a0ca8a
672acc24
cda480a1
5e249515
a9c91b12
c144431c
00e1b1fd
dddc6552
ffec5774
caac2aa0
daadded0
444700a1
c2cc8c28
caab8a30
2692d0cf
80c0aa62
d594002b
b5b47659
5ead473d
040b2b34
888100a1
a9888988
4f86118b
4a02c8e3
00e14455
a2ca2a19
acdc9488
aa8acca8
2d405728
99070062
9d13a2bd
98992a99
08109a99
80c19a11
9c4ab8ba
312a23a2
8c088b0a
bf32242b
27a08082
8009ab19
88881110
0b008888
80f11109
a9999042
2baa3802
552d12a1
80d1e053
029180c1
6612adab
c4ddd9ac
848ba976
80c12c9a
44e1fea4
44aa6956
2aba2241
cc4924a1
220180a1
22d2fe11
feaa6d57
512576e7
8061bc12
988824c9
cc604719
dc64aaa0
00440cc0
922080a1
25b1cc19
a9a9ac50
12be3d40
00a26597
37ab9cc9
1011cc4a
bc9ca889
aa983a34
77c600c1
67adccda
82aadb6d
113b4456
80e1e7dd
acddec67
8a54d2cc
99a942a3
33cc9cac
c12a80a1
ee6c57cd
229a0022
f2ce221a
80c19d56
23a8ccda
39d9cc77
9aa9a809
109102a9
fa5a00a0
4ed6476e
cc4fd0c2
aafdaefe
80804420
73292124
0c1fccb4
1261aab0
02352112
cb698060
9c042cca
c4ab9baa
fbfaafcc
8060d230
a2fb9fbf
ad437200
7c03b2cb
923cbcda
b0bc8081
73b81a12
91ccba43
c91c0241
00c12525
da206675
ab5aacdd
4c441082
adfdfeed
dacb0081
4757da2f
c92f2152
187234c2
00a12cc5
0edea018
7cc1a0fa
dd49c047
9dac22ec
99a800c2
090a2301
c3dca8aa
33c1da75
00c1c29b
76671322
5544f6ee
7255aa5b
5025cdd0
888280e1
9a4214ac
cd3c0ca0
2c9274c3
80a112ca
a98b0120
fd1aa522
ce524a17
3a1454c4
011100a2
4a05ac02
810111cc
47ac1989
00a1dc5c
4ad7c846
adc4cdda
4cd35282
0ebc0820
ecbc80a0
4d1b319f
41710c4e
5c4c2d7a
80c1a34e
c5ca94aa
089c1abc
8109a181
7e3e5e92
21b100a2
2a9a10b1
00902900
542c7d1e
008180c2
cacc1a39
fca19c2a
472204aa
0c42ae75
dc8b00c1
fdcdefce
19daccdd
59acd28c
00a10ac4
ff554265
4466adfa
abc0bd42
ab0cdb29
28c200a1
00cdccbb
aaac54aa
dd2ad947
00a1ddec
cdcfcabd
aa4be20c
aa330cd1
08e3ceca
410880a1
8f90ecac
dbd9dcca
4325432c
80815454
f94d9a92
497495c2
b3cad251
1d441440
a5c380a1
9c185e75
8d34b2a4
2db3cc8c
80a1f0eb
ccdb61a4
2042543b
862daaaa
ad4ea7c7
01d080a1
b7c70f24
89aa5b74
1eb6263a
80a14e05
0aaa8433
2aaa1928
44451209
a1f1af54
3b0380a1
435ac64a
856eb448
b98ba89f
80e19229
20831a32
7220c419
3650cca4
4a001dc9
999180f1
004a000a
52c5a9dd
956d03b2
00a1cbbd
354451d1
e4eddf5d
ab7c5764
aa45e4dd
ccaa00a1
20efa975
e5accc0a
cc1b0832
00a10bca
5395ccdd
ac8cd29b
a918bafa
8ac8acac
0f2300c1
5654dcfd
dc8dba24
decdd8ea
00a154fc
a4acc95a
cd707727
842025e2
88ed9329
12aa0081
b2ab1102
aacabc22
cafc4f43
00c12448
4201c089
2c21ba2b
ad7256cd
424ac421
acca0061
6208a199
0084238a
5784cacc
00a1baa9
27a4888a
30da0c22
c0cddc2c
bc407610
00000010
00000001
63638062
74577266
00004377
00000000
00000000
00000010
00000001
d9ba8082
aacab90a
0000a9cf
00000000
00000000
00000900
00000048
da5d80f1
41352132
cbcc9a22
e1c0d8c8
00a288a8
43c01080
5421ae44
1e66439b
70477716
088800c2
8b919990
57a69080
4866442e
80a101ac
55c9ddae
caac5423
f9d5ebbf
d2efce9d
772880a1
84357a95
a125062c
0950d9d3
808189a9
429cad88
82123a24
3cbd922a
c20f7657
ffdd8061
b03c45fc
222a2002
48d11aa2
80a18424
4a75846b
a44149a3
a004b185
25b4034b
434480a1
aefeccac
45580233
a0995a23
00610082
02ca9a29
20020a78
c2dd9e02
24804066
aa2800c1
6595c0ad
ce1b8a62
fe5c76fe
80817977
11000088
80899100
4a34fd9c
a9a0d2ac
a5dc00a1
44745776
032414a9
104ca0a0
00a18a22
61564521
20524498
53743cbc
baaaaaba
219a80c1
a9cdaba8
8990818a
efcca9c9
00c101e3
df3cd3df
103a3ce0
234ba012
66760641
d94e80a1
3422e0ef
4b3b789a
a0aabca9
80a18322
4a94cfba
cd9baa34
accccbba
cabcbccc
19750081
8820c0ca
8a210200
a0223310
00a10100
da0f9809
44d02267
65ca0c54
2044eb4e
00000081
01228008
94bfcc9a
3aa49c42
80a0c29a
9099a316
52349b12
b9f94c52
de4b4129
10d980c0
34dbab9a
4dc7bc42
09e2ddcd
80a00101
1d4a4a90
21cd3cbd
9c612444
a55f7427
2ca180e0
fdde09b9
03a15bb4
a9900902
00a10b2c
0e44ebaf
f9ccf4fc
2089b2ef
adcc9909
b5270061
c0c0303a
8ad0eca9
22102242
00c10061
0d28c0fa
019812ea
34052120
03222443
644500a1
a6eefe70
0555feff
45e4a177
8081acc8
aaaaaaa9
dfedcdac
d92212f2
f392f0be
44a700a1
00796750
42bcff4e
5765539d
00828276
08801100
09198118
1c774594
910900a2
459800a2
13929902
922a8812
56f44b47
0062a068
b9895977
a89154a3
11018119
02134013
f90b0082
c4a90934
0923b213
bb09a8a9
80c11973
62764767
14c41050
d2eda18a
44a4da34
52218060
3274a3d3
52311001
197793a2
00a134ea
b36d2240
df6b5716
10acc41a
2944ef0a
80888061
23028008
0a431344
18ee6a57
0061c032
08aaeaf2
029d0238
03b25606
ff2aa258
04ea0061
22aa49a1
00572322
64040612
00a14323
adcaaa43
0aabc99c
c12000a2
9a6074a4
ebad00a1
eece4acc
100af8df
88c8aba9
00e10008
5276cda9
8424d50a
accccaa5
d0ada90a
edb980c0
96295c94
31e6ce59
91dd5c75
80a15525
86c64526
cbac9a7a
354928ac
9a226157
aaa980f1
26c5cd28
10a193bd
a39a39a9
00a2a954
08099800
abcdaa8a
9145cba8
e527a283
a28700a2
43422243
012a8ab0
321aa4a1
80610002
f20c9d09
aaa2faa8
eee25c13
18880288
cd2800a1
0001c24d
20c22cdb
b0efcd4e
80a14600
88fd7e94
2845ed2e
aa898a11
bbc46a20
aa190082
1aea4e46
20b74825
1aa30909
8061a9aa
05e9889b
9a54475c
a930cfcb
0a8c10ac
dc468060
bb4bc4fd
1a010000
926791c4
00814310
d4bb8008
42c34425
00999a24
6057ff9d
09800081
091a9a00
22222209
2cfc1c77
80a01a32
bdcd5ca4
254acdec
2cb54d40
fd73b562
089980c1
1199b9ba
e2cc9a19
12f2bd9c
80c14444
deca1934
bb1ddcad
d5f19dcc
9c30081c
ecef8061
3aa509df
0121c1ff
92481992
00c25bed
91ba3192
62bb922b
89b87a6e
c22ba002
ccec80c1
fdfb2dcc
205243cd
8010e8dd
00a12c8a
5f8dd40d
ababa2ea
241553aa
aaca7057
89b900e1
ecd22c2d
c512df52
cd44dc9b
8061d10d
09001110
0a189400
179099a5
ace8ef57
0aea00a1
a3539a04
575652cd
557a2525
00a1ac66
4b12d00c
aadacdca
7667c6f2
ccaaab33
02aa0082
42336237
44311821
c3bb8091
0062aa7a
a9762647
29884491
89809090
02255114
645380c1
d174c2ff
a84bbd2d
18aba1ca
8082bc44
81283702
81144324
19900998
00999908
00000010
00000001
92718062
32101589
00001586
00000000
00000000
00000010
00000001
12708062
b1080350
0000136c
00000000
00000000
00000900
00000048
ac4900a1
8c1702cd
c2c10268
5d34219a
00a1040a
c5004020
eedaa851
c4eeddad
44355772
ce9c00a1
ccc0fefe
65a4c00a
29425245
8061aaa2
ecdbad8a
31a4ebbf
ac3c2664
22bccccb
764700a1
dccc6b66
22e592ba
7fa1d4c4
80c19fc4
0812115a
108208b1
6d7e882a
94717df1
c5e800c1
485e4507
5c5adaa1
e5f65c2e
80a1015d
839980a0
e92e5591
f0b4274c
14c2c6d5
c93480a1
b5dfc1c6
011baa03
08404389
80a10989
09099109
a12ca2a1
2ff64c90
9209e066
310980c1
0cc1a0bd
4bb0150c
876eb5a3
008169ec
4af49dda
cba30d84
5fd4424c
34410083
2a6d00a1
cecd859f
0de88c8c
cc250f86
00c1a07d
65f0a48e
50f458df
228ccaba
0dbb9189
82da0081
44345543
ffafaa66
a2424357
00812283
65cb8a09
68775457
42443542
2488cadc
99290081
29a90b99
bc8a0aa2
efdbdfcc
80c0c890
36c5901c
d1467445
decda57c
565a03db
abec00a1
edaeaa91
2adfebde
641662f6
00a14448
0ffd2084
b2f9ddff
258c841a
aecc5640
ffc000a1
d30ceecd
dc1c4200
a233a4aa
00a12202
9ad1ae22
b22830a4
65a7a921
eca47d57
d24f00a1
acec0eed
20c023c4
32542544
00a16025
80404444
bdac4022
5475dcdc
32e3ce20
cfbb00a1
456425ef
9080b8ac
a720dc0e
00617776
40922271
12636234
2057e68c
c9ca0022
449a0081
af107744
023232fd
5714c8ad
00a1ab5a
ca0609dd
cc207207
34459282
6644a44a
224280c1
ddffefee
dddddddc
0891abdd
00a12344
a2a10a20
00085254
8a98a80a
acdcfeaa
aaec00a1
cee6df27
c0661590
f4cfde0c
006144ef
30438270
46a5cdb0
782fe3d1
2f252ee0
298100a1
ce3bbed0
